{
  "version": "1.0",
  "truncation": null,
  "padding": null,
  "added_tokens": [
    {
      "id": 0,
      "content": "<bos>",
      "single_word": false,
      "lstrip": false,
      "rstrip": false,
      "normalized": false,
      "special": true
    },
    {
      "id": 1,
      "content": "<eos>",
      "single_word": false,
      "lstrip": false,
      "rstrip": false,
      "normalized": false,
      "special": true
    },
    {
      "id": 2,
      "content": "<pad>",
      "single_word": false,
      "lstrip": false,
      "rstrip": false,
      "normalized": false,
      "special": true
    },
    {
      "id": 3,
      "content": "<unk>",
      "single_word": false,
      "lstrip": false,
      "rstrip": false,
      "normalized": false,
      "special": true
    },
    {
      "id": 8192,
      "content": "<|system|>",
      "single_word": false,
      "lstrip": false,
      "rstrip": false,
      "normalized": false,
      "special": true
    },
    {
      "id": 8193,
      "content": "<|user|>",
      "single_word": false,
      "lstrip": false,
      "rstrip": false,
      "normalized": false,
      "special": true
    },
    {
      "id": 8194,
      "content": "<|assistant|>",
      "single_word": false,
      "lstrip": false,
      "rstrip": false,
      "normalized": false,
      "special": true
    },
    {
      "id": 8195,
      "content": "<|im_start|>",
      "single_word": false,
      "lstrip": false,
      "rstrip": false,
      "normalized": false,
      "special": true
    },
    {
      "id": 8196,
      "content": "<|im_end|>",
      "single_word": false,
      "lstrip": false,
      "rstrip": false,
      "normalized": false,
      "special": true
    }
  ],
  "normalizer": null,
  "pre_tokenizer": {
    "type": "Sequence",
    "pretokenizers": [
      {
        "type": "Split",
        "pattern": {
          "Regex": "'s|'t|'re|'ve|'m|'ll|'d| ?\\p{L}+| ?\\p{N}+| ?[^\\s\\p{L}\\p{N}]+|\\s+(?!\\S)|\\s+"
        },
        "behavior": "Isolated",
        "invert": false
      },
      {
        "type": "ByteLevel",
        "add_prefix_space": false,
        "trim_offsets": true,
        "use_regex": false
      }
    ]
  },
  "post_processor": {
    "type": "TemplateProcessing",
    "single": [
      {
        "SpecialToken": {
          "id": "<bos>",
          "type_id": 0
        }
      },
      {
        "Sequence": {
          "id": "A",
          "type_id": 0
        }
      },
      {
        "SpecialToken": {
          "id": "<eos>",
          "type_id": 0
        }
      }
    ],
    "pair": [
      {
        "SpecialToken": {
          "id": "<bos>",
          "type_id": 0
        }
      },
      {
        "Sequence": {
          "id": "A",
          "type_id": 0
        }
      },
      {
        "SpecialToken": {
          "id": "<eos>",
          "type_id": 0
        }
      },
      {
        "SpecialToken": {
          "id": "<bos>",
          "type_id": 0
        }
      },
      {
        "Sequence": {
          "id": "B",
          "type_id": 1
        }
      },
      {
        "SpecialToken": {
          "id": "<eos>",
          "type_id": 1
        }
      }
    ],
    "special_tokens": {
      "<bos>": {
        "id": "<bos>",
        "ids": [
          0
        ],
        "tokens": [
          "<bos>"
        ]
      },
      "<eos>": {
        "id": "<eos>",
        "ids": [
          1
        ],
        "tokens": [
          "<eos>"
        ]
      }
    }
  },
  "decoder": {
    "type": "ByteLevel",
    "add_prefix_space": true,
    "trim_offsets": true,
    "use_regex": true
  },
  "model": {
    "type": "BPE",
    "dropout": null,
    "unk_token": "<unk>",
    "continuing_subword_prefix": null,
    "end_of_word_suffix": null,
    "fuse_unk": false,
    "byte_fallback": false,
    "ignore_merges": false,
    "vocab": {
      "<bos>": 0,
      "<eos>": 1,
      "<pad>": 2,
      "<unk>": 3,
      "!": 4,
      "\"": 5,
      "#": 6,
      "$": 7,
      "%": 8,
      "&": 9,
      "'": 10,
      "(": 11,
      ")": 12,
      "*": 13,
      "+": 14,
      ",": 15,
      "-": 16,
      ".": 17,
      "/": 18,
      "0": 19,
      "1": 20,
      "2": 21,
      "3": 22,
      "4": 23,
      "5": 24,
      "6": 25,
      "7": 26,
      "8": 27,
      "9": 28,
      ":": 29,
      ";": 30,
      "<": 31,
      "=": 32,
      ">": 33,
      "?": 34,
      "@": 35,
      "A": 36,
      "B": 37,
      "C": 38,
      "D": 39,
      "E": 40,
      "F": 41,
      "G": 42,
      "H": 43,
      "I": 44,
      "J": 45,
      "K": 46,
      "L": 47,
      "M": 48,
      "N": 49,
      "O": 50,
      "P": 51,
      "Q": 52,
      "R": 53,
      "S": 54,
      "T": 55,
      "U": 56,
      "V": 57,
      "W": 58,
      "X": 59,
      "Y": 60,
      "Z": 61,
      "[": 62,
      "\\": 63,
      "]": 64,
      "^": 65,
      "_": 66,
      "`": 67,
      "a": 68,
      "b": 69,
      "c": 70,
      "d": 71,
      "e": 72,
      "f": 73,
      "g": 74,
      "h": 75,
      "i": 76,
      "j": 77,
      "k": 78,
      "l": 79,
      "m": 80,
      "n": 81,
      "o": 82,
      "p": 83,
      "q": 84,
      "r": 85,
      "s": 86,
      "t": 87,
      "u": 88,
      "v": 89,
      "w": 90,
      "x": 91,
      "y": 92,
      "z": 93,
      "{": 94,
      "|": 95,
      "}": 96,
      "~": 97,
      "¡": 98,
      "¢": 99,
      "£": 100,
      "¤": 101,
      "¥": 102,
      "¦": 103,
      "§": 104,
      "¨": 105,
      "©": 106,
      "ª": 107,
      "«": 108,
      "¬": 109,
      "®": 110,
      "¯": 111,
      "°": 112,
      "±": 113,
      "²": 114,
      "³": 115,
      "´": 116,
      "µ": 117,
      "¶": 118,
      "·": 119,
      "¸": 120,
      "¹": 121,
      "º": 122,
      "»": 123,
      "¼": 124,
      "½": 125,
      "¾": 126,
      "¿": 127,
      "À": 128,
      "Á": 129,
      "Â": 130,
      "Ã": 131,
      "Ä": 132,
      "Å": 133,
      "Æ": 134,
      "Ç": 135,
      "È": 136,
      "É": 137,
      "Ê": 138,
      "Ë": 139,
      "Ì": 140,
      "Í": 141,
      "Î": 142,
      "Ï": 143,
      "Ð": 144,
      "Ñ": 145,
      "Ò": 146,
      "Ó": 147,
      "Ô": 148,
      "Õ": 149,
      "Ö": 150,
      "×": 151,
      "Ø": 152,
      "Ù": 153,
      "Ú": 154,
      "Û": 155,
      "Ü": 156,
      "Ý": 157,
      "Þ": 158,
      "ß": 159,
      "à": 160,
      "á": 161,
      "â": 162,
      "ã": 163,
      "ä": 164,
      "å": 165,
      "æ": 166,
      "ç": 167,
      "è": 168,
      "é": 169,
      "ê": 170,
      "ë": 171,
      "ì": 172,
      "í": 173,
      "î": 174,
      "ï": 175,
      "ð": 176,
      "ñ": 177,
      "ò": 178,
      "ó": 179,
      "ô": 180,
      "õ": 181,
      "ö": 182,
      "÷": 183,
      "ø": 184,
      "ù": 185,
      "ú": 186,
      "û": 187,
      "ü": 188,
      "ý": 189,
      "þ": 190,
      "ÿ": 191,
      "Ā": 192,
      "ā": 193,
      "Ă": 194,
      "ă": 195,
      "Ą": 196,
      "ą": 197,
      "Ć": 198,
      "ć": 199,
      "Ĉ": 200,
      "ĉ": 201,
      "Ċ": 202,
      "ċ": 203,
      "Č": 204,
      "č": 205,
      "Ď": 206,
      "ď": 207,
      "Đ": 208,
      "đ": 209,
      "Ē": 210,
      "ē": 211,
      "Ĕ": 212,
      "ĕ": 213,
      "Ė": 214,
      "ė": 215,
      "Ę": 216,
      "ę": 217,
      "Ě": 218,
      "ě": 219,
      "Ĝ": 220,
      "ĝ": 221,
      "Ğ": 222,
      "ğ": 223,
      "Ġ": 224,
      "ġ": 225,
      "Ģ": 226,
      "ģ": 227,
      "Ĥ": 228,
      "ĥ": 229,
      "Ħ": 230,
      "ħ": 231,
      "Ĩ": 232,
      "ĩ": 233,
      "Ī": 234,
      "ī": 235,
      "Ĭ": 236,
      "ĭ": 237,
      "Į": 238,
      "į": 239,
      "İ": 240,
      "ı": 241,
      "Ĳ": 242,
      "ĳ": 243,
      "Ĵ": 244,
      "ĵ": 245,
      "Ķ": 246,
      "ķ": 247,
      "ĸ": 248,
      "Ĺ": 249,
      "ĺ": 250,
      "Ļ": 251,
      "ļ": 252,
      "Ľ": 253,
      "ľ": 254,
      "Ŀ": 255,
      "ŀ": 256,
      "Ł": 257,
      "ł": 258,
      "Ń": 259,
      "he": 260,
      "Ġt": 261,
      "Ġa": 262,
      "Ġs": 263,
      "Ġw": 264,
      "nd": 265,
      "Ġthe": 266,
      "ed": 267,
      "Ġand": 268,
      "Ġto": 269,
      "Ġb": 270,
      "in": 271,
      "Ġh": 272,
      "re": 273,
      "Ġwa": 274,
      "ou": 275,
      "Ġf": 276,
      "it": 277,
      "Ġc": 278,
      "Ġl": 279,
      "Ġd": 280,
      "er": 281,
      "Ġhe": 282,
      "Ġm": 283,
      "Ġp": 284,
      "Ġwas": 285,
      "ĠT": 286,
      "om": 287,
      "Ġo": 288,
      "ay": 289,
      "ar": 290,
      "is": 291,
      "ing": 292,
      "il": 293,
      "Ġg": 294,
      "id": 295,
      "at": 296,
      "en": 297,
      "Ġn": 298,
      "Ġsa": 299,
      "ĠThe": 300,
      "Ġha": 301,
      "ĠS": 302,
      "an": 303,
      "im": 304,
      "or": 305,
      "on": 306,
      "Ġit": 307,
      "Ġth": 308,
      "ll": 309,
      "le": 310,
      "ĠH": 311,
      "ot": 312,
      "Ġher": 313,
      "et": 314,
      "ir": 315,
      "ĠShe": 316,
      "es": 317,
      "ĠHe": 318,
      "Ġin": 319,
      "ĠThey": 320,
      "ver": 321,
      "ut": 322,
      "ow": 323,
      "ck": 324,
      "Ġy": 325,
      "Ġe": 326,
      "Ġu": 327,
      "ld": 328,
      "oo": 329,
      "Ġsaid": 330,
      "ily": 331,
      "ig": 332,
      "Ġ\"": 333,
      "Ġr": 334,
      "Ġbe": 335,
      "am": 336,
      "ĠI": 337,
      "Ġst": 338,
      "ke": 339,
      "ce": 340,
      "ve": 341,
      "ith": 342,
      "pp": 343,
      "Ġshe": 344,
      "Lily": 345,
      "Ġwith": 346,
      "Ġyou": 347,
      "Ġon": 348,
      "On": 349,
      "ked": 350,
      "ri": 351,
      "Ġof": 352,
      "Ġpl": 353,
      "nt": 354,
      "ad": 355,
      "Ġhis": 356,
      "Ġso": 357,
      "very": 358,
      "Ġday": 359,
      "Ġthat": 360,
      "Ġplay": 361,
      "ĠLily": 362,
      "Ġup": 363,
      "Ġthey": 364,
      "Ġhad": 365,
      "st": 366,
      "Ġwe": 367,
      "Ġmom": 368,
      "ĠB": 369,
      "Ġfor": 370,
      "el": 371,
      "un": 372,
      "'s": 373,
      "ould": 374,
      "my": 375,
      "Ġli": 376,
      "The": 377,
      "ch": 378,
      "Ġwant": 379,
      "Ġhapp": 380,
      "ent": 381,
      "Ġsh": 382,
      "itt": 383,
      "out": 384,
      "her": 385,
      "Ġnot": 386,
      "Ġdo": 387,
      "ome": 388,
      "se": 389,
      "Ġvery": 390,
      "end": 391,
      "ly": 392,
      "all": 393,
      "ound": 394,
      "Ġwh": 395,
      "Ġk": 396,
      "ime": 397,
      "ittle": 398,
      "ĠM": 399,
      "Ġtime": 400,
      "al": 401,
      "Ġne": 402,
      "Ġlittle": 403,
      "Ġis": 404,
      "ht": 405,
      "Ġthere": 406,
      "Ġbig": 407,
      "Ġhappy": 408,
      "ĠIt": 409,
      "Ġre": 410,
      "Ġsm": 411,
      "Ġbut": 412,
      ".\"": 413,
      "ry": 414,
      "Ġsaw": 415,
      "Ġan": 416,
      "ra": 417,
      "riend": 418,
      "ĠĊ": 419,
      "Ġfriend": 420,
      "Ġas": 421,
      "ack": 422,
      "ake": 423,
      "One": 424,
      "ide": 425,
      "!\"": 426,
      "'t": 427,
      "ug": 428,
      "Ġloo": 429,
      "Ġwere": 430,
      "ter": 431,
      "ved": 432,
      "Ġlo": 433,
      "ore": 434,
      "Once": 435,
      "Ġse": 436,
      "Ġtoo": 437,
      "Ġbo": 438,
      "Ġhim": 439,
      "Ġgo": 440,
      "Ġare": 441,
      "ec": 442,
      "ĠTim": 443,
      "ill": 444,
      "Ġwanted": 445,
      "Ġj": 446,
      "ard": 447,
      "Ġthem": 448,
      "irl": 449,
      "Ġupon": 450,
      "Ġtheir": 451,
      "Ġat": 452,
      "Ġgirl": 453,
      "Ġout": 454,
      "ur": 455,
      "Ġdid": 456,
      "ind": 457,
      "ĠA": 458,
      "ays": 459,
      "fu": 460,
      "Ġsp": 461,
      "Ġsmil": 462,
      "Ġhave": 463,
      "Ġcould": 464,
      "hen": 465,
      "ain": 466,
      "hed": 467,
      "ĠBen": 468,
      "art": 469,
      "Ġcan": 470,
      "rom": 471,
      "Ġwent": 472,
      "Ġex": 473,
      "ic": 474,
      "Ġar": 475,
      "lp": 476,
      "?\"": 477,
      "ood": 478,
      "ful": 479,
      "Ġfriends": 480,
      "Ġnam": 481,
      "ight": 482,
      "Ġkn": 483,
      "ĠJ": 484,
      "hing": 485,
      "Ġhelp": 486,
      "Ġall": 487,
      "You": 488,
      "um": 489,
      "ark": 490,
      "one": 491,
      "Ġback": 492,
      "ĠTom": 493,
      "Ġfun": 494,
      "Ġcl": 495,
      "are": 496,
      "Ġno": 497,
      "Ġle": 498,
      "op": 499,
      "Ġsc": 500,
      "Ġnamed": 501,
      "Ġal": 502,
      "elt": 503,
      "Ġsmiled": 504,
      "oug": 505,
      "Ġman": 506,
      "Ġloved": 507,
      "Ġtoy": 508,
      "side": 509,
      "ĠOne": 510,
      "Ġlike": 511,
      "ick": 512,
      "Ġasked": 513,
      "Ġfelt": 514,
      "Ġfe": 515,
      "Ġme": 516,
      "Ġsee": 517,
      "Ġlooked": 518,
      "Ġsome": 519,
      "ame": 520,
      "ĠW": 521,
      "Ġro": 522,
      "Ġaround": 523,
      "ĠTimmy": 524,
      "omet": 525,
      "Ġbr": 526,
      "ure": 527,
      "ice": 528,
      "Ġbir": 529,
      "get": 530,
      "Ġboy": 531,
      "Ġwould": 532,
      "ong": 533,
      "Ġstart": 534,
      "ss": 535,
      "Ġbird": 536,
      "Ġfa": 537,
      "Ġsomet": 538,
      "way": 539,
      ",\"": 540,
      "Ġmake": 541,
      "ings": 542,
      "Ġag": 543,
      "ĠYou": 544,
      "ade": 545,
      "Ġsays": 546,
      "Ġwhat": 547,
      "dd": 548,
      "Ġwor": 549,
      "ĠBut": 550,
      "Ã¢": 551,
      "âĤ": 552,
      "âĤ¬": 553,
      "king": 554,
      "own": 555,
      "Ġran": 556,
      "Ġaway": 557,
      "gether": 558,
      "Ġtre": 559,
      "ie": 560,
      "ared": 561,
      "ag": 562,
      "oud": 563,
      "Ġcar": 564,
      "Ġstarted": 565,
      "Ġmade": 566,
      "if": 567,
      "Ġtogether": 568,
      "ther": 569,
      "Ġpark": 570,
      "Ġco": 571,
      "Ġsomething": 572,
      "Ġsad": 573,
      "Ġother": 574,
      "ited": 575,
      "Ġnew": 576,
      "Ġfrom": 577,
      "Ġput": 578,
      "ell": 579,
      "ook": 580,
      "Ġhug": 581,
      "Ġla": 582,
      "Ġpr": 583,
      "ach": 584,
      "ĠL": 585,
      "ble": 586,
      "Ġagain": 587,
      "Ġgood": 588,
      "Ġexc": 589,
      "Ġmu": 590,
      "Ġhome": 591,
      "ep": 592,
      "Ġfl": 593,
      "ried": 594,
      "Ġwhen": 595,
      "Ġwho": 596,
      "hat": 597,
      "est": 598,
      "Ġch": 599,
      "Ġfound": 600,
      "Ġthen": 601,
      "pped": 602,
      "Ġdec": 603,
      "as": 604,
      "nn": 605,
      "Ġget": 606,
      "Ġwal": 607,
      "Ġplaying": 608,
      "qu": 609,
      "Ġsw": 610,
      "ought": 611,
      "Ġliked": 612,
      "uck": 613,
      "Ġthings": 614,
      "pl": 615,
      "ally": 616,
      "ĠE": 617,
      "ous": 618,
      "Ġgot": 619,
      "ro": 620,
      "Ġbl": 621,
      "ĠMom": 622,
      "ara": 623,
      "Ġyour": 624,
      "Ġexcited": 625,
      "Ġdog": 626,
      "Ġcame": 627,
      "ave": 628,
      "ided": 629,
      "ax": 630,
      "Ġevery": 631,
      "ĠD": 632,
      "Ġdecided": 633,
      "nna": 634,
      "Ġscared": 635,
      "Ġv": 636,
      "ust": 637,
      "Ġdown": 638,
      "Ġcare": 639,
      "ouse": 640,
      "Ġone": 641,
      "Ġfind": 642,
      "They": 643,
      "ist": 644,
      "ap": 645,
      "Ġbec": 646,
      "ny": 647,
      "Ġthan": 648,
      "ue": 649,
      "Ġwill": 650,
      "Ġfeel": 651,
      "Ġmy": 652,
      "Ġab": 653,
      "Ġdad": 654,
      "arn": 655,
      "Ġlook": 656,
      "our": 657,
      "udd": 658,
      "Ġgr": 659,
      "Ġgra": 660,
      "ers": 661,
      "us": 662,
      "ess": 663,
      "Ġke": 664,
      "Ġtoys": 665,
      "Ġpo": 666,
      "Ġdidn": 667,
      "ways": 668,
      "Ġtook": 669,
      "fe": 670,
      "Ġball": 671,
      "nder": 672,
      "Ġabout": 673,
      "ĠSam": 674,
      "Ġalways": 675,
      "Ġmommy": 676,
      "Ġlot": 677,
      "ant": 678,
      "bb": 679,
      "Ġkne": 680,
      "ise": 681,
      "Ġtree": 682,
      "Ġoutside": 683,
      "ĠF": 684,
      "Ġthought": 685,
      "Ġta": 686,
      "Ġmore": 687,
      "Ġlearn": 688,
      "ened": 689,
      "ite": 690,
      "ret": 691,
      "Ġho": 692,
      "Ġknow": 693,
      "Ġsor": 694,
      "ched": 695,
      "ged": 696,
      "eci": 697,
      "Ġint": 698,
      "Ġcat": 699,
      "Ġold": 700,
      "Ġtake": 701,
      "Ġlaug": 702,
      "ĠMax": 703,
      "ia": 704,
      "ive": 705,
      "Ġknew": 706,
      "Ġspeci": 707,
      "Ġspecial": 708,
      "Ġany": 709,
      "Ġpe": 710,
      "Ġsorry": 711,
      "udden": 712,
      "fter": 713,
      "Ġhow": 714,
      "ink": 715,
      "But": 716,
      "Ġshow": 717,
      "ma": 718,
      "Ġrun": 719,
      "ish": 720,
      "Ġtr": 721,
      "uddenly": 722,
      "au": 723,
      "Ġsl": 724,
      "Ġmuch": 725,
      "Ġtw": 726,
      "and": 727,
      "Ġhand": 728,
      "Ġor": 729,
      "Ġhouse": 730,
      "Ġop": 731,
      "Tom": 732,
      "Ġwater": 733,
      "Ġmo": 734,
      "ven": 735,
      "Ġtried": 736,
      "Ġsk": 737,
      "Ġsun": 738,
      "Ġclo": 739,
      "ank": 740,
      "Ġinto": 741,
      "Ġinside": 742,
      "ate": 743,
      "ump": 744,
      "ĠSara": 745,
      "Ġtold": 746,
      "ĠWe": 747,
      "Ġgave": 748,
      "Ġeach": 749,
      "ĠAnna": 750,
      "ty": 751,
      "Ġproud": 752,
      "Ġeat": 753,
      "Ġif": 754,
      "Ġroom": 755,
      "Ġheard": 756,
      "Ġthis": 757,
      "ace": 758,
      "Ġover": 759,
      "Ġen": 760,
      "Ġqu": 761,
      "Ġnever": 762,
      "Ġpret": 763,
      "Ġcouldn": 764,
      "other": 765,
      "dy": 766,
      "Ġplayed": 767,
      "Mom": 768,
      "ak": 769,
      "ause": 770,
      "by": 771,
      "Ġpick": 772,
      "ion": 773,
      "Ġhugged": 774,
      "etter": 775,
      "ĠEvery": 776,
      "Ġgre": 777,
      "here": 778,
      "ge": 779,
      "Ġexpl": 780,
      "Ġjust": 781,
      "Ġcom": 782,
      "Ġbox": 783,
      "Ġnice": 784,
      "Ġneed": 785,
      "Ġmany": 786,
      "oth": 787,
      "Ġwat": 788,
      "Ġoff": 789,
      "'m": 790,
      "Ġbecause": 791,
      "Ġstr": 792,
      "ile": 793,
      "gry": 794,
      "Ġsmall": 795,
      "Ġbu": 796,
      "Ġfo": 797,
      "ving": 798,
      "iz": 799,
      "Ġlong": 800,
      "ine": 801,
      "Ġsn": 802,
      "imal": 803,
      "Ġjo": 804,
      "Ġanimal": 805,
      "Ġbear": 806,
      "urt": 807,
      "Ġtry": 808,
      "ort": 809,
      "uc": 810,
      "Ġlearned": 811,
      "ough": 812,
      "Ġlove": 813,
      "Ġunt": 814,
      "sel": 815,
      "sed": 816,
      "ild": 817,
      "ĠMia": 818,
      "Ġkind": 819,
      "Ġuntil": 820,
      "Ġbetter": 821,
      "ft": 822,
      "Ġsay": 823,
      "Ġflow": 824,
      "Ġdon": 825,
      "ĠJack": 826,
      "Ġim": 827,
      "ĠAnd": 828,
      "He": 829,
      "urn": 830,
      "Ġcle": 831,
      "ady": 832,
      "Ġend": 833,
      "Ġbest": 834,
      "Ġpu": 835,
      "ves": 836,
      "Ġcall": 837,
      "Yes": 838,
      "Ġte": 839,
      "ars": 840,
      "ream": 841,
      "Ġcareful": 842,
      "ĠC": 843,
      "Ġfast": 844,
      "urp": 845,
      "aut": 846,
      "Ġad": 847,
      "vent": 848,
      "Th": 849,
      "arden": 850,
      "Ġgarden": 851,
      "Ġfi": 852,
      "ies": 853,
      "ber": 854,
      "ase": 855,
      "ĠJo": 856,
      "Ġbeaut": 857,
      "Ġloud": 858,
      "Ġjump": 859,
      "Ġbra": 860,
      "Ġche": 861,
      "Ġthanked": 862,
      "Ġsky": 863,
      "Ġlaughed": 864,
      "It": 865,
      "em": 866,
      "Ġeven": 867,
      "pt": 868,
      "ĠSo": 869,
      "Ġby": 870,
      "ĠHer": 871,
      "Ġlist": 872,
      "iny": 873,
      "lly": 874,
      "self": 875,
      "wn": 876,
      "Ġgl": 877,
      "Ġhurt": 878,
      "Ġcome": 879,
      "Åĵ": 880,
      "Ġhard": 881,
      "Ġstill": 882,
      "lew": 883,
      "Ġbeauti": 884,
      "Ġanimals": 885,
      "Ġbeautiful": 886,
      "Ġway": 887,
      "Ġwo": 888,
      "Ġfam": 889,
      "Ġlots": 890,
      "Ġunder": 891,
      "Ġra": 892,
      "Ġlet": 893,
      "be": 894,
      "hes": 895,
      "ĠThen": 896,
      "ct": 897,
      "Ġbad": 898,
      "ect": 899,
      "ning": 900,
      "Ġboth": 901,
      "Ġsafe": 902,
      "Ġstay": 903,
      "ĠFrom": 904,
      "ool": 905,
      "Ġcu": 906,
      "ĠHis": 907,
      "kay": 908,
      "Ġcol": 909,
      "ock": 910,
      "Ġbook": 911,
      "ĠÃ¢": 912,
      "ast": 913,
      "ople": 914,
      "Tim": 915,
      "Ġangry": 916,
      "Ġrem": 917,
      "Ġshould": 918,
      "Ġimp": 919,
      "No": 920,
      "Ġlived": 921,
      "ree": 922,
      "ished": 923,
      "Ġtwo": 924,
      "ress": 925,
      "Ġits": 926,
      "Ġbrave": 927,
      "Ġred": 928,
      "Ġwalked": 929,
      "Ġpeople": 930,
      "igh": 931,
      "ane": 932,
      "urpr": 933,
      "Ġfamily": 934,
      "Ġshare": 935,
      "ucy": 936,
      "Ġstor": 937,
      "Ġflew": 938,
      "Ġsurpr": 939,
      "Ġfin": 940,
      "ob": 941,
      "Ġsoon": 942,
      "Ġdan": 943,
      "When": 944,
      "ip": 945,
      "Let": 946,
      "Ben": 947,
      "Ġfly": 948,
      "Ġcalled": 949,
      "fore": 950,
      "xt": 951,
      "led": 952,
      "Ġdoll": 953,
      "dded": 954,
      "Ġpic": 955,
      "Ġclean": 956,
      "Ġkept": 957,
      "Ġfore": 958,
      "Ġpretty": 959,
      "ised": 960,
      "Ġdoor": 961,
      "Ġrock": 962,
      "Ġgoing": 963,
      "ĠP": 964,
      "hn": 965,
      "Ġshiny": 966,
      "Ġkeep": 967,
      "Ġnoise": 968,
      "Ġnow": 969,
      "ĠWhen": 970,
      "Ġcry": 971,
      "Ġdra": 972,
      "Ġwind": 973,
      "so": 974,
      "Ġreal": 975,
      "Ġturn": 976,
      "Ġopened": 977,
      "ummy": 978,
      "ary": 979,
      "Ġbefore": 980,
      "Ġide": 981,
      "Ġalso": 982,
      "Ġadvent": 983,
      "âĤ¬â": 984,
      "les": 985,
      "Ġground": 986,
      "age": 987,
      "Ġsto": 988,
      "Ġcon": 989,
      "illy": 990,
      "ied": 991,
      "Ġey": 992,
      "What": 993,
      "Ġhas": 994,
      "Ġfr": 995,
      "Ġexplore": 996,
      "Ġidea": 997,
      "oon": 998,
      "Ġcolor": 999,
      "Ġfar": 1000,
      "Ġnodded": 1001,
      "kes": 1002,
      "imb": 1003,
      "That": 1004,
      "Ġwar": 1005,
      "Ġun": 1006,
      "aybe": 1007,
      "th": 1008,
      "Ġclimb": 1009,
      "Ġnext": 1010,
      "uch": 1011,
      "Ġpicked": 1012,
      "thing": 1013,
      "ĠDad": 1014,
      "ture": 1015,
      "Ġma": 1016,
      "oy": 1017,
      "Ġwhile": 1018,
      "Ġsmile": 1019,
      "Ġfeeling": 1020,
      "eet": 1021,
      "Ħ¢": 1022,
      "âĤ¬âĦ¢": 1023,
      "Ġbed": 1024,
      "Ġthr": 1025,
      "Ġwalking": 1026,
      "Ġtruck": 1027,
      "Thank": 1028,
      "ĠLucy": 1029,
      "ger": 1030,
      "Ġthink": 1031,
      "ff": 1032,
      "Ġwr": 1033,
      "Ġadventure": 1034,
      "Ġbeing": 1035,
      "Ġgive": 1036,
      "Ġfood": 1037,
      "ĠG": 1038,
      "Ġpicture": 1039,
      "Ġlisten": 1040,
      "pot": 1041,
      "Ġtow": 1042,
      "Ġdif": 1043,
      "Ġbro": 1044,
      "Ġtra": 1045,
      "iced": 1046,
      "Ġbre": 1047,
      "Ġclos": 1048,
      "ted": 1049,
      "ac": 1050,
      "Ġeyes": 1051,
      "ious": 1052,
      "joy": 1053,
      "Ġwait": 1054,
      "Ġafter": 1055,
      "Ġown": 1056,
      "ught": 1057,
      "Ġstopped": 1058,
      "Ġdel": 1059,
      "Ġflowers": 1060,
      "Ġlooking": 1061,
      "ting": 1062,
      "Ġshout": 1063,
      "Ġrepl": 1064,
      "Ġhead": 1065,
      "Ġhands": 1066,
      "ember": 1067,
      "Ġwalk": 1068,
      "She": 1069,
      "Ġblue": 1070,
      "Ġfish": 1071,
      "Ġvo": 1072,
      "Ġgreat": 1073,
      "Ġmean": 1074,
      "Ġever": 1075,
      "irst": 1076,
      "Ġslide": 1077,
      "ized": 1078,
      "Ġimport": 1079,
      "Ġnear": 1080,
      "Ġask": 1081,
      "Ġus": 1082,
      "Ġenjoy": 1083,
      "able": 1084,
      "lease": 1085,
      "ĠSuddenly": 1086,
      "Suddenly": 1087,
      "Ġsound": 1088,
      "Ġokay": 1089,
      "Ġforest": 1090,
      "Ġdis": 1091,
      "Ġnoticed": 1092,
      "llow": 1093,
      "Ġremember": 1094,
      "bbit": 1095,
      "Ġrain": 1096,
      "Ġapp": 1097,
      "We": 1098,
      "Ġquick": 1099,
      "Ġde": 1100,
      "Ġwatch": 1101,
      "Ġimportant": 1102,
      "Anna": 1103,
      "Ġwonder": 1104,
      "Ġstick": 1105,
      "Ġshowed": 1106,
      "Ġtal": 1107,
      "Ġboat": 1108,
      "Ġour": 1109,
      "maz": 1110,
      "Ġwork": 1111,
      "Ġamaz": 1112,
      "Ġreplied": 1113,
      "bbed": 1114,
      "Ġac": 1115,
      "fere": 1116,
      "Ġright": 1117,
      "ĠSpot": 1118,
      "Ġdiffere": 1119,
      "bye": 1120,
      "Ġstrong": 1121,
      "Ġfollow": 1122,
      "Ġsqu": 1123,
      "Ġdoes": 1124,
      "Ġbright": 1125,
      "Ġrabbit": 1126,
      "Ġwhere": 1127,
      "Ġeveryone": 1128,
      "gan": 1129,
      "Ġuse": 1130,
      "day": 1131,
      "co": 1132,
      "Ġwatched": 1133,
      "Look": 1134,
      "Ġyell": 1135,
      "Ġhop": 1136,
      "ĠSue": 1137,
      "ila": 1138,
      "Sara": 1139,
      "ath": 1140,
      "Ġface": 1141,
      "Ġmor": 1142,
      "Ġam": 1143,
      "ĠMommy": 1144,
      "ered": 1145,
      "Ġdress": 1146,
      "Ġquickly": 1147,
      "Ġdifferent": 1148,
      "Ġbeen": 1149,
      "Ġvoice": 1150,
      "Ġcuri": 1151,
      "ĠN": 1152,
      "Ġbecame": 1153,
      "ange": 1154,
      "Ġsure": 1155,
      "Ġye": 1156,
      "So": 1157,
      "ng": 1158,
      "aught": 1159,
      "Ġplace": 1160,
      "ĠBob": 1161,
      "Ġcook": 1162,
      "Ġstore": 1163,
      "Ġchild": 1164,
      "Ġhigh": 1165,
      "Ġcake": 1166,
      "Ġwarm": 1167,
      "ĠR": 1168,
      "Ġgoodbye": 1169,
      "Ġforg": 1170,
      "ndma": 1171,
      "Ġmag": 1172,
      "Ġtell": 1173,
      "Ġblock": 1174,
      "leep": 1175,
      "Ġcloser": 1176,
      "more": 1177,
      "Ġanymore": 1178,
      "Ġcurious": 1179,
      "itc": 1180,
      "ass": 1181,
      "Ġfav": 1182,
      "ount": 1183,
      "Ġnight": 1184,
      "Ġbel": 1185,
      "Ġpull": 1186,
      "imes": 1187,
      "Ġopen": 1188,
      "ĠTh": 1189,
      "Ġhere": 1190,
      "Ġfirst": 1191,
      "unny": 1192,
      "Ġz": 1193,
      "Her": 1194,
      "Ġfell": 1195,
      "iss": 1196,
      "Ġbus": 1197,
      "Can": 1198,
      "ired": 1199,
      "ached": 1200,
      "Jo": 1201,
      "Ġru": 1202,
      "Ġpain": 1203,
      "Ġlea": 1204,
      "orn": 1205,
      "Ġsees": 1206,
      "Ġkid": 1207,
      "Ġsweet": 1208,
      "Ġgrabbed": 1209,
      "Ġbutter": 1210,
      "Ġonly": 1211,
      "ull": 1212,
      "itchen": 1213,
      "Ġkitchen": 1214,
      "Ġthree": 1215,
      "Ġsand": 1216,
      "Ġflo": 1217,
      "Ġstop": 1218,
      "Ġbirds": 1219,
      "Ġmon": 1220,
      "Ġhelped": 1221,
      "Ġbit": 1222,
      "Ġfire": 1223,
      "Ġjumped": 1224,
      "Ġglad": 1225,
      "Ġcont": 1226,
      "Ġba": 1227,
      "Ġhappened": 1228,
      "isy": 1229,
      "Ġcra": 1230,
      "ĠDo": 1231,
      "Ġdr": 1232,
      "Ġtri": 1233,
      "Ġcr": 1234,
      "Ġsing": 1235,
      "Ġgrass": 1236,
      "Ġshouted": 1237,
      "Ġbrother": 1238,
      "ĠLet": 1239,
      "Ġbeh": 1240,
      "ppy": 1241,
      "After": 1242,
      "ins": 1243,
      "Ġmess": 1244,
      "Ġlady": 1245,
      "Ġper": 1246,
      "Ġstory": 1247,
      "akes": 1248,
      "air": 1249,
      "Ġrealized": 1250,
      "nts": 1251,
      "Ġreached": 1252,
      "Ġhat": 1253,
      "Ġyummy": 1254,
      "Ġsoft": 1255,
      "'re": 1256,
      "Ġpretend": 1257,
      "Ġate": 1258,
      "Ġhaving": 1259,
      "Ġunderst": 1260,
      "ĠSarah": 1261,
      "Ġdraw": 1262,
      "Ġfavor": 1263,
      "Ġgame": 1264,
      "Ġpap": 1265,
      "Ġfavorite": 1266,
      "Ġless": 1267,
      "ĠCan": 1268,
      "Ġprin": 1269,
      "Ġrest": 1270,
      "Ġlooks": 1271,
      "Ġcre": 1272,
      "zy": 1273,
      "ater": 1274,
      "ĠAs": 1275,
      "Ġbunny": 1276,
      "Ġready": 1277,
      "ĠJane": 1278,
      "Ġthing": 1279,
      "ken": 1280,
      "Ġthrough": 1281,
      "Ġmaking": 1282,
      "Ġpare": 1283,
      "ĠThat": 1284,
      "where": 1285,
      "Ġduck": 1286,
      "ĠEveryone": 1287,
      "Ġcars": 1288,
      "Ġmagic": 1289,
      "Ġcut": 1290,
      "Ġreally": 1291,
      "ather": 1292,
      "Ġmum": 1293,
      "Wow": 1294,
      "Ġkids": 1295,
      "Ġtouch": 1296,
      "Mommy": 1297,
      "Ġtired": 1298,
      "Ġhimself": 1299,
      "Ġfix": 1300,
      "Ġpond": 1301,
      "Ġworld": 1302,
      "Ġdone": 1303,
      "Ġprom": 1304,
      "Ġcoming": 1305,
      "Ġworry": 1306,
      "Ġcried": 1307,
      "uff": 1308,
      "Ġbegan": 1309,
      "Ġcatch": 1310,
      "Ġwaved": 1311,
      "bo": 1312,
      "Ġblocks": 1313,
      "Ġwhy": 1314,
      "Ġbutterf": 1315,
      "Ġfunny": 1316,
      "fully": 1317,
      "Ġpus": 1318,
      "sh": 1319,
      "Ġhold": 1320,
      "Ġname": 1321,
      "Ġhair": 1322,
      "Ġpart": 1323,
      "Ġste": 1324,
      "Ġanother": 1325,
      "Ġfro": 1326,
      "Ġflower": 1327,
      "ster": 1328,
      "Ġused": 1329,
      "oney": 1330,
      "ĠJoe": 1331,
      "eddy": 1332,
      "rel": 1333,
      "ign": 1334,
      "Ġfill": 1335,
      "Ġtast": 1336,
      "Ġgreen": 1337,
      "Ġcool": 1338,
      "Ġseen": 1339,
      "Ġlikes": 1340,
      "ient": 1341,
      "Ġtop": 1342,
      "iver": 1343,
      "Ġmouse": 1344,
      "Ġwished": 1345,
      "Ġdelic": 1346,
      "Ġthank": 1347,
      "Ġparents": 1348,
      "Ġlight": 1349,
      "hy": 1350,
      "Ġfloor": 1351,
      "olly": 1352,
      "Ġswim": 1353,
      "Ġdoing": 1354,
      "Ġpaper": 1355,
      "Ġgi": 1356,
      "Don": 1357,
      "mer": 1358,
      "Ġbag": 1359,
      "Ġlesson": 1360,
      "As": 1361,
      "Ġdri": 1362,
      "Sam": 1363,
      "Timmy": 1364,
      "aisy": 1365,
      "ation": 1366,
      "ards": 1367,
      "Ġsurprise": 1368,
      "Ġbehind": 1369,
      "Ġsmell": 1370,
      "Ġwindow": 1371,
      "Ġbow": 1372,
      "Ġhopped": 1373,
      "ĠJohn": 1374,
      "Ġread": 1375,
      "Ġdro": 1376,
      "Ġsleep": 1377,
      "\".": 1378,
      "Ġhole": 1379,
      "Ġdin": 1380,
      "Ġyellow": 1381,
      "Ġdark": 1382,
      "ike": 1383,
      "Ġrunning": 1384,
      "Ġtrees": 1385,
      "Ġworked": 1386,
      "andy": 1387,
      "Ġsho": 1388,
      "Ġwood": 1389,
      "Ġlaugh": 1390,
      "ren": 1391,
      "Ġspot": 1392,
      "Ġfull": 1393,
      "Ġsat": 1394,
      "Ġswing": 1395,
      "ued": 1396,
      "ely": 1397,
      "rew": 1398,
      "Ġice": 1399,
      "Ġcold": 1400,
      "Ġhappily": 1401,
      "Ġhear": 1402,
      "ul": 1403,
      "Ġwear": 1404,
      "Ġlost": 1405,
      "Hell": 1406,
      "Hello": 1407,
      "Ġsurprised": 1408,
      "Ġremembered": 1409,
      "Ġset": 1410,
      "Ġslow": 1411,
      "Ġ-": 1412,
      "Ġyears": 1413,
      "Ġbutterfly": 1414,
      "Ġfrog": 1415,
      "ĠIn": 1416,
      "Ġbuy": 1417,
      "Ġheld": 1418,
      "Ġneeded": 1419,
      "uit": 1420,
      "John": 1421,
      "ons": 1422,
      "Ġwrong": 1423,
      "Ġcarefully": 1424,
      "Ġanything": 1425,
      "Ġmove": 1426,
      "Ġleft": 1427,
      "Ġsnow": 1428,
      "ens": 1429,
      "Ġhun": 1430,
      "Ġtable": 1431,
      "Ġtall": 1432,
      "Ġfair": 1433,
      "Ġdream": 1434,
      "Ġfollowed": 1435,
      "Ġdir": 1436,
      "Ġbooks": 1437,
      "Ġel": 1438,
      "reed": 1439,
      "Ġhot": 1440,
      "Ġperf": 1441,
      "Ġchildren": 1442,
      "Ġair": 1443,
      "Ġplease": 1444,
      "Ġenjoyed": 1445,
      "cess": 1446,
      "Ġhill": 1447,
      "ds": 1448,
      "Ġunderstand": 1449,
      "Ġfinished": 1450,
      "Ġbug": 1451,
      "Ġfriendly": 1452,
      "Ġarri": 1453,
      "Ġhid": 1454,
      "ĠLila": 1455,
      "inally": 1456,
      "Ġherself": 1457,
      "Ġcast": 1458,
      "Ġclose": 1459,
      "ined": 1460,
      "Ġmight": 1461,
      "ross": 1462,
      "sp": 1463,
      "Ġcontin": 1464,
      "ĠAfter": 1465,
      "Ġforgot": 1466,
      "Ġelse": 1467,
      "Ġarm": 1468,
      "Ġbroken": 1469,
      "Ġdelicious": 1470,
      "Ġcolors": 1471,
      "lf": 1472,
      "Ġbuild": 1473,
      "Ġwants": 1474,
      "ĠBenny": 1475,
      "Ġgent": 1476,
      "Ġrel": 1477,
      "OK": 1478,
      "ield": 1479,
      "Ġmat": 1480,
      "Ġsong": 1481,
      "asure": 1482,
      "Ġgone": 1483,
      "av": 1484,
      "Ġarrived": 1485,
      "ĠNow": 1486,
      "Ġbaby": 1487,
      "Ġsquir": 1488,
      "Ġtight": 1489,
      "Ġwall": 1490,
      "ner": 1491,
      "Ġable": 1492,
      "Ġwonderful": 1493,
      "room": 1494,
      "Then": 1495,
      "Ġsomeone": 1496,
      "Ġleaves": 1497,
      "ĠSally": 1498,
      "Ġcreat": 1499,
      "Ġyes": 1500,
      "Ġpat": 1501,
      "Ġsquirrel": 1502,
      "Ġfilled": 1503,
      "ĠDaisy": 1504,
      "ask": 1505,
      "Ġcount": 1506,
      "Ġagreed": 1507,
      "ich": 1508,
      "ee": 1509,
      "ĠThere": 1510,
      "ĠMaybe": 1511,
      "Ġcontinued": 1512,
      "Ġbreak": 1513,
      "Ġcookies": 1514,
      "Ġpink": 1515,
      "Ġlion": 1516,
      "'ll": 1517,
      "Ġpoin": 1518,
      "Ġgrandma": 1519,
      "Ġvis": 1520,
      "Ġfall": 1521,
      "ash": 1522,
      "From": 1523,
      "Ġscary": 1524,
      "ey": 1525,
      "ries": 1526,
      "Jack": 1527,
      "ĠTommy": 1528,
      "Ġenough": 1529,
      "Ġfight": 1530,
      "Ġmakes": 1531,
      "ĠEm": 1532,
      "Ġhungry": 1533,
      "Ġmoment": 1534,
      "Ġsmiles": 1535,
      "Ġsometimes": 1536,
      "Ġju": 1537,
      "Ġpi": 1538,
      "Ġgetting": 1539,
      "Ġstayed": 1540,
      "ance": 1541,
      "Ġwet": 1542,
      "icy": 1543,
      "Ġturned": 1544,
      "row": 1545,
      "Ġmorning": 1546,
      "Ġfinally": 1547,
      "Ġcream": 1548,
      "app": 1549,
      "Ġcastle": 1550,
      "ama": 1551,
      "ĠThis": 1552,
      "Ġcomp": 1553,
      "Ġothers": 1554,
      "Ġlistened": 1555,
      "Ġpictures": 1556,
      "ĠWhat": 1557,
      "Ġclimbed": 1558,
      "Ġtrying": 1559,
      "Ġdinner": 1560,
      "Ġbeach": 1561,
      "This": 1562,
      "Ġtalk": 1563,
      "Ġmet": 1564,
      "gon": 1565,
      "ĠK": 1566,
      "Ġtail": 1567,
      "oom": 1568,
      "oup": 1569,
      "man": 1570,
      "Ġclot": 1571,
      "apped": 1572,
      "rot": 1573,
      "Ġballoon": 1574,
      "ced": 1575,
      "Ġfew": 1576,
      "Ġclothes": 1577,
      "Ġamazing": 1578,
      "Ġmother": 1579,
      "Ġasks": 1580,
      "uffy": 1581,
      "At": 1582,
      "Ġmus": 1583,
      "key": 1584,
      "lc": 1585,
      "red": 1586,
      "Ġfur": 1587,
      "Ġpuppy": 1588,
      "Ġwhite": 1589,
      "ence": 1590,
      "His": 1591,
      "ctor": 1592,
      "Ġsail": 1593,
      "oring": 1594,
      "Ġpet": 1595,
      "Ġperfect": 1596,
      "ĠBilly": 1597,
      "Ġmar": 1598,
      "ĠGra": 1599,
      "Ġalone": 1600,
      "Ġdaddy": 1601,
      "Oh": 1602,
      "Ġspl": 1603,
      "ister": 1604,
      "Ġsit": 1605,
      "ucky": 1606,
      "Ġpol": 1607,
      "Ġwasn": 1608,
      "Ġbrought": 1609,
      "wl": 1610,
      "Ġgrow": 1611,
      "der": 1612,
      "Ġeverything": 1613,
      "Ġpulled": 1614,
      "Ġwaited": 1615,
      "amp": 1616,
      "ott": 1617,
      "ĠJen": 1618,
      "Ġpie": 1619,
      "Ġdanger": 1620,
      "Ġwoods": 1621,
      "ated": 1622,
      "Ġstrange": 1623,
      "Ġsear": 1624,
      "Ġjoy": 1625,
      "ĠTo": 1626,
      "Ġride": 1627,
      "Ġwon": 1628,
      "Ġdeep": 1629,
      "ower": 1630,
      "Ġplan": 1631,
      "Ġspark": 1632,
      "Ġroll": 1633,
      "Ġvisit": 1634,
      "Ġruns": 1635,
      "Ġhide": 1636,
      "Ġfox": 1637,
      "Ġthinks": 1638,
      "Ġleave": 1639,
      "eter": 1640,
      "zz": 1641,
      "Ġteddy": 1642,
      "Maybe": 1643,
      "me": 1644,
      "os": 1645,
      "Ġliving": 1646,
      "Ġamazed": 1647,
      "Ġsilly": 1648,
      "Ġmusic": 1649,
      "gs": 1650,
      "Ġcloud": 1651,
      "Ġtowards": 1652,
      "Ġtreat": 1653,
      "ape": 1654,
      "Okay": 1655,
      "ever": 1656,
      "Ġshar": 1657,
      "Ġowner": 1658,
      "Ġpen": 1659,
      "ang": 1660,
      "med": 1661,
      "Max": 1662,
      "Ġflying": 1663,
      "Ġgu": 1664,
      "ises": 1665,
      "Ġpre": 1666,
      "ugg": 1667,
      "ames": 1668,
      "Ġshared": 1669,
      "thy": 1670,
      "Ġland": 1671,
      "Ġqui": 1672,
      "Ġpromised": 1673,
      "ĠAmy": 1674,
      "Ġrace": 1675,
      "Ġmoney": 1676,
      "Ġpa": 1677,
      "ained": 1678,
      "ope": 1679,
      "igg": 1680,
      "Ġfield": 1681,
      "Ġsister": 1682,
      "Ġjob": 1683,
      "Ġpaint": 1684,
      "Ġbroke": 1685,
      "Ġmoral": 1686,
      "avy": 1687,
      "cket": 1688,
      "up": 1689,
      "Ġfaster": 1690,
      "Ġparty": 1691,
      "cle": 1692,
      "eces": 1693,
      "Ġgrate": 1694,
      "Ġside": 1695,
      "Ġquiet": 1696,
      "Ġlake": 1697,
      "unch": 1698,
      "Ġpieces": 1699,
      "Ġbran": 1700,
      "Ġbott": 1701,
      "Ġbelie": 1702,
      "ix": 1703,
      "Ġworried": 1704,
      "orm": 1705,
      "Ġmust": 1706,
      "Ġgrateful": 1707,
      "sw": 1708,
      "Ġcandy": 1709,
      "Ġreach": 1710,
      "Ġansw": 1711,
      "Ġcolorful": 1712,
      "Ġgif": 1713,
      "Ġdance": 1714,
      "ze": 1715,
      "Ġtrain": 1716,
      "Ġele": 1717,
      "Ġbike": 1718,
      "Ġtreasure": 1719,
      "Ġblank": 1720,
      "Ġcup": 1721,
      "Ġwelc": 1722,
      "Ġcho": 1723,
      "ol": 1724,
      "Ġbigger": 1725,
      "outh": 1726,
      "Ġve": 1727,
      "Ġslowly": 1728,
      "Ġdolls": 1729,
      "Ġscream": 1730,
      "ĠJim": 1731,
      "ually": 1732,
      "ling": 1733,
      "ased": 1734,
      "Ġmouth": 1735,
      "Ġblack": 1736,
      "Ġblanket": 1737,
      "ph": 1738,
      "Ġsmart": 1739,
      "Ġsnack": 1740,
      "Ġriver": 1741,
      "Ġbar": 1742,
      "Ġpro": 1743,
      "Ġsuch": 1744,
      "Sure": 1745,
      "fort": 1746,
      "Ġdangerous": 1747,
      "ire": 1748,
      "Ġnap": 1749,
      "less": 1750,
      "Ġeverywhere": 1751,
      "Ġem": 1752,
      "cked": 1753,
      "ĠAll": 1754,
      "Ġplant": 1755,
      "Ġwin": 1756,
      "Ġtower": 1757,
      "Ġpot": 1758,
      "Ġmonster": 1759,
      "Ġtwins": 1760,
      "Ġprincess": 1761,
      "Ġhelping": 1762,
      "Ġthrew": 1763,
      "Ġdirty": 1764,
      "ĠFl": 1765,
      "Ġmagical": 1766,
      "Ġjoin": 1767,
      "Ġmonkey": 1768,
      "Ġsign": 1769,
      "Ġje": 1770,
      "ear": 1771,
      "Ġcrying": 1772,
      "Ġdoctor": 1773,
      "ipped": 1774,
      "set": 1775,
      "Ġbowl": 1776,
      "Ġheavy": 1777,
      "Ġbee": 1778,
      "Ġbite": 1779,
      "Ġwords": 1780,
      "Hi": 1781,
      "Ġhoped": 1782,
      "Ġcarrot": 1783,
      "de": 1784,
      "ored": 1785,
      "ming": 1786,
      "Ġfruit": 1787,
      "Ġdragon": 1788,
      "Why": 1789,
      "Ġmost": 1790,
      "Ġspr": 1791,
      "ident": 1792,
      "bble": 1793,
      "Ġsame": 1794,
      "Ġacc": 1795,
      "Ġacross": 1796,
      "Ġfarmer": 1797,
      "Ġheal": 1798,
      "Ġdisapp": 1799,
      "Mia": 1800,
      "ere": 1801,
      "Ġclosed": 1802,
      "Ġfeels": 1803,
      "Ġpass": 1804,
      "Ġbath": 1805,
      "ĠMr": 1806,
      "Ġstuck": 1807,
      "ĠDaddy": 1808,
      "Ġbuck": 1809,
      "Ġhig": 1810,
      "Ġstepped": 1811,
      "eared": 1812,
      "Ġcray": 1813,
      "Ġteac": 1814,
      "Ġcoll": 1815,
      "Ġbutt": 1816,
      "Ġheart": 1817,
      "ĠJill": 1818,
      "chool": 1819,
      "Ġtown": 1820,
      "Ġstre": 1821,
      "ĠMolly": 1822,
      "Ġwouldn": 1823,
      "Ġcour": 1824,
      "Ġmix": 1825,
      "Ġatt": 1826,
      "Ġbrown": 1827,
      "asket": 1828,
      "Ġbasket": 1829,
      "Ġbelieve": 1830,
      "Ġchair": 1831,
      "Ġpushed": 1832,
      "Ġeating": 1833,
      "Ġschool": 1834,
      "issed": 1835,
      "iting": 1836,
      "Ġcourse": 1837,
      "ord": 1838,
      "Ġyard": 1839,
      "Ġhit": 1840,
      "Ġwithout": 1841,
      "Ġpack": 1842,
      "ts": 1843,
      "Ġstar": 1844,
      "Ġswings": 1845,
      "Ġclapped": 1846,
      "Ġgentle": 1847,
      "Ġfairy": 1848,
      "Ġwelcome": 1849,
      "orrow": 1850,
      "Ġteacher": 1851,
      "Ġpers": 1852,
      "Ġmin": 1853,
      "Ġsmo": 1854,
      "ier": 1855,
      "Ġtoday": 1856,
      "Ġsec": 1857,
      "Ġhigher": 1858,
      "Ġnoises": 1859,
      "Ġneigh": 1860,
      "Lila": 1861,
      "Ġdrove": 1862,
      "Ġneck": 1863,
      "Ġaccident": 1864,
      "Ġturns": 1865,
      "Ġben": 1866,
      "Ġstand": 1867,
      "Ġsuddenly": 1868,
      "pping": 1869,
      "umb": 1870,
      "Ġpiece": 1871,
      "Ġgames": 1872,
      "Ġneighb": 1873,
      "Ġpocket": 1874,
      "ors": 1875,
      "Ġthrow": 1876,
      "Ġfree": 1877,
      "Ġforget": 1878,
      "br": 1879,
      "ourn": 1880,
      "ventually": 1881,
      "Ġhugs": 1882,
      "Ġjourn": 1883,
      "ho": 1884,
      "Ġdry": 1885,
      "vel": 1886,
      "Ġlon": 1887,
      "ract": 1888,
      "Ġwings": 1889,
      "Ġcheered": 1890,
      "Ġhappen": 1891,
      "ead": 1892,
      "Ġfence": 1893,
      "Ġwish": 1894,
      "Ġlonely": 1895,
      "Ġlonger": 1896,
      "Ġexplained": 1897,
      "itting": 1898,
      "phant": 1899,
      "Ġlate": 1900,
      "Ġsang": 1901,
      "Ġinst": 1902,
      "Ġalong": 1903,
      "ible": 1904,
      "Ġwell": 1905,
      "Ġsea": 1906,
      "Ġshoes": 1907,
      "Finally": 1908,
      "Ġlunch": 1909,
      "cy": 1910,
      "Ġstories": 1911,
      "ches": 1912,
      "Ġcorn": 1913,
      "Ġupset": 1914,
      "Ġtrou": 1915,
      "oun": 1916,
      "Ġshook": 1917,
      "Ġmiss": 1918,
      "Ġcaught": 1919,
      "Ġstars": 1920,
      "Ġelephant": 1921,
      "Ġsecret": 1922,
      "Ġadventures": 1923,
      "Ġshap": 1924,
      "Ġmine": 1925,
      "Ġyoung": 1926,
      "ocked": 1927,
      "Ġsoup": 1928,
      "Ġpurp": 1929,
      "Ġmoved": 1930,
      "Ġsinging": 1931,
      "Ġbelong": 1932,
      "Ġtom": 1933,
      "Ġrocks": 1934,
      "Ġwhe": 1935,
      "ment": 1936,
      "Ġph": 1937,
      "Ġdist": 1938,
      "Ġdropped": 1939,
      "Ġbucket": 1940,
      "ces": 1941,
      "Ġplac": 1942,
      "Ġjar": 1943,
      "aughty": 1944,
      "ountain": 1945,
      "bby": 1946,
      "ek": 1947,
      "Ġnaughty": 1948,
      "Ġbat": 1949,
      "Do": 1950,
      "Ġpast": 1951,
      "Ġowl": 1952,
      "ĠGrandma": 1953,
      "Ġswam": 1954,
      "Ġbring": 1955,
      "Ġdrink": 1956,
      "ĠMary": 1957,
      "ub": 1958,
      "Ġtaking": 1959,
      "ĠThank": 1960,
      "Ġapple": 1961,
      "ĠFluffy": 1962,
      "yard": 1963,
      "Ġtakes": 1964,
      "Ġresp": 1965,
      "llo": 1966,
      "Ġbackyard": 1967,
      "fused": 1968,
      "Ġpurple": 1969,
      "Ġwise": 1970,
      "Ġshapes": 1971,
      "Ġstreet": 1972,
      "Ġorange": 1973,
      "Ġes": 1974,
      "Ġcomes": 1975,
      "bow": 1976,
      "Ġsounds": 1977,
      "ward": 1978,
      "Ġexp": 1979,
      "Ġkey": 1980,
      "Ġnose": 1981,
      "Ġnearby": 1982,
      "ail": 1983,
      "Ġbench": 1984,
      "Ġfarm": 1985,
      "Ġexploring": 1986,
      "Ġshop": 1987,
      "Ġjuice": 1988,
      "col": 1989,
      "Ġmad": 1990,
      "Ġcou": 1991,
      "Ġnothing": 1992,
      "Ġaf": 1993,
      "cks": 1994,
      "ush": 1995,
      "Ġca": 1996,
      "ese": 1997,
      "ĠEmma": 1998,
      "Ġinv": 1999,
      "Ġbusy": 2000,
      "Ġsick": 2001,
      "ung": 2002,
      "Ġseemed": 2003,
      "Ġpig": 2004,
      "Ġwoke": 2005,
      "Ġwondered": 2006,
      "Ġmail": 2007,
      "Ġrelie": 2008,
      "Ġstu": 2009,
      "Ġcow": 2010,
      "weet": 2011,
      "aughter": 2012,
      "ĠO": 2013,
      "sy": 2014,
      "adow": 2015,
      "ions": 2016,
      "Ġyear": 2017,
      "Ġthough": 2018,
      "Ġholding": 2019,
      "Ġarms": 2020,
      "cing": 2021,
      "fish": 2022,
      "Ġsitting": 2023,
      "Ġdes": 2024,
      "Ġbranch": 2025,
      "Ġnest": 2026,
      "Ġmark": 2027,
      "Ġtiny": 2028,
      "And": 2029,
      "pper": 2030,
      "Ġdriver": 2031,
      "thday": 2032,
      "ittens": 2033,
      "Ġ3": 2034,
      "Ġmil": 2035,
      "ity": 2036,
      "raid": 2037,
      "ining": 2038,
      "Ġrainbow": 2039,
      "ose": 2040,
      "Ġafraid": 2041,
      "Ġob": 2042,
      "Ġcir": 2043,
      "ĠCome": 2044,
      "Ġfit": 2045,
      "Ġlift": 2046,
      "read": 2047,
      "Ġround": 2048,
      "Ġboun": 2049,
      "Ġgift": 2050,
      "Ġspoon": 2051,
      "Ġcoat": 2052,
      "Ġcarry": 2053,
      "Ġpatient": 2054,
      "Ġdaughter": 2055,
      "Ġcute": 2056,
      "Ġking": 2057,
      "idge": 2058,
      "to": 2059,
      "ĠInside": 2060,
      "Ġtou": 2061,
      "Ġtouched": 2062,
      "Ġpromise": 2063,
      "Of": 2064,
      "Ġhello": 2065,
      "Ġforever": 2066,
      "Ġbread": 2067,
      "eth": 2068,
      "Ġband": 2069,
      "Ġletter": 2070,
      "vered": 2071,
      "Ġkite": 2072,
      "Ġpeace": 2073,
      "Ġcheese": 2074,
      "Ġwhist": 2075,
      "Ġhuge": 2076,
      "Ġgrab": 2077,
      "Ġrelieved": 2078,
      "let": 2079,
      "Ġbirthday": 2080,
      "Hey": 2081,
      "board": 2082,
      "Ġfing": 2083,
      "Ġpower": 2084,
      "Ġgives": 2085,
      "sting": 2086,
      "Ġshell": 2087,
      "ours": 2088,
      "Ġwra": 2089,
      "Ġhope": 2090,
      "og": 2091,
      "cer": 2092,
      "Ġputs": 2093,
      "Ġswimming": 2094,
      "ĠFinally": 2095,
      "Ġgigg": 2096,
      "gg": 2097,
      "Ġact": 2098,
      "Ġmilk": 2099,
      "Ġbottle": 2100,
      "Ġkick": 2101,
      "Ġintere": 2102,
      "Ġjourney": 2103,
      "Ġaccidentally": 2104,
      "shine": 2105,
      "Ġmist": 2106,
      "Ġexciting": 2107,
      "itch": 2108,
      "Ġlife": 2109,
      "Ġonto": 2110,
      "Ġcozy": 2111,
      "gged": 2112,
      "Ġsunny": 2113,
      "Tommy": 2114,
      "ĠSammy": 2115,
      "Ġret": 2116,
      "Ġcreature": 2117,
      "unt": 2118,
      "Ġinstead": 2119,
      "alm": 2120,
      "Ġdays": 2121,
      "Ġcomfort": 2122,
      "Later": 2123,
      "Ġpointed": 2124,
      "Ġear": 2125,
      "Ġlucky": 2126,
      "sc": 2127,
      "Ġlaughing": 2128,
      "Ġspin": 2129,
      "Ġroad": 2130,
      "ped": 2131,
      "Ġlater": 2132,
      "Ġimag": 2133,
      "Ġsunshine": 2134,
      "Ġhoney": 2135,
      "Ġbush": 2136,
      "Ġcollect": 2137,
      "Ġsharp": 2138,
      "Ġwom": 2139,
      "ĠMama": 2140,
      "ness": 2141,
      "Ġwoman": 2142,
      "Ġreturn": 2143,
      "Ġdisco": 2144,
      "Ġpudd": 2145,
      "ten": 2146,
      "Ġeas": 2147,
      "Ġfan": 2148,
      "Ġwatching": 2149,
      "Ġinc": 2150,
      "Ġspo": 2151,
      "Ġanyone": 2152,
      "Ġsandw": 2153,
      "Ġcave": 2154,
      "els": 2155,
      "Ġducks": 2156,
      "ĠSoon": 2157,
      "Ġtalked": 2158,
      "Ġsmiling": 2159,
      "ize": 2160,
      "ball": 2161,
      "Good": 2162,
      "Ġbought": 2163,
      "Ġpop": 2164,
      "Ġsuc": 2165,
      "Ġloves": 2166,
      "ĠTweet": 2167,
      "Ġhor": 2168,
      "Ġbutton": 2169,
      "blem": 2170,
      "Ġproblem": 2171,
      "Ġhealthy": 2172,
      "Ġsearched": 2173,
      "Ġgather": 2174,
      "Ġcrayons": 2175,
      "Ġperson": 2176,
      "Ġkiss": 2177,
      "Ġtrouble": 2178,
      "ndp": 2179,
      "Ġent": 2180,
      "Ġmeet": 2181,
      "round": 2182,
      "Ġtasty": 2183,
      "Ġapples": 2184,
      "Ġsmelled": 2185,
      "Ġstorm": 2186,
      "Bob": 2187,
      "Ġpile": 2188,
      "Ġsnowman": 2189,
      "Ġmach": 2190,
      "itten": 2191,
      "Ġce": 2192,
      "Ġspid": 2193,
      "Ġclouds": 2194,
      "Ġsu": 2195,
      "Ġrope": 2196,
      "Ġzoom": 2197,
      "Ġplane": 2198,
      "Ġrespect": 2199,
      "irt": 2200,
      "amed": 2201,
      "Ġinteresting": 2202,
      "Ġclever": 2203,
      "Ġshining": 2204,
      "Ġzoo": 2205,
      "Ġpar": 2206,
      "Ġmatter": 2207,
      "eb": 2208,
      "Ġwide": 2209,
      "ove": 2210,
      "owed": 2211,
      "Ġscreamed": 2212,
      "Ġmud": 2213,
      "ont": 2214,
      "Ġpres": 2215,
      "Ġadm": 2216,
      "Ġsnake": 2217,
      "ĠSomet": 2218,
      "Ġpuzz": 2219,
      "ale": 2220,
      "Ġgoes": 2221,
      "aur": 2222,
      "epend": 2223,
      "Ġbark": 2224,
      "Ġhon": 2225,
      "Ġpract": 2226,
      "Ġeag": 2227,
      "Ġorgan": 2228,
      "Ġfront": 2229,
      "Ġprot": 2230,
      "Ġfeather": 2231,
      "Ġcard": 2232,
      "Ġasleep": 2233,
      "Ġpill": 2234,
      "ex": 2235,
      "ĠWith": 2236,
      "Ġpath": 2237,
      "lla": 2238,
      "Ġsur": 2239,
      "Ġap": 2240,
      "erly": 2241,
      "Lucy": 2242,
      "ÅĵI": 2243,
      "Ġprotect": 2244,
      "Ġsaf": 2245,
      "St": 2246,
      "Come": 2247,
      "een": 2248,
      "Ġquest": 2249,
      "Ġtries": 2250,
      "ndpa": 2251,
      "Ġseat": 2252,
      "Ġanswer": 2253,
      "oose": 2254,
      "Ġspotted": 2255,
      "Ġteach": 2256,
      "Ġlovely": 2257,
      "Ġvill": 2258,
      "Ġtrip": 2259,
      "Ġdanced": 2260,
      "Ġhorse": 2261,
      "Ġneighbor": 2262,
      "Ġforgive": 2263,
      "Ġpresent": 2264,
      "Ġgently": 2265,
      "ĠMittens": 2266,
      "Ġval": 2267,
      "Ġwild": 2268,
      "Ġteeth": 2269,
      "Just": 2270,
      "Ġshr": 2271,
      "ert": 2272,
      "Ġmed": 2273,
      "Ġplaces": 2274,
      "Ġwearing": 2275,
      "Ġappeared": 2276,
      "Ġslid": 2277,
      "Ġphone": 2278,
      "Ġminut": 2279,
      "Ġcheer": 2280,
      "Ġwhich": 2281,
      "Ġwhole": 2282,
      "ĠJimmy": 2283,
      "ĠGo": 2284,
      "isa": 2285,
      "Ġmind": 2286,
      "Ġmyster": 2287,
      "Ġthin": 2288,
      "Ġrude": 2289,
      "Ġgiant": 2290,
      "Jim": 2291,
      "Ġdirt": 2292,
      "Ġdi": 2293,
      "ular": 2294,
      "Ġworm": 2295,
      "ching": 2296,
      "Ġlive": 2297,
      "Ġrolled": 2298,
      "ĠHow": 2299,
      "Ġfaces": 2300,
      "Ġconfused": 2301,
      "izz": 2302,
      "Ġpretended": 2303,
      "Ġtasted": 2304,
      "Ġser": 2305,
      "Ġsack": 2306,
      "Molly": 2307,
      "Ġcouch": 2308,
      "Ġimpress": 2309,
      "Ġring": 2310,
      "Ġash": 2311,
      "Ġpour": 2312,
      "Ġcalm": 2313,
      "ssed": 2314,
      "In": 2315,
      "Ġcookie": 2316,
      "cean": 2317,
      "itty": 2318,
      "Ġsplas": 2319,
      "Ġdrive": 2320,
      "Ġocean": 2321,
      "Ġchocol": 2322,
      "nic": 2323,
      "Every": 2324,
      "la": 2325,
      "Ġban": 2326,
      "Ġmachine": 2327,
      "Ġlad": 2328,
      "Ġspent": 2329,
      "Ġcorner": 2330,
      "Ġpicnic": 2331,
      "ones": 2332,
      "Ġsal": 2333,
      "Ġsupp": 2334,
      "Ġwave": 2335,
      "Ġtun": 2336,
      "Ġcoin": 2337,
      "Ġspider": 2338,
      "Ġchick": 2339,
      "ator": 2340,
      "Ġoven": 2341,
      "Mum": 2342,
      "Ġpan": 2343,
      "Ġscar": 2344,
      "Ġtomorrow": 2345,
      "Ġfeet": 2346,
      "Ġbugs": 2347,
      "hile": 2348,
      "Ġpush": 2349,
      "Ġfurry": 2350,
      "Ġneckl": 2351,
      "Ġwip": 2352,
      "unk": 2353,
      "Ġrec": 2354,
      "Ġlay": 2355,
      "Ġemb": 2356,
      "ato": 2357,
      "ĠCh": 2358,
      "Ġknee": 2359,
      "Ġfighting": 2360,
      "Ġign": 2361,
      "umber": 2362,
      "Ġlast": 2363,
      "Ġhiding": 2364,
      "ĠEmily": 2365,
      "Ġladder": 2366,
      "Ġbuilding": 2367,
      "Ġremind": 2368,
      "als": 2369,
      "Ġsmooth": 2370,
      "Ġbubble": 2371,
      "Ġchocolate": 2372,
      "Ġhelpful": 2373,
      "Ġbell": 2374,
      "Ġblew": 2375,
      "Ġrob": 2376,
      "Ġfinish": 2377,
      "Ġcann": 2378,
      "Ġsel": 2379,
      "Ġpool": 2380,
      "Ġtid": 2381,
      "Ġwrite": 2382,
      "Ġtalking": 2383,
      "Ġdelight": 2384,
      "Ġcannot": 2385,
      "Ġchased": 2386,
      "arge": 2387,
      "Ġmountain": 2388,
      "Ġfold": 2389,
      "arra": 2390,
      "Ġcart": 2391,
      "Ġsongs": 2392,
      "Ġtool": 2393,
      "ighed": 2394,
      "Ġnet": 2395,
      "Ġleaf": 2396,
      "Ġstret": 2397,
      "ĠSometimes": 2398,
      "Ġspread": 2399,
      "Ġembarra": 2400,
      "Ġfoot": 2401,
      "Ġrep": 2402,
      "mo": 2403,
      "ife": 2404,
      "Ġwaiting": 2405,
      "Ġmaybe": 2406,
      "Ġeventually": 2407,
      "Ġpuddle": 2408,
      "ĠLe": 2409,
      "Ġpaw": 2410,
      "Ġbanan": 2411,
      "Ġshy": 2412,
      "Ġbarked": 2413,
      "Ġselfish": 2414,
      "Ġwore": 2415,
      "Soon": 2416,
      "llie": 2417,
      "Ġrobot": 2418,
      "Ġtaste": 2419,
      "ĠJust": 2420,
      "ĠPlease": 2421,
      "Ġant": 2422,
      "Ġnecklace": 2423,
      "Ġwash": 2424,
      "Ġfixed": 2425,
      "My": 2426,
      "Ġwhenever": 2427,
      "ĠJenny": 2428,
      "Ġstra": 2429,
      "Ġstring": 2430,
      "Ġcross": 2431,
      "ĠSt": 2432,
      "Ġcloth": 2433,
      "Ġsol": 2434,
      "Ġcoo": 2435,
      "lex": 2436,
      "box": 2437,
      "umpy": 2438,
      "Please": 2439,
      "Ġstep": 2440,
      "Ġhum": 2441,
      "Ġshelf": 2442,
      "ult": 2443,
      "Ġtreats": 2444,
      "Ġpeaceful": 2445,
      "Ġtidy": 2446,
      "Ġlarge": 2447,
      "Ġhears": 2448,
      "Ġplate": 2449,
      "orry": 2450,
      "Ġstir": 2451,
      "Ġstone": 2452,
      "Ġmissed": 2453,
      "Ġgen": 2454,
      "Ġvillage": 2455,
      "Ġcrab": 2456,
      "Dad": 2457,
      "urse": 2458,
      "Ġspe": 2459,
      "Ġcreative": 2460,
      "Ġspray": 2461,
      "Ġwhistle": 2462,
      "Ġknocked": 2463,
      "Ġsticks": 2464,
      "airs": 2465,
      "old": 2466,
      "iger": 2467,
      "ĠTV": 2468,
      "elly": 2469,
      "oph": 2470,
      "ĠTheir": 2471,
      "ĠEverywhere": 2472,
      "Ġcarrots": 2473,
      "Ġcolour": 2474,
      "lebr": 2475,
      "Ġdecor": 2476,
      "hnn": 2477,
      "ungle": 2478,
      "Now": 2479,
      "Ġtrust": 2480,
      "Ġtells": 2481,
      "Ġcelebr": 2482,
      "Ġembarrassed": 2483,
      "Ġsharing": 2484,
      "Ġwhis": 2485,
      "Ġjungle": 2486,
      "getable": 2487,
      "arm": 2488,
      "ĠSome": 2489,
      "Ġmoon": 2490,
      "Ġvegetable": 2491,
      "Ġforward": 2492,
      "Ġhel": 2493,
      "lice": 2494,
      "pty": 2495,
      "ĠJake": 2496,
      "Ġempty": 2497,
      "Ġlegs": 2498,
      "Ġnods": 2499,
      "Ġjumping": 2500,
      "Ġlanded": 2501,
      "oin": 2502,
      "Ġtea": 2503,
      "Mama": 2504,
      "hnny": 2505,
      "ird": 2506,
      "Ġple": 2507,
      "Ġgray": 2508,
      "Ġsplash": 2509,
      "ĠDon": 2510,
      "ets": 2511,
      "most": 2512,
      "Ġnut": 2513,
      "ĠAnn": 2514,
      "Ġbal": 2515,
      "ĠWhy": 2516,
      "Ġashamed": 2517,
      "Be": 2518,
      "Ġtightly": 2519,
      "Ġ'": 2520,
      "Ġshirt": 2521,
      "Ġsour": 2522,
      "Ġgrew": 2523,
      "Ġalmost": 2524,
      "Ġsave": 2525,
      "Ġdisappoin": 2526,
      "Ġmeant": 2527,
      "Ġspicy": 2528,
      "dge": 2529,
      "Ġgener": 2530,
      "Ġwhisp": 2531,
      "Stop": 2532,
      "ano": 2533,
      "Ġdeter": 2534,
      "Ġpillow": 2535,
      "Ġpolice": 2536,
      "ital": 2537,
      "ying": 2538,
      "Ġthese": 2539,
      "ned": 2540,
      "Ġhonest": 2541,
      "aking": 2542,
      "Ġgun": 2543,
      "Ġunderstood": 2544,
      "ian": 2545,
      "Ġdeterm": 2546,
      "erp": 2547,
      "Ġhosp": 2548,
      "Ġjew": 2549,
      "Ġhospital": 2550,
      "Ġsheep": 2551,
      "Ġbreath": 2552,
      "ĠOn": 2553,
      "ground": 2554,
      "Ġmeadow": 2555,
      "Ġyelled": 2556,
      "Ġbored": 2557,
      "aring": 2558,
      "Ġseek": 2559,
      "dle": 2560,
      "Ġcarried": 2561,
      "Ġgas": 2562,
      "Ġsnacks": 2563,
      "Ġstood": 2564,
      "Ġpizz": 2565,
      "ĠLisa": 2566,
      "Ġber": 2567,
      "To": 2568,
      "Ġpuzzle": 2569,
      "ork": 2570,
      "Sarah": 2571,
      "Ġsuccess": 2572,
      "Ġseed": 2573,
      "ĠTeddy": 2574,
      "Ġdrew": 2575,
      "Ġdisappointed": 2576,
      "den": 2577,
      "Ġline": 2578,
      "Ġgold": 2579,
      "vous": 2580,
      "ĠRex": 2581,
      "Ġkitten": 2582,
      "Ġlem": 2583,
      "Ġshore": 2584,
      "Ġfear": 2585,
      "Ġvan": 2586,
      "obby": 2587,
      "Ġglass": 2588,
      "Ġscarf": 2589,
      "aul": 2590,
      "Ġfeed": 2591,
      "ustr": 2592,
      "kin": 2593,
      "Ġsleepy": 2594,
      "ĠBe": 2595,
      "Ġpowerful": 2596,
      "hin": 2597,
      "Ġsighed": 2598,
      "Ġhours": 2599,
      "Where": 2600,
      "Ġburn": 2601,
      "Ġeasy": 2602,
      "Ġcries": 2603,
      "Ġpizza": 2604,
      "Ġgenerous": 2605,
      "Ġmessy": 2606,
      "ony": 2607,
      "Ġav": 2608,
      "Ġwaves": 2609,
      "arl": 2610,
      "gly": 2611,
      "Ġkissed": 2612,
      "iff": 2613,
      "Ġpay": 2614,
      "Ġsparkly": 2615,
      "Ġprince": 2616,
      "Ġship": 2617,
      "Ġsold": 2618,
      "ĠZ": 2619,
      "Ġtest": 2620,
      "Ġpri": 2621,
      "Ġhidden": 2622,
      "Ġugly": 2623,
      "Ġblow": 2624,
      "Sorry": 2625,
      "Ġvase": 2626,
      "Ġgroup": 2627,
      "itter": 2628,
      "Ġstanding": 2629,
      "fl": 2630,
      "ĠEven": 2631,
      "Ġsandwich": 2632,
      "Ġclass": 2633,
      "Ġfrustr": 2634,
      "Ġjelly": 2635,
      "Ġpoor": 2636,
      "Ġcloset": 2637,
      "Ġmot": 2638,
      "ina": 2639,
      "Ġreturned": 2640,
      "ĠTogether": 2641,
      "Ġplants": 2642,
      "Ġbedroom": 2643,
      "Ġpin": 2644,
      "Ġknowing": 2645,
      "There": 2646,
      "Ġner": 2647,
      "Ġcirc": 2648,
      "Ġcrown": 2649,
      "Are": 2650,
      "Ġchew": 2651,
      "body": 2652,
      "Ġcaterp": 2653,
      "Ġcaterpill": 2654,
      "Ġyourself": 2655,
      "Ġtaught": 2656,
      "ĠMum": 2657,
      "work": 2658,
      "Ġtears": 2659,
      "ote": 2660,
      "Ġfinger": 2661,
      "Ġrad": 2662,
      "Ġspoil": 2663,
      "Ġnervous": 2664,
      "oop": 2665,
      "pack": 2666,
      "Ġpir": 2667,
      "Ġpolite": 2668,
      "Ġfig": 2669,
      "Ġthankful": 2670,
      "Ġbridge": 2671,
      "Ġleg": 2672,
      "Ġesc": 2673,
      "Ġminutes": 2674,
      "Ġboring": 2675,
      "Ġtick": 2676,
      "Ġhur": 2677,
      "Ġfancy": 2678,
      "mb": 2679,
      "Ġgrumpy": 2680,
      "oof": 2681,
      "Ġtwirl": 2682,
      "ĠPeter": 2683,
      "Ġgate": 2684,
      "'d": 2685,
      "Ġdrop": 2686,
      "Ġtent": 2687,
      "era": 2688,
      "af": 2689,
      "Ġfrustrated": 2690,
      "Ġhang": 2691,
      "Ġlock": 2692,
      "Ġgets": 2693,
      "ĠLeo": 2694,
      "Ġwolf": 2695,
      "Ġpassed": 2696,
      "Ġflag": 2697,
      "Jane": 2698,
      "Their": 2699,
      "Ġmysterious": 2700,
      "Ġscr": 2701,
      "Ġreg": 2702,
      "ensive": 2703,
      "Ġcaterpillar": 2704,
      "Ġclown": 2705,
      "Ġwis": 2706,
      "Ġdetermined": 2707,
      "selves": 2708,
      "Ġdeer": 2709,
      "Ġexpensive": 2710,
      "Ġpicks": 2711,
      "Ġdancing": 2712,
      "Ġoften": 2713,
      "Ġwagged": 2714,
      "Ġexcite": 2715,
      "Ġfil": 2716,
      "illed": 2717,
      "Ġboss": 2718,
      "issors": 2719,
      "Ġrocket": 2720,
      "iddle": 2721,
      "osaur": 2722,
      "Ġgathered": 2723,
      "ual": 2724,
      "light": 2725,
      "Ġchest": 2726,
      "ĠBr": 2727,
      "ĠOK": 2728,
      "Ġscissors": 2729,
      "Ġsaved": 2730,
      "ates": 2731,
      "izzy": 2732,
      "Ġcand": 2733,
      "sist": 2734,
      "usie": 2735,
      "Ġanswered": 2736,
      "Ġfruits": 2737,
      "Ġpress": 2738,
      "Ġmir": 2739,
      "Ġtrue": 2740,
      "Ġmistake": 2741,
      "uce": 2742,
      "Ġdogs": 2743,
      "Who": 2744,
      "Ġbone": 2745,
      "Ġdinosaur": 2746,
      "Ġworking": 2747,
      "Ġlit": 2748,
      "Ġhopping": 2749,
      "Ġvegetables": 2750,
      "Ġgiggled": 2751,
      "Ġcap": 2752,
      "Ġtaken": 2753,
      "que": 2754,
      "Ġmedic": 2755,
      "Ġwander": 2756,
      "Ġones": 2757,
      "Ġstuff": 2758,
      "ĠBl": 2759,
      "Ġcomfortable": 2760,
      "Ġmummy": 2761,
      "Ġpacked": 2762,
      "ggs": 2763,
      "Ġexcitement": 2764,
      "ond": 2765,
      "Ġeggs": 2766,
      "ella": 2767,
      "ror": 2768,
      "ser": 2769,
      "Ġknight": 2770,
      "Ġmiddle": 2771,
      "Ġasking": 2772,
      "Ġmedicine": 2773,
      "Ġlose": 2774,
      "ecially": 2775,
      "Ġspend": 2776,
      "Ġcrawl": 2777,
      "Ġdest": 2778,
      "Ġsweetie": 2779,
      "ots": 2780,
      "Ġbrush": 2781,
      "Ġmatch": 2782,
      "Ġtie": 2783,
      "Ġchange": 2784,
      "Ġlicked": 2785,
      "Ġnumber": 2786,
      "Ġflut": 2787,
      "Ġdrum": 2788,
      "Ġdrawing": 2789,
      "pecially": 2790,
      "Ġruined": 2791,
      "Ġadd": 2792,
      "Ġmov": 2793,
      "Ġwalks": 2794,
      "Ġespecially": 2795,
      "Ġwheel": 2796,
      "elp": 2797,
      "ha": 2798,
      "Ġtape": 2799,
      "Ġclap": 2800,
      "Ġnod": 2801,
      "ushed": 2802,
      "Ġlazy": 2803,
      "iness": 2804,
      "ugar": 2805,
      "Ġsmelly": 2806,
      "ĠIf": 2807,
      "Me": 2808,
      "Ġglue": 2809,
      "Ġweak": 2810,
      "Ġgar": 2811,
      "Ġballs": 2812,
      "Ġsight": 2813,
      "Ġhorn": 2814,
      "Ġfake": 2815,
      "Ġyours": 2816,
      "Ġmoving": 2817,
      "Ġbody": 2818,
      "Ġfeathers": 2819,
      "Ġbake": 2820,
      "Ġexam": 2821,
      "Ġbathroom": 2822,
      "Ġmirror": 2823,
      "Ġdistance": 2824,
      "Ġlying": 2825,
      "Ġsugar": 2826,
      "Ġok": 2827,
      "Ġeld": 2828,
      "Ġqueen": 2829,
      "Ġcalling": 2830,
      "Ġpleased": 2831,
      "ĠJohnny": 2832,
      "Ġroar": 2833,
      "Ġplayground": 2834,
      "Ġsplashed": 2835,
      "Ġdisappeared": 2836,
      "Ġfluffy": 2837,
      "Ġbecome": 2838,
      "hip": 2839,
      "Ġnoisy": 2840,
      "aged": 2841,
      "Help": 2842,
      "ĠNo": 2843,
      "Ġshows": 2844,
      "Ġcri": 2845,
      "Ġdrank": 2846,
      "Ġlead": 2847,
      "Ġpray": 2848,
      "Ġlemon": 2849,
      "Ġdecide": 2850,
      "ating": 2851,
      "Ġmoms": 2852,
      "Ġrid": 2853,
      "Ġweek": 2854,
      "Ġstones": 2855,
      "Ġsell": 2856,
      "Ġcage": 2857,
      "ete": 2858,
      "Ġrelax": 2859,
      "Ġmic": 2860,
      "uggest": 2861,
      "Ġsuggest": 2862,
      "Ġcovered": 2863,
      "Ġjuicy": 2864,
      "Ġtwist": 2865,
      "Ġteam": 2866,
      "Ġed": 2867,
      "Ġquestions": 2868,
      "Ġwrote": 2869,
      "Ġdig": 2870,
      "Ġsailed": 2871,
      "yal": 2872,
      "Ġboard": 2873,
      "Ġcheck": 2874,
      "Jimmy": 2875,
      "Ġincred": 2876,
      "Ġneeds": 2877,
      "ory": 2878,
      "Ġboys": 2879,
      "Ġclear": 2880,
      "ination": 2881,
      "eez": 2882,
      "Ġrare": 2883,
      "Ġhurts": 2884,
      "Jill": 2885,
      "Ġfamous": 2886,
      "Ġfine": 2887,
      "Ġeager": 2888,
      "Ġtowel": 2889,
      "Ġsoap": 2890,
      "Ġshoot": 2891,
      "Ġord": 2892,
      "Ġskipped": 2893,
      "ĠAt": 2894,
      "Ġdish": 2895,
      "Ġcleaned": 2896,
      "illi": 2897,
      "alous": 2898,
      "Ġcontent": 2899,
      "Ġjealous": 2900,
      "Ġmeasure": 2901,
      "Ġrich": 2902,
      "Ġind": 2903,
      "Sally": 2904,
      "Ġfis": 2905,
      "imp": 2906,
      "Ġelderly": 2907,
      "Ġext": 2908,
      "Ġfigure": 2909,
      "Ġjoke": 2910,
      "Ġloyal": 2911,
      "Ġbubbles": 2912,
      "umbled": 2913,
      "ti": 2914,
      "Ġglow": 2915,
      "Ġstraw": 2916,
      "ipp": 2917,
      "Ġfather": 2918,
      "Ġincredible": 2919,
      "Ġmotor": 2920,
      "Ġchicken": 2921,
      "Ġfrown": 2922,
      "enny": 2923,
      "Ġbranches": 2924,
      "Ġcoins": 2925,
      "Ġgarage": 2926,
      "Ġborrow": 2927,
      "ĠBlue": 2928,
      "Ġeye": 2929,
      "Ġham": 2930,
      "Ġlouder": 2931,
      "port": 2932,
      "Ġwand": 2933,
      "Ġunus": 2934,
      "imed": 2935,
      "Ġcover": 2936,
      "ipper": 2937,
      "Ġwhale": 2938,
      "Ġchase": 2939,
      "Ġbalance": 2940,
      "Ġmod": 2941,
      "Ġword": 2942,
      "ĠEnd": 2943,
      "Ġaw": 2944,
      "Ġhappening": 2945,
      "Ġtrucks": 2946,
      "Ġlaughs": 2947,
      "Ġcraw": 2948,
      "Ġsword": 2949,
      "Ġcrawled": 2950,
      "Ġmap": 2951,
      "Ġhose": 2952,
      "Ġlamp": 2953,
      "Ġorganized": 2954,
      "Ġtiger": 2955,
      "Ġunusual": 2956,
      "ique": 2957,
      "Ġtag": 2958,
      "Ġguess": 2959,
      "asing": 2960,
      "keep": 2961,
      "gu": 2962,
      "Ġsil": 2963,
      "Ġextra": 2964,
      "Ġrealised": 2965,
      "Well": 2966,
      "Gra": 2967,
      "Ġthick": 2968,
      "Ġlifted": 2969,
      "Ġbanana": 2970,
      "Spot": 2971,
      "Ġballoons": 2972,
      "Ġonce": 2973,
      "land": 2974,
      "?\".": 2975,
      "Ġunique": 2976,
      "ĠKitty": 2977,
      "ately": 2978,
      "ĠLittle": 2979,
      "fic": 2980,
      "Ġcost": 2981,
      "Ġoffered": 2982,
      "Ġknife": 2983,
      "Billy": 2984,
      "Joe": 2985,
      "Ġbottom": 2986,
      "Ġfalls": 2987,
      "Here": 2988,
      "ĠBrown": 2989,
      "Ġshake": 2990,
      "ĠMark": 2991,
      "Ġfour": 2992,
      "Ġswan": 2993,
      "Ġmighty": 2994,
      "Ġjewel": 2995,
      "Ġdiscovered": 2996,
      "Sue": 2997,
      "alk": 2998,
      "Ġturt": 2999,
      "cil": 3000,
      "Ġdiffic": 3001,
      "Ġbrothers": 3002,
      "Ġtoug": 3003,
      "Ġflash": 3004,
      "Ġpencil": 3005,
      "Ġcolourful": 3006,
      "ye": 3007,
      "Ġkindness": 3008,
      "Ġadventur": 3009,
      "ages": 3010,
      "Ġbarn": 3011,
      "ery": 3012,
      "ĠSp": 3013,
      "Ġang": 3014,
      "Ġhelps": 3015,
      "Ġharder": 3016,
      "How": 3017,
      "Ġfool": 3018,
      "Ġhunt": 3019,
      "Ġweird": 3020,
      "Ġcompet": 3021,
      "Ġdifficult": 3022,
      "Ġpump": 3023,
      "Ġadded": 3024,
      "Ġcircle": 3025,
      "cept": 3026,
      "Ġdepend": 3027,
      "Ġgiving": 3028,
      "Ġsmoke": 3029,
      "Ġdizzy": 3030,
      "Ġbatter": 3031,
      "iv": 3032,
      "Ġdolp": 3033,
      "olog": 3034,
      "Ġadventurous": 3035,
      "Ġhats": 3036,
      "keeper": 3037,
      "Ġmanaged": 3038,
      "rag": 3039,
      "Ġedge": 3040,
      "Ġpointing": 3041,
      "Ġrecord": 3042,
      "Ġwrapped": 3043,
      "Ġfright": 3044,
      "Ġboxes": 3045,
      "Ġwrap": 3046,
      "fast": 3047,
      "Amy": 3048,
      "head": 3049,
      "Ġgrown": 3050,
      "Ġyog": 3051,
      "Mummy": 3052,
      "Ġmarket": 3053,
      "Ġapolog": 3054,
      "ject": 3055,
      "ured": 3056,
      "Ġbelonged": 3057,
      "uggled": 3058,
      "Ġhero": 3059,
      "Ġlog": 3060,
      "Ġstrawber": 3061,
      "ready": 3062,
      "Ġspun": 3063,
      "Ġskin": 3064,
      "Ġbreakfast": 3065,
      "Ġberries": 3066,
      "Ġgoat": 3067,
      "Ġbald": 3068,
      "aw": 3069,
      "Ġloudly": 3070,
      "Ġbossy": 3071,
      "Ġtough": 3072,
      "Ġcher": 3073,
      "Ġcrayon": 3074,
      "ature": 3075,
      "erry": 3076,
      "Ġscare": 3077,
      "Ġpee": 3078,
      "ĠMy": 3079,
      "Ġshape": 3080,
      "Ġchoose": 3081,
      "Ġnorm": 3082,
      "Ġears": 3083,
      "Ġmeans": 3084,
      "Ġbrilli": 3085,
      "Ġalready": 3086,
      "Ġagainst": 3087,
      "Ġknows": 3088,
      "Ġcro": 3089,
      "ouses": 3090,
      "Ġbloom": 3091,
      "Ġrough": 3092,
      "Ġsearch": 3093,
      "ym": 3094,
      "Ġharm": 3095,
      "Ġgrace": 3096,
      "ĠBobby": 3097,
      "Ġoffice": 3098,
      "ilt": 3099,
      "Ġimpressed": 3100,
      "Ġcompetit": 3101,
      "Ġdreamed": 3102,
      "Ġcircles": 3103,
      "Ġbrilliant": 3104,
      "ĠSusie": 3105,
      "Ġref": 3106,
      "Ġwagon": 3107,
      "Ġenjoying": 3108,
      "Ġcab": 3109,
      "Ġmelt": 3110,
      "Ġisland": 3111,
      "Ġfavour": 3112,
      "Ġsaying": 3113,
      "Ġbirdie": 3114,
      "Ġslipped": 3115,
      "Ġmovie": 3116,
      "Ġpainting": 3117,
      "Ġlearning": 3118,
      "lies": 3119,
      "pes": 3120,
      "und": 3121,
      "Ġfoolish": 3122,
      "Ġcabin": 3123,
      "reen": 3124,
      "Ġnormal": 3125,
      "Ġicy": 3126,
      "Ġhouses": 3127,
      "Ġtrunk": 3128,
      "Ġfat": 3129,
      "emo": 3130,
      "Ġsafely": 3131,
      "Ġescape": 3132,
      "Ġbuttons": 3133,
      "Ġvalu": 3134,
      "Ġfavourite": 3135,
      "Ġcudd": 3136,
      "Ġjack": 3137,
      "Ġstubb": 3138,
      "Ġspace": 3139,
      "apping": 3140,
      "Ġturtle": 3141,
      "Ġstri": 3142,
      "Ġshark": 3143,
      "ĠToday": 3144,
      "Ġlaw": 3145,
      "Ġdreams": 3146,
      "anged": 3147,
      "Ġshells": 3148,
      "corn": 3149,
      "laimed": 3150,
      "Ġfridge": 3151,
      "ĠRose": 3152,
      "Ġguit": 3153,
      "Ġstudy": 3154,
      "Ġdependable": 3155,
      "edient": 3156,
      "arth": 3157,
      "Ġexclaimed": 3158,
      "Ġnotice": 3159,
      "gy": 3160,
      "Ġstubborn": 3161,
      "Ġpoured": 3162,
      "Ġlibr": 3163,
      "Ġhappiness": 3164,
      "Ġsounded": 3165,
      "rage": 3166,
      "Ġter": 3167,
      "Ġwake": 3168,
      "Ġwalls": 3169,
      "Ġtoast": 3170,
      "Ġbags": 3171,
      "omed": 3172,
      "ĠEllie": 3173,
      "Ġfrightened": 3174,
      "irp": 3175,
      "Ġlean": 3176,
      "Ġinvited": 3177,
      "Ġthu": 3178,
      "Ġnicely": 3179,
      "Ġcheerful": 3180,
      "Ġrat": 3181,
      "Ġrose": 3182,
      "ache": 3183,
      "Ġsmaller": 3184,
      "ado": 3185,
      "Ġwiped": 3186,
      "cient": 3187,
      "Ġegg": 3188,
      "ext": 3189,
      "Ġpopcorn": 3190,
      "Ġobedient": 3191,
      "Ġproudly": 3192,
      "Ġcam": 3193,
      "ĠMrs": 3194,
      "Ġbitter": 3195,
      "Ġclay": 3196,
      "Ġtimes": 3197,
      "Ġnosy": 3198,
      "Ġroof": 3199,
      "Ġtools": 3200,
      "oppy": 3201,
      "Ġlights": 3202,
      "Ġvaluable": 3203,
      "Ġmixed": 3204,
      "ĠDan": 3205,
      "Ġfountain": 3206,
      "Ġweal": 3207,
      "Ġdelicate": 3208,
      "Ġguitar": 3209,
      "Ġancient": 3210,
      "Ġfier": 3211,
      "Ġcrack": 3212,
      "Ġuseful": 3213,
      "Ġow": 3214,
      "Ġpil": 3215,
      "Ġlab": 3216,
      "wards": 3217,
      "ention": 3218,
      "Ġunl": 3219,
      "Ġaccept": 3220,
      "Ġdead": 3221,
      "Ġlocked": 3222,
      "Ġcounted": 3223,
      "Ġswe": 3224,
      "ĠDucky": 3225,
      "Ġparrot": 3226,
      "iable": 3227,
      "Ġsuggested": 3228,
      "Ġcop": 3229,
      "ola": 3230,
      "kn": 3231,
      "Ġcity": 3232,
      "Ġtwig": 3233,
      "Ġdough": 3234,
      "Ġzip": 3235,
      "Ġfierce": 3236,
      "ĠYour": 3237,
      "Ġstumbled": 3238,
      "Ġfingers": 3239,
      "Ġstove": 3240,
      "Ġterri": 3241,
      "Ġlow": 3242,
      "Ġindepend": 3243,
      "uth": 3244,
      "Ġscrat": 3245,
      "Ġspoiled": 3246,
      "Ġresc": 3247,
      "Ġbushes": 3248,
      "Ġrode": 3249,
      "Ġmem": 3250,
      "Ġtummy": 3251,
      "Ġseem": 3252,
      "Ġdesign": 3253,
      "orge": 3254,
      "Ġholds": 3255,
      "Ġfrag": 3256,
      "Ġcleaning": 3257,
      "Ġdove": 3258,
      "Ġwhispered": 3259,
      "ĠBu": 3260,
      "Ġtunn": 3261,
      "ither": 3262,
      "Ġbeak": 3263,
      "Ġthoughtful": 3264,
      "Ġreliable": 3265,
      "Ġkicked": 3266,
      "Ġshadow": 3267,
      "ipe": 3268,
      "Ġspinning": 3269,
      "Ġcone": 3270,
      "Ġeng": 3271,
      "Ġusing": 3272,
      "Ġgrandpa": 3273,
      "Ġgem": 3274,
      "Ġkinds": 3275,
      "Ġabove": 3276,
      "Ġshowing": 3277,
      "Ġexcitedly": 3278,
      "Ġsteal": 3279,
      "Ġstream": 3280,
      "Ġstronger": 3281,
      "Ġexplored": 3282,
      "az": 3283,
      "Ġbounce": 3284,
      "Ġbump": 3285,
      "Ġsunfl": 3286,
      "oot": 3287,
      "arry": 3288,
      "anut": 3289,
      "upid": 3290,
      "ĠPete": 3291,
      "Ġthemselves": 3292,
      "Ġtomato": 3293,
      "Ġpractice": 3294,
      "Ġreminded": 3295,
      "Ġmagn": 3296,
      "ĠElla": 3297,
      "Ġways": 3298,
      "known": 3299,
      "Ġstat": 3300,
      "Ġbuilt": 3301,
      "cod": 3302,
      "atter": 3303,
      "Ġbrightly": 3304,
      "Ġjog": 3305,
      "Ġjoined": 3306,
      "ĠTweety": 3307,
      "Ġindependent": 3308,
      "Ġsuccessful": 3309,
      "Ġyarn": 3310,
      "ÅĵLet": 3311,
      "mbre": 3312,
      "Ġjam": 3313,
      "Ġwitch": 3314,
      "Ġumbre": 3315,
      "amond": 3316,
      "inal": 3317,
      "eeze": 3318,
      "Ġhoop": 3319,
      "Ġtele": 3320,
      "Ġorig": 3321,
      "Ġserious": 3322,
      "Ġfragile": 3323,
      "Ġunknown": 3324,
      "Ġmarble": 3325,
      "Ġhalf": 3326,
      "Ġpainted": 3327,
      "ĠFred": 3328,
      "Ġboats": 3329,
      "Ġpumpkin": 3330,
      "Ġsniff": 3331,
      "Ġdiamond": 3332,
      "See": 3333,
      "Ġshone": 3334,
      "Ġclum": 3335,
      "Ġcrocod": 3336,
      "Ġtank": 3337,
      "ĠBobo": 3338,
      "Ġsolve": 3339,
      "Ġstupid": 3340,
      "Ġenorm": 3341,
      "Ġrubb": 3342,
      "Ġbean": 3343,
      "Ġsalad": 3344,
      "Ġenormous": 3345,
      "vice": 3346,
      "Ġfre": 3347,
      "Em": 3348,
      "Ġguard": 3349,
      "Ġjolly": 3350,
      "Ġstairs": 3351,
      "eorge": 3352,
      "Ġenc": 3353,
      "Ġmetal": 3354,
      "Ġpebble": 3355,
      "Ġhammer": 3356,
      "Ġdoesn": 3357,
      "Ġperform": 3358,
      "Ġplayful": 3359,
      "Ġacorn": 3360,
      "Ġadmired": 3361,
      "Ġdust": 3362,
      "Ġcostum": 3363,
      "ĠNemo": 3364,
      "Ġhelm": 3365,
      "Ġthirst": 3366,
      "Ġopens": 3367,
      "Ġcheap": 3368,
      "Ġbrace": 3369,
      "Ġoriginal": 3370,
      "Ġyet": 3371,
      "Ġarg": 3372,
      "Ġcamera": 3373,
      "ĠU": 3374,
      "na": 3375,
      "Ġaunt": 3376,
      "Ġflashlight": 3377,
      "Ġallowed": 3378,
      "ines": 3379,
      "Ġwashed": 3380,
      "Ġfinding": 3381,
      "dom": 3382,
      "ray": 3383,
      "Ġchanged": 3384,
      "tern": 3385,
      "Ġbees": 3386,
      "Ġclumsy": 3387,
      "Ġwealthy": 3388,
      "Ġsleeping": 3389,
      "Ġcompass": 3390,
      "Ġpeanut": 3391,
      "ict": 3392,
      "ilty": 3393,
      "Ġguilty": 3394,
      "illa": 3395,
      "inary": 3396,
      "Ġtor": 3397,
      "Ġdelighted": 3398,
      "Ġpost": 3399,
      "het": 3400,
      "ugged": 3401,
      "Ġhairy": 3402,
      "Ġsuit": 3403,
      "anger": 3404,
      "ĠAlice": 3405,
      "Ġmis": 3406,
      "Ġstops": 3407,
      "Ġrushed": 3408,
      "uring": 3409,
      "Ġraced": 3410,
      "Ġleaving": 3411,
      "Go": 3412,
      "Ġgoose": 3413,
      "Ġpicking": 3414,
      "umbers": 3415,
      "Ġmoder": 3416,
      "llip": 3417,
      "llipop": 3418,
      "Ġprint": 3419,
      "Ġthirsty": 3420,
      "Ġsink": 3421,
      "Ġtelling": 3422,
      "Ġthose": 3423,
      "Ġdull": 3424,
      "Ġseeds": 3425,
      "Ġmissing": 3426,
      "Ġknock": 3427,
      "Ġpige": 3428,
      "Ġarrow": 3429,
      "Ġbeet": 3430,
      "aghet": 3431,
      "aghetti": 3432,
      "Ġenvel": 3433,
      "!\".": 3434,
      "robe": 3435,
      "ĠBella": 3436,
      "Ġmask": 3437,
      "ience": 3438,
      "Ġlollipop": 3439,
      "Ġhanded": 3440,
      "iew": 3441,
      "Ġthunder": 3442,
      "Ġbull": 3443,
      "Ġrub": 3444,
      "Ġchose": 3445,
      "Ġforth": 3446,
      "Ġhay": 3447,
      "fa": 3448,
      "Ġrug": 3449,
      "Ġspaghetti": 3450,
      "Ġclock": 3451,
      "ĠWhenever": 3452,
      "Ġprep": 3453,
      "Ġangel": 3454,
      "Ġsauce": 3455,
      "Ġshocked": 3456,
      "Ġengine": 3457,
      "Ġson": 3458,
      "Ġview": 3459,
      "ations": 3460,
      "Ġcomput": 3461,
      "Ġstatue": 3462,
      "Ġdolphin": 3463,
      "Ġtowers": 3464,
      "Ġdeliver": 3465,
      "Ġpopular": 3466,
      "Ġpotato": 3467,
      "Ġdestro": 3468,
      "Ġumbrella": 3469,
      "ĠFin": 3470,
      "Ġgraceful": 3471,
      "Ġmodern": 3472,
      "Ġbarber": 3473,
      "Ġcrocodile": 3474,
      "Ġshel": 3475,
      "Ġrubbed": 3476,
      "Ġfriendship": 3477,
      "eezed": 3478,
      "Ġsne": 3479,
      "Ġcompassion": 3480,
      "Ġending": 3481,
      "isk": 3482,
      "Ġgrand": 3483,
      "Ġcarrying": 3484,
      "Ġnurse": 3485,
      "gest": 3486,
      "ĠMar": 3487,
      "Ġstage": 3488,
      "Ġadvice": 3489,
      "ĠMike": 3490,
      "Ġregular": 3491,
      "com": 3492,
      "Ġnumbers": 3493,
      "Ġflex": 3494,
      "Ġload": 3495,
      "Ġcareless": 3496,
      "Ġcur": 3497,
      "Ġmarch": 3498,
      "Ġprize": 3499,
      "Ġnature": 3500,
      "oomy": 3501,
      "Ġsearching": 3502,
      "Ow": 3503,
      "ebra": 3504,
      "Ġpengu": 3505,
      "Ġgasped": 3506,
      "Ġing": 3507,
      "Ġchar": 3508,
      "Ġspilled": 3509,
      "arsh": 3510,
      "Ġpeeked": 3511,
      "Ġbiggest": 3512,
      "Ġcreate": 3513,
      "Ġtruth": 3514,
      "Ġflute": 3515,
      "Ġterrible": 3516,
      "ision": 3517,
      "Ġfresh": 3518,
      "Ġscreen": 3519,
      "redient": 3520,
      "Ġingredient": 3521,
      "time": 3522,
      "While": 3523,
      "Ġpiano": 3524,
      "Ġcere": 3525,
      "Ġearth": 3526,
      "Ġdriving": 3527,
      "Ġwire": 3528,
      "Ġstack": 3529,
      "iches": 3530,
      "Ġcomb": 3531,
      "Ġtied": 3532,
      "Ġstamp": 3533,
      "ĠSn": 3534,
      "Ġshiver": 3535,
      "Ġavo": 3536,
      "Ġpirate": 3537,
      "Ġcrane": 3538,
      "Ġjacket": 3539,
      "ÅĵYes": 3540,
      "Ġpattern": 3541,
      "Ġthinking": 3542,
      "Ġwing": 3543,
      "Ġdreaming": 3544,
      "io": 3545,
      "Ġtem": 3546,
      "Ġpatch": 3547,
      "Ġwheels": 3548,
      "ĠWhile": 3549,
      "ĠGrandpa": 3550,
      "Ġflexible": 3551,
      "Ġtorn": 3552,
      "ÅĵWhat": 3553,
      "Ġzebra": 3554,
      "Ġsquare": 3555,
      "uper": 3556,
      "Ġreward": 3557,
      "Ġmel": 3558,
      "Ġcrazy": 3559,
      "Ġjumps": 3560,
      "ikes": 3561,
      "Ġtooth": 3562,
      "Ġpersist": 3563,
      "Ġbeetle": 3564,
      "Ġpant": 3565,
      "Ġwindows": 3566,
      "Ġimagined": 3567,
      "awn": 3568,
      "loo": 3569,
      "Ġsurf": 3570,
      "Ġperm": 3571,
      "Ġearly": 3572,
      "ĠKim": 3573,
      "Ġtunnel": 3574,
      "Ġstranger": 3575,
      "Ġcomputer": 3576,
      "host": 3577,
      "Ġimpressive": 3578,
      "Ġwarned": 3579,
      "Ġsofa": 3580,
      "Ġscatter": 3581,
      "Ġmeal": 3582,
      "Ġenv": 3583,
      "Ġtrash": 3584,
      "ĠHere": 3585,
      "Ġscale": 3586,
      "ĠLook": 3587,
      "Ġhandle": 3588,
      "Ġspring": 3589,
      "Ġdesk": 3590,
      "Ġliz": 3591,
      "Ġbracelet": 3592,
      "Ġenvelope": 3593,
      "Ġspoke": 3594,
      "Ġslides": 3595,
      "Ġcollar": 3596,
      "Ġcereal": 3597,
      "Ġmole": 3598,
      "Ġenth": 3599,
      "ement": 3600,
      "Ġpale": 3601,
      "Ġingredients": 3602,
      "ibb": 3603,
      "âĤ¬âĢ": 3604,
      "Ġsandwiches": 3605,
      "uddy": 3606,
      "Ġorder": 3607,
      "Ġtrap": 3608,
      "Ġbent": 3609,
      "Ġghost": 3610,
      "Ġer": 3611,
      "ĠFr": 3612,
      "Ġmailbox": 3613,
      "Ġjug": 3614,
      "Ġmush": 3615,
      "ÅĵIt": 3616,
      "Ġdiscover": 3617,
      "Ġsadly": 3618,
      "Ġpenny": 3619,
      "Ġahead": 3620,
      "Ġbadly": 3621,
      "Ġenthus": 3622,
      "Ġsparkled": 3623,
      "Ġpow": 3624,
      "illie": 3625,
      "Ġtravel": 3626,
      "ellig": 3627,
      "Ġnote": 3628,
      "ief": 3629,
      "Ġpup": 3630,
      "Ġsunflower": 3631,
      "Ġfork": 3632,
      "Ġnames": 3633,
      "Ġintellig": 3634,
      "Ġcounting": 3635,
      "ĠGive": 3636,
      "Ġreading": 3637,
      "Ġdestroy": 3638,
      "aid": 3639,
      "Ġsorts": 3640,
      "Ġmay": 3641,
      "Ġlibrary": 3642,
      "Ġpretending": 3643,
      "Ġparade": 3644,
      "Ġharmless": 3645,
      "Ġuncle": 3646,
      "Ġcomplet": 3647,
      "Ġblueber": 3648,
      "Ġstickers": 3649,
      "Ġgrowing": 3650,
      "tter": 3651,
      "ĠMummy": 3652,
      "Yay": 3653,
      "Ġletters": 3654,
      "Ġsudden": 3655,
      "Ġquestion": 3656,
      "comfort": 3657,
      "Ġcryst": 3658,
      "Ġhumble": 3659,
      "Ġbeauty": 3660,
      "Ġobject": 3661,
      "Ġrece": 3662,
      "ÅĵLetÃ¢": 3663,
      "Ġbeep": 3664,
      "Ġencou": 3665,
      "Ġolder": 3666,
      "ĠPe": 3667,
      "Ġcelebrate": 3668,
      "Ġshut": 3669,
      "comfortable": 3670,
      "Ġbandage": 3671,
      "Ġuncomfortable": 3672,
      "Ġcompetitive": 3673,
      "bled": 3674,
      "Ġtask": 3675,
      "Ġpasta": 3676,
      "Ġhung": 3677,
      "Mary": 3678,
      "aches": 3679,
      "ric": 3680,
      "Ġcards": 3681,
      "Ġbutterflies": 3682,
      "Ġplaced": 3683,
      "ophie": 3684,
      "ĠcouldnÃ¢": 3685,
      "Ġtrack": 3686,
      "Ġrules": 3687,
      "Ġnail": 3688,
      "Ġleash": 3689,
      "ips": 3690,
      "Ġpigeon": 3691,
      "Ġsuper": 3692,
      "Ġgor": 3693,
      "Ġflour": 3694,
      "Ġcompl": 3695,
      "Ġstation": 3696,
      "Ġcooking": 3697,
      "ince": 3698,
      "Ġyawn": 3699,
      "Ġsnuggled": 3700,
      "Ġpersistent": 3701,
      "orant": 3702,
      "stri": 3703,
      "Ġmill": 3704,
      "Ġdeaf": 3705,
      "Ġstarts": 3706,
      "ud": 3707,
      "arian": 3708,
      "ĠBear": 3709,
      "Ġtriang": 3710,
      "ĠToby": 3711,
      "Ġvalue": 3712,
      "Ġlizard": 3713,
      "Ġcupboard": 3714,
      "Ġclub": 3715,
      "Ġotter": 3716,
      "Ġwaff": 3717,
      "Ġmushroom": 3718,
      "Ġanx": 3719,
      "Ġscoot": 3720,
      "Ġgifted": 3721,
      "Give": 3722,
      "Ġchance": 3723,
      "Ġsoldier": 3724,
      "opus": 3725,
      "ctopus": 3726,
      "ubby": 3727,
      "Ġtrick": 3728,
      "Ġphot": 3729,
      "Ġtwirled": 3730,
      "Ġordinary": 3731,
      "Re": 3732,
      "Ġgloomy": 3733,
      "Ġhipp": 3734,
      "ĠDave": 3735,
      "Ġcharming": 3736,
      "Ġignorant": 3737,
      "Ġcurt": 3738,
      "Ġnuts": 3739,
      "gust": 3740,
      "Ġdrawer": 3741,
      "oe": 3742,
      "ices": 3743,
      "Ġsett": 3744,
      "Ġanxious": 3745,
      "Ġhurry": 3746,
      "Ġcurtain": 3747,
      "Ġchasing": 3748,
      "Ġrefused": 3749,
      "Ġneat": 3750,
      "cream": 3751,
      "Ġbase": 3752,
      "Ġdisgust": 3753,
      "Ġspeed": 3754,
      "Ġoctopus": 3755,
      "used": 3756,
      "Ġhunter": 3757,
      "Ġshine": 3758,
      "Ġsend": 3759,
      "Ġcompassionate": 3760,
      "Ġdug": 3761,
      "Ġuniver": 3762,
      "Ġhook": 3763,
      "Ġpurse": 3764,
      "Ġanywhere": 3765,
      "ĠSm": 3766,
      "ĠPat": 3767,
      "cut": 3768,
      "ses": 3769,
      "Ġpony": 3770,
      "Ġallig": 3771,
      "Ġshouts": 3772,
      "Ġintelligent": 3773,
      "aff": 3774,
      "Ġshaking": 3775,
      "Ġwishes": 3776,
      "Ġcamp": 3777,
      "Ġtire": 3778,
      "ĠAre": 3779,
      "aked": 3780,
      "Bye": 3781,
      "Ġled": 3782,
      "ceed": 3783,
      "Ġalert": 3784,
      "erable": 3785,
      "Ġpepper": 3786,
      "Ġattract": 3787,
      "cu": 3788,
      "Ġgum": 3789,
      "Ġbounced": 3790,
      "Ġcase": 3791,
      "Ġjet": 3792,
      "ĠLee": 3793,
      "Ġcarp": 3794,
      "Ġchubby": 3795,
      "Ġbicy": 3796,
      "Ġtur": 3797,
      "Ġmiserable": 3798,
      "Ġcartoon": 3799,
      "Ġfearful": 3800,
      "Ġfu": 3801,
      "Alice": 3802,
      "Ġresist": 3803,
      "Ġdecorate": 3804,
      "Ġcricket": 3805,
      "Ġpand": 3806,
      "Ġcomet": 3807,
      "ĠWhere": 3808,
      "Ġimpat": 3809,
      "Ġlively": 3810,
      "Ġcreatures": 3811,
      "Ġsquash": 3812,
      "Ġostri": 3813,
      "coa": 3814,
      "ĠSh": 3815,
      "urb": 3816,
      "Ġitself": 3817,
      "Ġthief": 3818,
      "Ġgorilla": 3819,
      "Ġpracticed": 3820,
      "htub": 3821,
      "Ġdisturb": 3822,
      "ĠWh": 3823,
      "Ġcourage": 3824,
      "aby": 3825,
      "Ġdess": 3826,
      "Ġbathtub": 3827,
      "Ġfort": 3828,
      "Ġsandbox": 3829,
      "If": 3830,
      "Ġgir": 3831,
      "Ġimpatient": 3832,
      "Ġbrighter": 3833,
      "Ġhelmet": 3834,
      "ummer": 3835,
      "Ġsupport": 3836,
      "Ġfilthy": 3837,
      "Ġener": 3838,
      "Ġpressed": 3839,
      "Ġpants": 3840,
      "Ġtap": 3841,
      "Ġbackpack": 3842,
      "ĠLola": 3843,
      "Ġturkey": 3844,
      "Benny": 3845,
      "Ġenvious": 3846,
      "Ġhippo": 3847,
      "Ġbri": 3848,
      "Ġbarking": 3849,
      "Ġdisgusting": 3850,
      "Ġvine": 3851,
      "Ġpulls": 3852,
      "lcano": 3853,
      "Ġtray": 3854,
      "Ġneedle": 3855,
      "enry": 3856,
      "icop": 3857,
      "Ġhelpless": 3858,
      "Ġsomewhere": 3859,
      "icopter": 3860,
      "Ġten": 3861,
      "ĠBrownie": 3862,
      "ĠEventually": 3863,
      "Ġskip": 3864,
      "Ġgrabs": 3865,
      "Ġrice": 3866,
      "Ġthread": 3867,
      "Ġbet": 3868,
      "ĠAl": 3869,
      "Ġsucceed": 3870,
      "Ġcarpet": 3871,
      "noon": 3872,
      "rr": 3873,
      "Ġafternoon": 3874,
      "aurant": 3875,
      "Ġlid": 3876,
      "Ġhelicopter": 3877,
      "Ġmonkeys": 3878,
      "Ġnobody": 3879,
      "iest": 3880,
      "Ġmelon": 3881,
      "Ġrestaurant": 3882,
      "Ġmug": 3883,
      "Ġrestless": 3884,
      "Ġcrystal": 3885,
      "Ġsalt": 3886,
      "Ġseal": 3887,
      "Ġattic": 3888,
      "Ġrespectful": 3889,
      "Ġrepe": 3890,
      "orable": 3891,
      "Ġcocoa": 3892,
      "Ġjeep": 3893,
      "ĠTweetie": 3894,
      "Ġpoem": 3895,
      "Ġtrump": 3896,
      "Ġvolcano": 3897,
      "Ġnowhere": 3898,
      "Ġstretch": 3899,
      "Ġhuman": 3900,
      "Ġspell": 3901,
      "arlie": 3902,
      "Ġfinds": 3903,
      "Ġstretched": 3904,
      "Ġsteps": 3905,
      "Ġradio": 3906,
      "Ġfive": 3907,
      "Ġbarrel": 3908,
      "ĠJoey": 3909,
      "Ġshoe": 3910,
      "Ġalligator": 3911,
      "Ġmath": 3912,
      "Ġsock": 3913,
      "Ġleop": 3914,
      "Ġattractive": 3915,
      "gn": 3916,
      "Ġelev": 3917,
      "gging": 3918,
      "night": 3919,
      "Ġfirework": 3920,
      "Ġadmire": 3921,
      "Ġcooked": 3922,
      "Ġstirred": 3923,
      "heart": 3924,
      "Ġanyway": 3925,
      "ÅĵThat": 3926,
      "Ġgiggle": 3927,
      "Ġmeas": 3928,
      "Ġmuff": 3929,
      "Ġtripped": 3930,
      "Ġraven": 3931,
      "Ġimpro": 3932,
      "Ġsticker": 3933,
      "Ġostrich": 3934,
      "Ġadorable": 3935,
      "aroo": 3936,
      "Ġcats": 3937,
      "angaroo": 3938,
      "Ġpackage": 3939,
      "Ġharsh": 3940,
      "Ġvide": 3941,
      "Ġunpack": 3942,
      "Ġcandle": 3943,
      "Ġtemp": 3944,
      "Ġsoar": 3945,
      "Ġsplit": 3946,
      "Ġexplain": 3947,
      "Ġelevator": 3948,
      "Ġants": 3949,
      "Ġmodest": 3950,
      "Ġshield": 3951,
      "Ġreco": 3952,
      "Ġdessert": 3953,
      "Ġlions": 3954,
      "Ġdistant": 3955,
      "Daisy": 3956,
      "ĠBill": 3957,
      "par": 3958,
      "Ġpun": 3959,
      "Ġpushes": 3960,
      "Ġtroubled": 3961,
      "ĠMandy": 3962,
      "ĠPolly": 3963,
      "Ġcows": 3964,
      "Ġfrowned": 3965,
      "Ġfurther": 3966,
      "Ġtrumpet": 3967,
      "Ġsepar": 3968,
      "Ġsweater": 3969,
      "Ġkangaroo": 3970,
      "Ġsort": 3971,
      "Ġvi": 3972,
      "Ġpaws": 3973,
      "Ġribb": 3974,
      "Ġstared": 3975,
      "Ġbicycle": 3976,
      "Ġbikes": 3977,
      "Ġbreat": 3978,
      "Ġhappier": 3979,
      "Ġchalk": 3980,
      "Ġfle": 3981,
      "stairs": 3982,
      "ophone": 3983,
      "Ġmagnet": 3984,
      "stic": 3985,
      "Ġfireman": 3986,
      "Ġorganize": 3987,
      "Ġscrew": 3988,
      "Ġbears": 3989,
      "Ġpole": 3990,
      "Everyone": 3991,
      "Ġsheet": 3992,
      "Ġholes": 3993,
      "ĠGeorge": 3994,
      "ĠSmith": 3995,
      "Ġpushing": 3996,
      "Ġsailor": 3997,
      "Ġlistening": 3998,
      "Ġsummer": 3999,
      "iastic": 4000,
      "Ġenthusiastic": 4001,
      "Ġur": 4002,
      "Ġleopard": 4003,
      "Ġsle": 4004,
      "Ġsent": 4005,
      "Ġchecked": 4006,
      "Ġwallet": 4007,
      "shed": 4008,
      "uct": 4009,
      "Ġmessage": 4010,
      "Ġtrains": 4011,
      "Ġeither": 4012,
      "Ġscooter": 4013,
      "cast": 4014,
      "ĠEverything": 4015,
      "come": 4016,
      "astic": 4017,
      "Ġexper": 4018,
      "Ġsize": 4019,
      "iskers": 4020,
      "Ġswitch": 4021,
      "Ġhaircut": 4022,
      "Ġloop": 4023,
      "Ġriding": 4024,
      "gie": 4025,
      "inking": 4026,
      "Ġquar": 4027,
      "Ġbehave": 4028,
      "Ġdishes": 4029,
      "Ġsilver": 4030,
      "Ġhall": 4031,
      "Ġsandcast": 4032,
      "Ġchain": 4033,
      "ĠCl": 4034,
      "Little": 4035,
      "ĠBuddy": 4036,
      "cond": 4037,
      "Ġobser": 4038,
      "Ġshakes": 4039,
      "Ġlightning": 4040,
      "Ġhive": 4041,
      "Ġjokes": 4042,
      "Ġrescue": 4043,
      "Ġcush": 4044,
      "Ġsecond": 4045,
      "Ġforgave": 4046,
      "Ġpapers": 4047,
      "ccol": 4048,
      "Ġcube": 4049,
      "Ġroared": 4050,
      "ccoli": 4051,
      "Ġswinging": 4052,
      "happy": 4053,
      "Ġoy": 4054,
      "Ġquite": 4055,
      "ĠWould": 4056,
      "Ġspeak": 4057,
      "Ġjellyfish": 4058,
      "ci": 4059,
      "Ġscold": 4060,
      "Ġprov": 4061,
      "cycle": 4062,
      "Ġpal": 4063,
      "Ġshovel": 4064,
      "elery": 4065,
      "Ġlip": 4066,
      "ĠdidnÃ¢": 4067,
      "ĠOr": 4068,
      "Ġpanda": 4069,
      "edy": 4070,
      "erop": 4071,
      "eropl": 4072,
      "Ġmama": 4073,
      "Ġpaid": 4074,
      "Ġrepair": 4075,
      "Ġaeropl": 4076,
      "Ġmicr": 4077,
      "Ġeras": 4078,
      "Ha": 4079,
      "ube": 4080,
      "ucked": 4081,
      "Ġrecogn": 4082,
      "Ġavoc": 4083,
      "Ġcountry": 4084,
      "bul": 4085,
      "ipping": 4086,
      "Ġhedge": 4087,
      "year": 4088,
      "ĠJerry": 4089,
      "Ġbelt": 4090,
      "Ġsweetheart": 4091,
      "Ġsteak": 4092,
      "hood": 4093,
      "Ġsoftly": 4094,
      "Ġfalling": 4095,
      "Ġwheat": 4096,
      "Ġgiven": 4097,
      "Ġbuzz": 4098,
      "reci": 4099,
      "Ġmeat": 4100,
      "ĠAlex": 4101,
      "Ġtriangle": 4102,
      "Ġpor": 4103,
      "Ġalive": 4104,
      "Ġbreaks": 4105,
      "Ġcact": 4106,
      "Ġplanet": 4107,
      "aulif": 4108,
      "Ġunhappy": 4109,
      "Ġgrapes": 4110,
      "Ġcardboard": 4111,
      "Ġmicrophone": 4112,
      "aulifl": 4113,
      "Ġappreci": 4114,
      "Ġbarks": 4115,
      "Ġmild": 4116,
      "ense": 4117,
      "eer": 4118,
      "Ġstarting": 4119,
      "irit": 4120,
      "Ġbroccoli": 4121,
      "Ġenergy": 4122,
      "Ġshelter": 4123,
      "Ġpipe": 4124,
      "Ġpalace": 4125,
      "Ġclapping": 4126,
      "apa": 4127,
      "Ġpenguin": 4128,
      "Ġshade": 4129,
      "Ġflies": 4130,
      "Ġtube": 4131,
      "Ġpeek": 4132,
      "Ġped": 4133,
      "Ġsprink": 4134,
      "Ġshopkeeper": 4135,
      "Ġcord": 4136,
      "Jenny": 4137,
      "ffe": 4138,
      "ebook": 4139,
      "Ġnotebook": 4140,
      "aled": 4141,
      "Ġgoal": 4142,
      "Ġvisited": 4143,
      "ffee": 4144,
      "Ġmen": 4145,
      "Ġfeelings": 4146,
      "olin": 4147,
      "Ġcelery": 4148,
      "Ġcaulifl": 4149,
      "ĠTr": 4150,
      "Ġol": 4151,
      "Ġstom": 4152,
      "Ġtricks": 4153,
      "ailable": 4154,
      "Grandma": 4155,
      "Ġboots": 4156,
      "Ġcolours": 4157,
      "Ġneighbour": 4158,
      "seum": 4159,
      "Ġlear": 4160,
      "Ġdrawings": 4161,
      "Ġlearnt": 4162,
      "Ġluck": 4163,
      "ĠRed": 4164,
      "Ġclimbing": 4165,
      "Ġbasketball": 4166,
      "Ġpoint": 4167,
      "Ġrubber": 4168,
      "Ġcostume": 4169,
      "iron": 4170,
      "Ġputting": 4171,
      "Ġframe": 4172,
      "Ġcactus": 4173,
      "Ġraft": 4174,
      "Ġstrawberry": 4175,
      "Ġlawy": 4176,
      "Ġsoil": 4177,
      "Ġsmells": 4178,
      "Daddy": 4179,
      "Ġjournal": 4180,
      "Ġavailable": 4181,
      "Ġpilot": 4182,
      "Ġmuseum": 4183,
      "Ġmarry": 4184,
      "Ġbananas": 4185,
      "Ġbin": 4186,
      "Ġbur": 4187,
      "Ġgolf": 4188,
      "ĠSnow": 4189,
      "Ġsaus": 4190,
      "Ġrod": 4191,
      "Ġdispl": 4192,
      "Ġheads": 4193,
      "Ġtax": 4194,
      "Ġambul": 4195,
      "Ġinse": 4196,
      "ooped": 4197,
      "Ġvend": 4198,
      "Ġraining": 4199,
      "imi": 4200,
      "ĠBet": 4201,
      "Ġzoomed": 4202,
      "Ġdive": 4203,
      "Ġbul": 4204,
      "Ġfolder": 4205,
      "ges": 4206,
      "Ġdrops": 4207,
      "Ġairport": 4208,
      "Ġstrugg": 4209,
      "ecause": 4210,
      "icer": 4211,
      "ÅĵYou": 4212,
      "pe": 4213,
      "Ġended": 4214,
      "Ġjudge": 4215,
      "ron": 4216,
      "Ġink": 4217,
      "ait": 4218,
      "ĠAndy": 4219,
      "ĠPaul": 4220,
      "Ġshrimp": 4221,
      "Ġoat": 4222,
      "Ġreind": 4223,
      "Ġpair": 4224,
      "Ġcauliflower": 4225,
      "Ġspirit": 4226,
      "Ġquit": 4227,
      "Ġknot": 4228,
      "reeze": 4229,
      "Ġtuna": 4230,
      "Ġeraser": 4231,
      "Ġtreasures": 4232,
      "ĠWhiskers": 4233,
      "nger": 4234,
      "Ġstuffed": 4235,
      "Ġleaned": 4236,
      "ĠBunny": 4237,
      "ophy": 4238,
      "Ġbulb": 4239,
      "render": 4240,
      "Ġpad": 4241,
      "Ġmarched": 4242,
      "Ġcups": 4243,
      "iling": 4244,
      "Ġart": 4245,
      "Ġhoping": 4246,
      "Ġambulance": 4247,
      "aggie": 4248,
      "Ġthanks": 4249,
      "Ġpolish": 4250,
      "Ġshort": 4251,
      "Ġevening": 4252,
      "Ġdisag": 4253,
      "Ġbelongs": 4254,
      "Ġwool": 4255,
      "Ġonion": 4256,
      "Ġgro": 4257,
      "Ġdisplay": 4258,
      "Ġtaxi": 4259,
      "hino": 4260,
      "nam": 4261,
      "Ġtub": 4262,
      "Ġlend": 4263,
      "Ġprun": 4264,
      "Ġthrows": 4265,
      "Ġreindeer": 4266,
      "azz": 4267,
      "Ġlie": 4268,
      "mand": 4269,
      "Ġcoffee": 4270,
      "Ġfootball": 4271,
      "Ġhadn": 4272,
      "Ġswung": 4273,
      "Ġtrophy": 4274,
      "Ġappl": 4275,
      "Ġcooler": 4276,
      "Ġyogurt": 4277,
      "ccer": 4278,
      "Ġrag": 4279,
      "Ġhotel": 4280,
      "Ġunlock": 4281,
      "Ġinsist": 4282,
      "Ġlaund": 4283,
      "Ġcounter": 4284,
      "Ġvendor": 4285,
      "Ġlives": 4286,
      "Ġfilm": 4287,
      "Ġlaundry": 4288,
      "ef": 4289,
      "Ġyach": 4290,
      "Ġsoccer": 4291,
      "Ġcomplete": 4292,
      "Ġporch": 4293,
      "Ġimagine": 4294,
      "kelet": 4295,
      "Ġrhino": 4296,
      "osie": 4297,
      "Ġapologized": 4298,
      "Ġrever": 4299,
      "Ġpoints": 4300,
      "Ġrolling": 4301,
      "Ġshouldn": 4302,
      "Ġincl": 4303,
      "sely": 4304,
      "ected": 4305,
      "Ġpage": 4306,
      "anic": 4307,
      "Ġmedal": 4308,
      "Ġfields": 4309,
      "zzy": 4310,
      "ĠSandy": 4311,
      "Ġflame": 4312,
      "izes": 4313,
      "quit": 4314,
      "aces": 4315,
      "Ġoil": 4316,
      "urch": 4317,
      "Ġimagination": 4318,
      "Ġdiary": 4319,
      "Ġlawyer": 4320,
      "chanic": 4321,
      "Ġfauc": 4322,
      "Ġwaving": 4323,
      "Ġmule": 4324,
      "Ġviolin": 4325,
      "Ġaeroplane": 4326,
      "Ġskill": 4327,
      "Ġcheek": 4328,
      "ĠSophie": 4329,
      "Ġquarrel": 4330,
      "ney": 4331,
      "ween": 4332,
      "ides": 4333,
      "Ġmechanic": 4334,
      "Ġpainter": 4335,
      "Ġpirates": 4336,
      "Ġplayer": 4337,
      "Ġax": 4338,
      "Ġcoal": 4339,
      "Ġyacht": 4340,
      "Ġclosely": 4341,
      "Ġkay": 4342,
      "ĠdonÃ¢": 4343,
      "ĠRo": 4344,
      "Ġbetween": 4345,
      "Ġwinter": 4346,
      "eath": 4347,
      "nament": 4348,
      "Ġforgotten": 4349,
      "Ġpeach": 4350,
      "Ġeagerly": 4351,
      "Ġsym": 4352,
      "Ġfrogs": 4353,
      "Ġcreated": 4354,
      "quito": 4355,
      "Ġtheater": 4356,
      "Ġornament": 4357,
      "Ġskelet": 4358,
      "Ġsir": 4359,
      "Ġfreez": 4360,
      "..": 4361,
      "Ġfaucet": 4362,
      "Ġmixer": 4363,
      "ites": 4364,
      "Ġmos": 4365,
      "Ġperfectly": 4366,
      "ĠGrace": 4367,
      "Ġcherries": 4368,
      "ckey": 4369,
      "Ġhockey": 4370,
      "Ġbaking": 4371,
      "Ġattention": 4372,
      "Ġminute": 4373,
      "Ġflea": 4374,
      "Ġshouting": 4375,
      "Ch": 4376,
      "ĠWill": 4377,
      "Ġchirp": 4378,
      "ctory": 4379,
      "Ġsurrender": 4380,
      "Ġcable": 4381,
      "Ġwife": 4382,
      "Ġhut": 4383,
      "stead": 4384,
      "Ġlaser": 4385,
      "Ġslept": 4386,
      "Ġherb": 4387,
      "ĠPapa": 4388,
      "place": 4389,
      "affe": 4390,
      "Ġknob": 4391,
      "Ġvest": 4392,
      "Ġfactory": 4393,
      "âĤ¬âĢľ": 4394,
      "bol": 4395,
      "Ġwipe": 4396,
      "Ġphoto": 4397,
      "Ġseeing": 4398,
      "Ġmosquito": 4399,
      "iture": 4400,
      "urniture": 4401,
      "gen": 4402,
      "Inside": 4403,
      "Ġaxe": 4404,
      "Ġfurniture": 4405,
      "Ġpoke": 4406,
      "Ġsquirrels": 4407,
      "Ġsymbol": 4408,
      "Ġreef": 4409,
      "Ġgreedy": 4410,
      "Ġpowder": 4411,
      "Ġtrail": 4412,
      "Ġpit": 4413,
      "Ġskeleton": 4414,
      "Ġvet": 4415,
      "Ġargue": 4416,
      "Ġlime": 4417,
      "ĠBun": 4418,
      "Ġinsect": 4419,
      "Ġfisher": 4420,
      "Ġplastic": 4421,
      "Ġsunset": 4422,
      "any": 4423,
      "Ġslipper": 4424,
      "Your": 4425,
      "spap": 4426,
      "lass": 4427,
      "una": 4428,
      "Ġsung": 4429,
      "Ġhopes": 4430,
      "Ġig": 4431,
      "Ġnewspap": 4432,
      "Ġpetals": 4433,
      "Ġigloo": 4434,
      "Ġmotorcycle": 4435,
      "Ġsneak": 4436,
      "Ġiron": 4437,
      "ories": 4438,
      "Ġslippery": 4439,
      "Ġkitty": 4440,
      "Ġcushion": 4441,
      "ĠMillie": 4442,
      "Ġtwink": 4443,
      "Ġmeeting": 4444,
      "Ġbattery": 4445,
      "Ġweather": 4446,
      "Ġgiraffe": 4447,
      "Ġstud": 4448,
      "Ġcalls": 4449,
      "Ġbreeze": 4450,
      "Ġoffer": 4451,
      "ĠMaria": 4452,
      "Ġvroom": 4453,
      "Ġheaded": 4454,
      "Ġmagaz": 4455,
      "ceros": 4456,
      "Ġzipper": 4457,
      "inarian": 4458,
      "eterinarian": 4459,
      "Ġblowing": 4460,
      "Ġmaze": 4461,
      "Ġveterinarian": 4462,
      "Ġfireplace": 4463,
      "ues": 4464,
      "ĠTed": 4465,
      "Ġblankets": 4466,
      "Ġfishing": 4467,
      "Ġwags": 4468,
      "aws": 4469,
      "Ġbury": 4470,
      "Ġchickens": 4471,
      "Ġoyster": 4472,
      "mm": 4473,
      "Ġparent": 4474,
      "Ġpopped": 4475,
      "Ġpine": 4476,
      "Ġtemple": 4477,
      "Ġhappens": 4478,
      "Ġchurch": 4479,
      "Ġrhinoceros": 4480,
      "Ġitch": 4481,
      "Ġsprayed": 4482,
      "Ġgrin": 4483,
      "Ġquack": 4484,
      "Ġdoors": 4485,
      "Ġshower": 4486,
      "Ġseas": 4487,
      "Ġcob": 4488,
      "angu": 4489,
      "Ġskull": 4490,
      "Ġnapkin": 4491,
      "men": 4492,
      "Ġglowing": 4493,
      "Ġmystery": 4494,
      "ison": 4495,
      "imney": 4496,
      "Eventually": 4497,
      "Ġtear": 4498,
      "Ġlangu": 4499,
      "ĠGod": 4500,
      "web": 4501,
      "Ġstaff": 4502,
      "hero": 4503,
      "Ġrot": 4504,
      "Ġfollows": 4505,
      "Ġpassport": 4506,
      "Ġburned": 4507,
      "Ġkayak": 4508,
      "Ġreve": 4509,
      "Ġchimney": 4510,
      "Ġflapped": 4511,
      "lasses": 4512,
      "Ġhanging": 4513,
      "Ġble": 4514,
      "ĠAnnie": 4515,
      "elcome": 4516,
      "Ġcane": 4517,
      "orses": 4518,
      "Ġvideo": 4519,
      "was": 4520,
      "Ġnovel": 4521,
      "Ġcelebrated": 4522,
      "Ġsuperhero": 4523,
      "Ġfisherman": 4524,
      "Ġsunglasses": 4525,
      "Ġbother": 4526,
      "erc": 4527,
      "Ġsniffed": 4528,
      "Ġshrugged": 4529,
      "Ġswamp": 4530,
      "Ġsurround": 4531,
      "Ġgolden": 4532,
      "Ġglove": 4533,
      "ĠUn": 4534,
      "Ġcomplain": 4535,
      "Ġbaseball": 4536,
      "Ġhorses": 4537,
      "Ġlotion": 4538,
      "Ġwriting": 4539,
      "unately": 4540,
      "Ġshoulder": 4541,
      "chair": 4542,
      "Ġcobweb": 4543,
      "washer": 4544,
      "Ġdear": 4545,
      "Ġmistakes": 4546,
      "Ġtrave": 4547,
      "tress": 4548,
      "Ġmattress": 4549,
      "Ġmemories": 4550,
      "Ġdishwasher": 4551,
      "ĠMimi": 4552,
      "Ġignored": 4553,
      "Ġkingdom": 4554,
      "Ġavocado": 4555,
      "Ġgrocer": 4556,
      "Ġsticky": 4557,
      "Wait": 4558,
      "Ġhar": 4559,
      "Ġcell": 4560,
      "Ġmoves": 4561,
      "Ġdisappear": 4562,
      "right": 4563,
      "Ġweigh": 4564,
      "reek": 4565,
      "Ġwelcomed": 4566,
      "case": 4567,
      "Ġtoil": 4568,
      "Ġcreek": 4569,
      "Ġpist": 4570,
      "ĠLilly": 4571,
      "Ġbeef": 4572,
      "ab": 4573,
      "Ġdancer": 4574,
      "Ġunif": 4575,
      "Ġsque": 4576,
      "ĠBaby": 4577,
      "Ġsailing": 4578,
      "tain": 4579,
      "Ġcared": 4580,
      "Ġeaten": 4581,
      "Ġbouncing": 4582,
      "Together": 4583,
      "Ġpistol": 4584,
      "Ġfought": 4585,
      "rosc": 4586,
      "rs": 4587,
      "medi": 4588,
      "Ġseparate": 4589,
      "Ġuniform": 4590,
      "Ġexerc": 4591,
      "Ġdiscu": 4592,
      "mediately": 4593,
      "Sammy": 4594,
      "Ġarmchair": 4595,
      "roscope": 4596,
      "ler": 4597,
      "aud": 4598,
      "Ġfog": 4599,
      "ĠInstead": 4600,
      "Ġceiling": 4601,
      "ĠRosie": 4602,
      "ĠCharlie": 4603,
      "ssible": 4604,
      "Ġagre": 4605,
      "Ġtoilet": 4606,
      "Ġoak": 4607,
      "Ġveil": 4608,
      "Ġthrowing": 4609,
      "Ġinvest": 4610,
      "Ġtug": 4611,
      "Ġworth": 4612,
      "vision": 4613,
      "inked": 4614,
      "ĠitÃ¢": 4615,
      "Ġsince": 4616,
      "rod": 4617,
      "Ġattach": 4618,
      "Ġfreezer": 4619,
      "Ġagree": 4620,
      "asis": 4621,
      "Ġcrib": 4622,
      "Ġinvestig": 4623,
      "Ġpresents": 4624,
      "Emma": 4625,
      "Ġyield": 4626,
      "Ġprevent": 4627,
      "Because": 4628,
      "Ġintrod": 4629,
      "Thanks": 4630,
      "Ġcollected": 4631,
      "Ġmicroscope": 4632,
      "Next": 4633,
      "ĠHelp": 4634,
      "Ġquietly": 4635,
      "Ġclassroom": 4636,
      "Ġscolded": 4637,
      "Ġsizes": 4638,
      "Ġoasis": 4639,
      "Ġward": 4640,
      "ĠNext": 4641,
      "Ġsigh": 4642,
      "Ġstreng": 4643,
      "Ġapplaud": 4644,
      "Ġlicks": 4645,
      "ggy": 4646,
      "Ġtut": 4647,
      "Ġpastry": 4648,
      "Qu": 4649,
      "Ġregret": 4650,
      "Ġcoats": 4651,
      "Ġwardrobe": 4652,
      "Ġpur": 4653,
      "Ġalarm": 4654,
      "Ġmustache": 4655,
      "Ġcandles": 4656,
      "Ġcrow": 4657,
      "Ġstrength": 4658,
      "Ġchoice": 4659,
      "te": 4660,
      "ĠIÃ¢": 4661,
      "chie": 4662,
      "Ġcastles": 4663,
      "Ġpuddles": 4664,
      "ives": 4665,
      "house": 4666,
      "Ġcaring": 4667,
      "Ġmop": 4668,
      "Ġapart": 4669,
      "Today": 4670,
      "Ġtelevision": 4671,
      "omes": 4672,
      "Ġnewspaper": 4673,
      "Ġwhisper": 4674,
      "Ġjewelry": 4675,
      "Ġchairs": 4676,
      "ival": 4677,
      "Ġchess": 4678,
      "ĠHenry": 4679,
      "Ġrooms": 4680,
      "Ġfloat": 4681,
      "Ġradish": 4682,
      "Ġsub": 4683,
      "Ġyoga": 4684,
      "Ġmakeup": 4685,
      "Ġpear": 4686,
      "ction": 4687,
      "Ġstraight": 4688,
      "Ġtrusted": 4689,
      "Ġinvestigate": 4690,
      "Ġskirt": 4691,
      "ĠJess": 4692,
      "Ġkisses": 4693,
      "ety": 4694,
      "anges": 4695,
      "Ġcabinet": 4696,
      "Ġsqueezed": 4697,
      "Ġdressed": 4698,
      "Ġimprove": 4699,
      "Ġgym": 4700,
      "ĠSee": 4701,
      "Ġcrawling": 4702,
      "ĠTony": 4703,
      "Ġblueberries": 4704,
      "Ġworms": 4705,
      "ÅĵItÃ¢": 4706,
      "Ġblinked": 4707,
      "Ġpra": 4708,
      "Ġnews": 4709,
      "Ġhurting": 4710,
      "Ġbookcase": 4711,
      "ĠMiss": 4712,
      "Ġmatches": 4713,
      "Ġblood": 4714,
      "Ġentered": 4715,
      "ĠHarry": 4716,
      "Ġkeeping": 4717,
      "Ġdelay": 4718,
      "Ġappro": 4719,
      "Ġdemand": 4720,
      "Ġrake": 4721,
      "iction": 4722,
      "ores": 4723,
      "Ġtornado": 4724,
      "Ġaccepted": 4725,
      "alley": 4726,
      "Ġsplashing": 4727,
      "ictionary": 4728,
      "lid": 4729,
      "Ġstable": 4730,
      "Ġsqueeze": 4731,
      "Ġserve": 4732,
      "Did": 4733,
      "Ġminer": 4734,
      "Ġtucked": 4735,
      "Ġstro": 4736,
      "Ġboot": 4737,
      "Ġclaws": 4738,
      "Ġraz": 4739,
      "Ġsandcastle": 4740,
      "Ġsuff": 4741,
      "Ġamazement": 4742,
      "ring": 4743,
      "Ġmusician": 4744,
      "Ann": 4745,
      "Ġweep": 4746,
      "Ġlawn": 4747,
      "Ġsteam": 4748,
      "Ġaut": 4749,
      "Ġsnap": 4750,
      "Ġfest": 4751,
      "Ġdictionary": 4752,
      "Ġrise": 4753,
      "Ġvalley": 4754,
      "fume": 4755,
      "Ġholid": 4756,
      "ĠRu": 4757,
      "Ġpuzzles": 4758,
      "Ġthumb": 4759,
      "Ġgrill": 4760,
      "sit": 4761,
      "ups": 4762,
      "Ġcrossed": 4763,
      "uckily": 4764,
      "Ġlanguage": 4765,
      "Is": 4766,
      "Ġblouse": 4767,
      "Ġpinch": 4768,
      "Ġreaches": 4769,
      "Ġjunk": 4770,
      "Ġeasily": 4771,
      "Ġyucky": 4772,
      "Ġperfume": 4773,
      "Ġsi": 4774,
      "Ġrequ": 4775,
      "chor": 4776,
      "Ġwigg": 4777,
      "Ġletting": 4778,
      "ĠKate": 4779,
      "Ġmagazine": 4780,
      "Ġspear": 4781,
      "raged": 4782,
      "Ġhelper": 4783,
      "Ġrail": 4784,
      "Ġcliff": 4785,
      "Ġweap": 4786,
      "Ġwandered": 4787,
      "Ġstrawberries": 4788,
      "ĠDanny": 4789,
      "Ġshrink": 4790,
      "Ġbirdc": 4791,
      "Ġticket": 4792,
      "Ġrelaxed": 4793,
      "ĠWho": 4794,
      "Ġgrowled": 4795,
      "Ġharb": 4796,
      "Ġtong": 4797,
      "mend": 4798,
      "Ġcrash": 4799,
      "Ġbirdcage": 4800,
      "Mandy": 4801,
      "ah": 4802,
      "Ġtutor": 4803,
      "Ġopera": 4804,
      "Ġbill": 4805,
      "Ġplates": 4806,
      "Ġmint": 4807,
      "Ġrazor": 4808,
      "Ġpoked": 4809,
      "Ġbelow": 4810,
      "anny": 4811,
      "Ġplanes": 4812,
      "Ġincre": 4813,
      "Ġanchor": 4814,
      "Ġhearts": 4815,
      "ĠTrue": 4816,
      "hic": 4817,
      "ommend": 4818,
      "Ġinf": 4819,
      "inky": 4820,
      "Ġvehic": 4821,
      "Ġrecommend": 4822,
      "omeday": 4823,
      "Ġmarried": 4824,
      "Ġbleed": 4825,
      "Ġlic": 4826,
      "ĊĠ": 4827,
      "Ġrequest": 4828,
      "Ġroot": 4829,
      "Ġribbon": 4830,
      "Ġringing": 4831,
      "Ġwaste": 4832,
      "ived": 4833,
      "Ġwaffle": 4834,
      "Ġtrade": 4835,
      "Ġcub": 4836,
      "Ġberry": 4837,
      "bbie": 4838,
      "Ġkneel": 4839,
      "ising": 4840,
      "Ġinstr": 4841,
      "sters": 4842,
      "Ġisn": 4843,
      "âĤ¬.": 4844,
      "Ġsneeze": 4845,
      "Ġfallen": 4846,
      "cakes": 4847,
      "Ġteleph": 4848,
      "Ġholiday": 4849,
      "omob": 4850,
      "icing": 4851,
      "lend": 4852,
      "Ġvac": 4853,
      "Ġsurprises": 4854,
      "fortunately": 4855,
      "Ġharbor": 4856,
      "Ġbumped": 4857,
      "Yuck": 4858,
      "riger": 4859,
      "Ġmass": 4860,
      "Ġwarmth": 4861,
      "Ġfestival": 4862,
      "Ġenter": 4863,
      "rigerator": 4864,
      "Ġwine": 4865,
      "Ġdried": 4866,
      "Ġideas": 4867,
      "Ġblackboard": 4868,
      "Ġbathe": 4869,
      "Ġimmediately": 4870,
      "Ġraise": 4871,
      "Ġrefrigerator": 4872,
      "Ġfile": 4873,
      "Ġlumber": 4874,
      "Ġsocks": 4875,
      "ĠRe": 4876,
      "Ġbegged": 4877,
      "Ġfollowing": 4878,
      "Ġport": 4879,
      "Ġtelephone": 4880,
      "Ġmyself": 4881,
      "Ġfuel": 4882,
      "Ġmuffin": 4883,
      "Ġautomob": 4884,
      "ĠSu": 4885,
      "Will": 4886,
      "lier": 4887,
      "Ġsupply": 4888,
      "Ġdresses": 4889,
      "Ġlaught": 4890,
      "Ġunderstanding": 4891,
      "Ġreverse": 4892,
      "Ġexperience": 4893,
      "Ġsomeday": 4894,
      "Ġprop": 4895,
      "Ġremove": 4896,
      "Ġspots": 4897,
      "Ġcalend": 4898,
      "ĠSnowy": 4899,
      "eve": 4900,
      "Ġsnapped": 4901,
      "oral": 4902,
      "ampoo": 4903,
      "Ġdestroyed": 4904,
      "ari": 4905,
      "Ġburied": 4906,
      "Ġscattered": 4907,
      "Ġbravely": 4908,
      "Ġrefre": 4909,
      "Ġlaughter": 4910,
      "Ġinvite": 4911,
      "ission": 4912,
      "Ġmoments": 4913,
      "Ġcuddled": 4914,
      "Ġcalendar": 4915,
      "'ve": 4916,
      "Ġapron": 4917,
      "Ġcaptain": 4918,
      "achel": 4919,
      "ĠFreddy": 4920,
      "Ġpermission": 4921,
      "Ġlemonade": 4922,
      "Ġtoes": 4923,
      "rm": 4924,
      "aped": 4925,
      "ĠAb": 4926,
      "ucture": 4927,
      "Ġdifferen": 4928,
      "Ġstructure": 4929,
      "Ġflutter": 4930,
      "Ġasht": 4931,
      "Ġbookshe": 4932,
      "Ġskills": 4933,
      "Ġshampoo": 4934,
      "Ġtaller": 4935,
      "Ġsaving": 4936,
      "Ġhits": 4937,
      "Ġyawned": 4938,
      "Ġlicense": 4939,
      "With": 4940,
      "Ġtherm": 4941,
      "Ġknown": 4942,
      "Ġspending": 4943,
      "Ġbeans": 4944,
      "Ġdire": 4945,
      "ĠHave": 4946,
      "ĠJames": 4947,
      "Ġbalan": 4948,
      "atie": 4949,
      "Ġsafety": 4950,
      "Ġjewels": 4951,
      "Ġspade": 4952,
      "Ġignore": 4953,
      "Ok": 4954,
      "reat": 4955,
      "Ġrabbits": 4956,
      "Ġashtray": 4957,
      "ĠJul": 4958,
      "Ġpages": 4959,
      "ĠOllie": 4960,
      "Ġearlier": 4961,
      "Ġlabel": 4962,
      "Welcome": 4963,
      "Ġhomes": 4964,
      "Ġbeamed": 4965,
      "Ġhanger": 4966,
      "Ġsits": 4967,
      "Ġprepare": 4968,
      "Ġbreathe": 4969,
      "Ġbookshelf": 4970,
      "Ġhardly": 4971,
      "Ġfastest": 4972,
      "Ġsparkling": 4973,
      "Ġthermomet": 4974,
      "Ġdecorations": 4975,
      "Ġinsisted": 4976,
      "ĠCo": 4977,
      "Ġtongue": 4978,
      "Ġmissile": 4979,
      "Ġpatiently": 4980,
      "Ġfiref": 4981,
      "Ġteaching": 4982,
      "vet": 4983,
      "Ġrow": 4984,
      "Ġjail": 4985,
      "Ġappreciate": 4986,
      "Ġsubway": 4987,
      "asp": 4988,
      "ĠFo": 4989,
      "Ġplays": 4990,
      "Ġres": 4991,
      "Ġairpl": 4992,
      "Ġadmir": 4993,
      "'.": 4994,
      "Ġvanished": 4995,
      "Ġthermometer": 4996,
      "Ġcherry": 4997,
      "Ġwashing": 4998,
      "Ġsettled": 4999,
      "Ġpraised": 5000,
      "Lisa": 5001,
      "Ġalright": 5002,
      "izard": 5003,
      "Fl": 5004,
      "Ġbelieved": 5005,
      "Ġdestination": 5006,
      "amber": 5007,
      "Ġdrain": 5008,
      "Jen": 5009,
      "Ġremain": 5010,
      "Ġsparkle": 5011,
      "ĠIts": 5012,
      "Ġbrain": 5013,
      "Ġbuckle": 5014,
      "sing": 5015,
      "Ġscore": 5016,
      "Ġgifts": 5017,
      "ĠBuzz": 5018,
      "Ġvacation": 5019,
      "Ġhills": 5020,
      "Ġclimbs": 5021,
      "ium": 5022,
      "Ġgear": 5023,
      "Ġpride": 5024,
      "Ġreplace": 5025,
      "Ġmention": 5026,
      "Ġscooped": 5027,
      "xture": 5028,
      "ĠV": 5029,
      "Ġhate": 5030,
      "ĠClara": 5031,
      "ĠMay": 5032,
      "Ġmailman": 5033,
      "Ġexamine": 5034,
      "Ġquiz": 5035,
      "Ġcrunch": 5036,
      "Ġshed": 5037,
      "ents": 5038,
      "Ġencouraged": 5039,
      "Ġtore": 5040,
      "osed": 5041,
      "Peter": 5042,
      "Ġmall": 5043,
      "atch": 5044,
      "Ġitem": 5045,
      "ops": 5046,
      "Ġguy": 5047,
      "Ġhers": 5048,
      "Ġsimp": 5049,
      "Ġrhy": 5050,
      "Ġsparkles": 5051,
      "nies": 5052,
      "Ġautomobile": 5053,
      "Ġdigg": 5054,
      "Ġpulling": 5055,
      "Ġspaces": 5056,
      "Ġpoison": 5057,
      "Ġdeeper": 5058,
      "ĠPeople": 5059,
      "ĠEach": 5060,
      "Ġbuzzing": 5061,
      "Ġchirping": 5062,
      "Ġpalm": 5063,
      "Ġflav": 5064,
      "Ġscratch": 5065,
      "Ġstruggling": 5066,
      "antly": 5067,
      "Ġbak": 5068,
      "Ġlugg": 5069,
      "Ġpanic": 5070,
      "Ġachie": 5071,
      "Ġpunish": 5072,
      "Ġdigging": 5073,
      "Ġfloated": 5074,
      "Ġdare": 5075,
      "Ġsolved": 5076,
      "Ġworse": 5077,
      "Ġchores": 5078,
      "ĠGood": 5079,
      "Ġrestore": 5080,
      "Ġmodel": 5081,
      "Ġreceived": 5082,
      "ĠBetsy": 5083,
      "Ġluggage": 5084,
      "Ġnone": 5085,
      "Ġwhip": 5086,
      "Ġsew": 5087,
      "Ġbathrobe": 5088,
      "Ġshooting": 5089,
      "Ġweapon": 5090,
      "anna": 5091,
      "bey": 5092,
      "Ġwizard": 5093,
      "These": 5094,
      "Ġwarning": 5095,
      "Ġprovide": 5096,
      "Ġtease": 5097,
      "Ġbites": 5098,
      "Ġoranges": 5099,
      "Ġfloating": 5100,
      "Ġelephants": 5101,
      "Mark": 5102,
      "ero": 5103,
      "Ġrespons": 5104,
      "Ġweeks": 5105,
      "Ġbillboard": 5106,
      "Ġsty": 5107,
      "Ġbricks": 5108,
      "Mmm": 5109,
      "Ġapproached": 5110,
      "Not": 5111,
      "Ġupstairs": 5112,
      "Ġuniverse": 5113,
      "Ġstomach": 5114,
      "Ġdifference": 5115,
      "Ġstad": 5116,
      "Ġmeowed": 5117,
      "Ġstadium": 5118,
      "ging": 5119,
      "Ġshot": 5120,
      "osity": 5121,
      "Ġsport": 5122,
      "ctly": 5123,
      "Ġsigns": 5124,
      "Ġsprinkles": 5125,
      "Ġbrings": 5126,
      "Ġchamber": 5127,
      "ĠChirp": 5128,
      "Ġdaisy": 5129,
      "Ġsneezed": 5130,
      "Ġtide": 5131,
      "ÅĵNo": 5132,
      "thm": 5133,
      "Ġcollection": 5134,
      "Ġmassage": 5135,
      "Ġequ": 5136,
      "Emily": 5137,
      "sity": 5138,
      "ĠIs": 5139,
      "ĠMaggie": 5140,
      "Ġranch": 5141,
      "allen": 5142,
      "allow": 5143,
      "Ġinfant": 5144,
      "fied": 5145,
      "Ġhesit": 5146,
      "ĠTina": 5147,
      "ĠBefore": 5148,
      "Ġtwisted": 5149,
      "iers": 5150,
      "Ġsausage": 5151,
      "Ġsupposed": 5152,
      "Ġpatterns": 5153,
      "Ġoper": 5154,
      "Ġglo": 5155,
      "Ġawe": 5156,
      "Ġchallen": 5157,
      "Ġinvit": 5158,
      "cles": 5159,
      "Ġmister": 5160,
      "Ġgrape": 5161,
      "Ġsuffer": 5162,
      "Ġparts": 5163,
      "Ġmeasured": 5164,
      "Ġemer": 5165,
      "ude": 5166,
      "Sh": 5167,
      "Ġwatches": 5168,
      "Ġdiscuss": 5169,
      "Ġrhythm": 5170,
      "Ġbang": 5171,
      "Ġvehicle": 5172,
      "Ġmarbles": 5173,
      "Ġgrinned": 5174,
      "Ġsip": 5175,
      "Ġsetting": 5176,
      "Ġgrey": 5177,
      "Ġneighborhood": 5178,
      "Ġpillows": 5179,
      "Ġrepeat": 5180,
      "Ġseats": 5181,
      "All": 5182,
      "igail": 5183,
      "Ġfixing": 5184,
      "bbles": 5185,
      "Ġexercise": 5186,
      "Ġheat": 5187,
      "Ġevent": 5188,
      "ls": 5189,
      "Ġnation": 5190,
      "ĠKing": 5191,
      "Ġthrilled": 5192,
      "Ġsore": 5193,
      "Ġlick": 5194,
      "Ġleak": 5195,
      "emember": 5196,
      "umble": 5197,
      "Ġsoldiers": 5198,
      "Ġgain": 5199,
      "Ġlets": 5200,
      "Ġunite": 5201,
      "Ġmemory": 5202,
      "Ġuniversity": 5203,
      "Ġslice": 5204,
      "ĠEveryday": 5205,
      "Ġfut": 5206,
      "ĠLuna": 5207,
      "aspoon": 5208,
      "Ġsunr": 5209,
      "Ġfuture": 5210,
      "Ġmitten": 5211,
      "Ġspoons": 5212,
      "Ġmelted": 5213,
      "Ġspit": 5214,
      "do": 5215,
      "Ġjazz": 5216,
      "Ġcartoons": 5217,
      "Johnny": 5218,
      "Ġspaceship": 5219,
      "ĠLater": 5220,
      "Ġours": 5221,
      "Ġflood": 5222,
      "ĠSpike": 5223,
      "Ġremained": 5224,
      "Ġpaused": 5225,
      "Ġactually": 5226,
      "Ġproblems": 5227,
      "ĠFro": 5228,
      "Ġteaspoon": 5229,
      "Ġglowed": 5230,
      "Ġtour": 5231,
      "Ġlily": 5232,
      "Ġsurrounded": 5233,
      "Jake": 5234,
      "Would": 5235,
      "Ġurge": 5236,
      "Ġdiscovery": 5237,
      "Ġairplane": 5238,
      "!\",": 5239,
      "ĠLiz": 5240,
      "Ġscreams": 5241,
      "Ġinclud": 5242,
      "Ouch": 5243,
      "ĠSomeone": 5244,
      "Ġtracks": 5245,
      "Ġearthqu": 5246,
      "Ġcollecting": 5247,
      "xy": 5248,
      "Ġbrus": 5249,
      "ĠPoppy": 5250,
      "Ġdrinks": 5251,
      "Ġsunrise": 5252,
      "Ġbeg": 5253,
      "ases": 5254,
      "Ġjogging": 5255,
      "Ġwherever": 5256,
      "Ġpaints": 5257,
      "eed": 5258,
      "Ġrust": 5259,
      "Ġreceive": 5260,
      "Ġlaid": 5261,
      "Ġracing": 5262,
      "Ġchewed": 5263,
      "Ġsings": 5264,
      "Ġgust": 5265,
      "ĠNut": 5266,
      "oved": 5267,
      "Ġcakes": 5268,
      "Ġsliding": 5269,
      "Ġobserve": 5270,
      "Ġchir": 5271,
      "Ġwond": 5272,
      "Ġraised": 5273,
      "Ready": 5274,
      "!'": 5275,
      "Ġstrang": 5276,
      "Le": 5277,
      "Ġrush": 5278,
      "Ġgirls": 5279,
      "Ġburning": 5280,
      "Ġordered": 5281,
      "Ġchirped": 5282,
      "Al": 5283,
      "Ġzipped": 5284,
      "Ġpetted": 5285,
      "Ġduring": 5286,
      "Ġworks": 5287,
      "bers": 5288,
      "Ġtwigs": 5289,
      "ĠSharing": 5290,
      "Ġspill": 5291,
      "ĠRachel": 5292,
      "Ġpossible": 5293,
      "Ġappear": 5294,
      "Ġpigs": 5295,
      "avid": 5296,
      "Ġx": 5297,
      "Ġscratched": 5298,
      "cious": 5299,
      "ishing": 5300,
      "Ġcopper": 5301,
      "Ex": 5302,
      "ĠSund": 5303,
      "Ġbeat": 5304,
      "Ġpoppy": 5305,
      "Ġtomatoes": 5306,
      "Ġdecision": 5307,
      "Ġcontain": 5308,
      "Ġsafari": 5309,
      "Ġcurled": 5310,
      "Ġwatered": 5311,
      "Ġcrunchy": 5312,
      "Ġscur": 5313,
      "Ġwhistled": 5314,
      "ĠZoe": 5315,
      "Ġoperation": 5316,
      "Ġattached": 5317,
      "Ġwhistling": 5318,
      "Yum": 5319,
      "Ġkindly": 5320,
      "Ġsatis": 5321,
      "Ġlands": 5322,
      "ddy": 5323,
      "Ġsunlight": 5324,
      "Ġmarching": 5325,
      "ÅĵIÃ¢": 5326,
      "Before": 5327,
      "zag": 5328,
      "Ġbeds": 5329,
      "Ġvel": 5330,
      "ÅĵThatÃ¢": 5331,
      "Ġmanage": 5332,
      "Ġdrinking": 5333,
      "Ġgrocery": 5334,
      "Ġpeanuts": 5335,
      "Ġstrangers": 5336,
      "Ġmouths": 5337,
      "Ġfed": 5338,
      "fy": 5339,
      "ĠMe": 5340,
      "Ġglitter": 5341,
      "mother": 5342,
      "ities": 5343,
      "etch": 5344,
      "Ġprepared": 5345,
      "Ġpotatoes": 5346,
      "Ġcrashed": 5347,
      "Really": 5348,
      "Ġvelvet": 5349,
      "Ġfasc": 5350,
      "walk": 5351,
      "ĠJoy": 5352,
      "Ġprayed": 5353,
      "Ġcontinue": 5354,
      "Ġescaped": 5355,
      "Ġhurric": 5356,
      "Ġgaz": 5357,
      "Ġdoggy": 5358,
      "Ġwisdom": 5359,
      "Ġnavy": 5360,
      "Ġmenu": 5361,
      "ĠCat": 5362,
      "Ġconf": 5363,
      "Ġolive": 5364,
      "ĠSad": 5365,
      "Ġmountains": 5366,
      "Ġeff": 5367,
      "Ġwarn": 5368,
      "Ġinvitation": 5369,
      "igzag": 5370,
      "Ġstrip": 5371,
      "Ġtoe": 5372,
      "Ġclearing": 5373,
      "Ġpupp": 5374,
      "Ġremem": 5375,
      "Ġadmiring": 5376,
      "Ġmeow": 5377,
      "ipment": 5378,
      "Ġremembers": 5379,
      "Ġbes": 5380,
      "Ġwaits": 5381,
      "Ġsidewalk": 5382,
      "Ġprice": 5383,
      "ĠChirpy": 5384,
      "Ġbrid": 5385,
      "Ġtalent": 5386,
      "Ġequipment": 5387,
      "Ġearthquake": 5388,
      "Ġcomfy": 5389,
      "Ġhated": 5390,
      "Ġfolded": 5391,
      "Ġfireworks": 5392,
      "ĠNot": 5393,
      "son": 5394,
      "hest": 5395,
      "Ġnetwork": 5396,
      "Ġwonders": 5397,
      "Ġturning": 5398,
      "Ġlips": 5399,
      "Ġdisagreed": 5400,
      "Ġhurricane": 5401,
      "bbled": 5402,
      "Ġswims": 5403,
      "Ġcircus": 5404,
      "Ġflap": 5405,
      "Ġrecognized": 5406,
      "\",": 5407,
      "Ġleather": 5408,
      "ĠLetÃ¢": 5409,
      "Ġbones": 5410,
      "aded": 5411,
      "ĠRuby": 5412,
      "Ġfascin": 5413,
      "Ro": 5414,
      "Ġwre": 5415,
      "Ġgotten": 5416,
      "Ġskipping": 5417,
      "Ġeasier": 5418,
      "Ġselling": 5419,
      "Ġmeasuring": 5420,
      "Ġonwards": 5421,
      "Ġbridges": 5422,
      "Ġbye": 5423,
      "Ġwaffles": 5424,
      "Ġslip": 5425,
      "Ġrevealed": 5426,
      "Ġbleeding": 5427,
      "Ġsix": 5428,
      "ÅĵThank": 5429,
      "Ġbuildings": 5430,
      "Ġhist": 5431,
      "Ġapologize": 5432,
      "Ġrefreshed": 5433,
      "Ġlect": 5434,
      "Ġtremb": 5435,
      "Ġbowed": 5436,
      "Ġplanted": 5437,
      "Ġprune": 5438,
      "Ġobey": 5439,
      "Ġmuddy": 5440,
      "Ġbrick": 5441,
      "Ġhistory": 5442,
      "Ġpitch": 5443,
      "seek": 5444,
      "ffic": 5445,
      "Ġcompany": 5446,
      "Ġcuddle": 5447,
      "Ġbeside": 5448,
      "Ġweight": 5449,
      "Ġsecrets": 5450,
      "Moral": 5451,
      "Ġacorns": 5452,
      "amie": 5453,
      "Ġwanting": 5454,
      "Ġladyb": 5455,
      "Ġlecture": 5456,
      "Ġgloves": 5457,
      "Ġblueberry": 5458,
      "ĠNutty": 5459,
      "Ġpeered": 5460,
      "Ġwid": 5461,
      "ĠSunday": 5462,
      "ÅĵWe": 5463,
      "amb": 5464,
      "Ġallow": 5465,
      "Ġprecious": 5466,
      "Ġsettle": 5467,
      "Ġsimple": 5468,
      "Ġofficer": 5469,
      "Ġtraffic": 5470,
      "Ġrested": 5471,
      "loe": 5472,
      "Ġserved": 5473,
      "Ġbrand": 5474,
      "Ġwooden": 5475,
      "Ġprinter": 5476,
      "Ġstripes": 5477,
      "cc": 5478,
      "Ġkeeper": 5479,
      "Ġhappiest": 5480,
      "Ġhurried": 5481,
      "Ġeveryday": 5482,
      "Ġtrapped": 5483,
      "Ġsnowball": 5484,
      "joyed": 5485,
      "Ġpets": 5486,
      "ĠPenny": 5487,
      "Ġmineral": 5488,
      "Ġoverjoyed": 5489,
      "ĠSomething": 5490,
      "Ġfreeze": 5491,
      "Ġrang": 5492,
      "Ġmonsters": 5493,
      "Ġvillag": 5494,
      "Ġfash": 5495,
      "Ġwhatever": 5496,
      "Ġguessed": 5497,
      "Ġgained": 5498,
      "Ġcrept": 5499,
      "Ġsteel": 5500,
      "Ġreminder": 5501,
      "Ġimage": 5502,
      "Ġdinosaurs": 5503,
      "Ġsucceeded": 5504,
      "Ġfirefight": 5505,
      "Ġcal": 5506,
      "Somet": 5507,
      "Ġrained": 5508,
      "ĠSunny": 5509,
      "Ġanytime": 5510,
      "Ġpedal": 5511,
      "Ġchat": 5512,
      "Ġeffort": 5513,
      "Ġwaist": 5514,
      "Ġweren": 5515,
      "Ġeats": 5516,
      "Ġcutting": 5517,
      "Ġstealing": 5518,
      "Ġstyle": 5519,
      "Luckily": 5520,
      "Ġpies": 5521,
      "Ġwrites": 5522,
      "Ġcomforted": 5523,
      "Ġtip": 5524,
      "Ġbringing": 5525,
      "Ġeagle": 5526,
      "enty": 5527,
      "ĠSteve": 5528,
      "Ġanswers": 5529,
      "Fluffy": 5530,
      "ley": 5531,
      "Ġripped": 5532,
      "Ġcatching": 5533,
      "Ġdoctors": 5534,
      "Ġsoared": 5535,
      "ĠJe": 5536,
      "ĠRemy": 5537,
      "Susie": 5538,
      "Ġdrag": 5539,
      "Ġfashion": 5540,
      "ishes": 5541,
      "Ġzigzag": 5542,
      "Ġvisiting": 5543,
      "Ġoats": 5544,
      "Ġshadows": 5545,
      "ien": 5546,
      "Ġvillagers": 5547,
      "Or": 5548,
      "mble": 5549,
      "Ġscoop": 5550,
      "Ġcostumes": 5551,
      "Ġchef": 5552,
      "Ġvoices": 5553,
      "Ġowned": 5554,
      "Ġpermit": 5555,
      "Ġmice": 5556,
      "Ġresponsible": 5557,
      "rin": 5558,
      "Ġcuriosity": 5559,
      "Ġaccom": 5560,
      "Ġbun": 5561,
      "mare": 5562,
      "Ġexa": 5563,
      "Ġstruggled": 5564,
      "ĠChr": 5565,
      "First": 5566,
      "Ġbrushed": 5567,
      "nie": 5568,
      "izing": 5569,
      "Ġbreaking": 5570,
      "Ġtastes": 5571,
      "Ġtwirling": 5572,
      "Ġdisturbed": 5573,
      "Ġtremble": 5574,
      "Ġperched": 5575,
      "Ġolives": 5576,
      "icorn": 5577,
      "Ġunicorn": 5578,
      "ĠKatie": 5579,
      "iggy": 5580,
      "Ġkeys": 5581,
      "Ġpracticing": 5582,
      "ĠThese": 5583,
      "ĠRa": 5584,
      "Ġpupil": 5585,
      "Ġcreation": 5586,
      "Ġgrandmother": 5587,
      "Ġshopping": 5588,
      "Tweet": 5589,
      "neath": 5590,
      "Ġdownstairs": 5591,
      "anta": 5592,
      "Ġdecorated": 5593,
      "Ġagreement": 5594,
      "Ġrealize": 5595,
      "Ġnightmare": 5596,
      "Ġcontro": 5597,
      "Ġlandsc": 5598,
      "Ġbeneath": 5599,
      "Ġrides": 5600,
      "Ġpadd": 5601,
      "ĠMat": 5602,
      "Ġaccompl": 5603,
      "terday": 5604,
      "ding": 5605,
      "Ġfamil": 5606,
      "Ġactiv": 5607,
      "Ġexamined": 5608,
      "Ġsadness": 5609,
      "ĠQu": 5610,
      "ĠMilly": 5611,
      "Ġaccidents": 5612,
      "Ġarea": 5613,
      "ĠUncle": 5614,
      "Ġdied": 5615,
      "Ġvict": 5616,
      "ira": 5617,
      "Ġkeeps": 5618,
      "Ġbend": 5619,
      "Ġrele": 5620,
      "ĠAbigail": 5621,
      "ĠKe": 5622,
      "Ġsneaked": 5623,
      "Happy": 5624,
      "Ġsiren": 5625,
      "Ġbegin": 5626,
      "Ġpeel": 5627,
      "Ġrecognize": 5628,
      "va": 5629,
      "Ġpancakes": 5630,
      "Ġnails": 5631,
      "Un": 5632,
      "Ġoutdo": 5633,
      "oming": 5634,
      "Ġemergen": 5635,
      "Ġladybug": 5636,
      "Ġsting": 5637,
      "Ġago": 5638,
      "Ġslapped": 5639,
      "Ġtugged": 5640,
      "Ġruin": 5641,
      "ĠOl": 5642,
      "Ġsoak": 5643,
      "ĠLike": 5644,
      "Ġpearl": 5645,
      "Ġencourage": 5646,
      "Ġlandscape": 5647,
      "Ġwagging": 5648,
      "Ġsitu": 5649,
      "Ġspiders": 5650,
      "Ġargued": 5651,
      "isten": 5652,
      "Ġmission": 5653,
      "Ġtickets": 5654,
      "ib": 5655,
      "Ġstitch": 5656,
      "Ġweighed": 5657,
      "Ġshivering": 5658,
      "Ġinstruct": 5659,
      "Rex": 5660,
      "Ġnicer": 5661,
      "Ġknelt": 5662,
      "Ġbare": 5663,
      "Ġwondering": 5664,
      "Ġzooming": 5665,
      "ÅĵDon": 5666,
      "Ġcomple": 5667,
      "Ġclaps": 5668,
      "ĠSpark": 5669,
      "gers": 5670,
      "Ġcaut": 5671,
      "xygen": 5672,
      "Ġwreck": 5673,
      "Ġexactly": 5674,
      "Ġexit": 5675,
      "ĠStop": 5676,
      "owers": 5677,
      "Ġunderground": 5678,
      "Sometimes": 5679,
      "ÅĵCan": 5680,
      "Ġzero": 5681,
      "Ġwinning": 5682,
      "Ġitems": 5683,
      "ales": 5684,
      "Ġdraws": 5685,
      "Ġfiremen": 5686,
      "Ġstretching": 5687,
      "Ġunlocked": 5688,
      "Ġbunnies": 5689,
      "Ġplanned": 5690,
      "Ġpastel": 5691,
      "Ġstudied": 5692,
      "Ġsatisfied": 5693,
      "Ġcape": 5694,
      "Ġdecides": 5695,
      "Ġshoulders": 5696,
      "Ġcontrol": 5697,
      "low": 5698,
      "ulu": 5699,
      "Ġpiles": 5700,
      "wo": 5701,
      "annah": 5702,
      "ik": 5703,
      "Ġjogged": 5704,
      "Ġgathering": 5705,
      "Ġsnail": 5706,
      "Ġpockets": 5707,
      "Ġfetch": 5708,
      "Ġsisters": 5709,
      "looking": 5710,
      "Ġlines": 5711,
      "Ġdent": 5712,
      "bbing": 5713,
      "Goodbye": 5714,
      "Ye": 5715,
      "usan": 5716,
      "Ġsupplies": 5717,
      "Ġchallenge": 5718,
      "Ġeight": 5719,
      ".'": 5720,
      "Ġunderneath": 5721,
      "len": 5722,
      "Ġcones": 5723,
      "Ġtune": 5724,
      "Ġpinched": 5725,
      "Ġfascinated": 5726,
      "Ġinstructions": 5727,
      "ĠTiny": 5728,
      "inda": 5729,
      "aky": 5730,
      "Ġyelling": 5731,
      "ĠCoco": 5732,
      "ĠLucky": 5733,
      "Ġsolut": 5734,
      "Ġloaded": 5735,
      "Ġrelease": 5736,
      "Ġloving": 5737,
      "ĠCla": 5738,
      "Ġbeha": 5739,
      "Ġproperly": 5740,
      "Ġbuckets": 5741,
      "Ġmixing": 5742,
      "ĠHowever": 5743,
      "riage": 5744,
      "ĠBeth": 5745,
      "Ġstirring": 5746,
      "Ġlemons": 5747,
      "ica": 5748,
      "ĠFirst": 5749,
      "ĠBig": 5750,
      "Ġneighbors": 5751,
      "Ġhonk": 5752,
      "Ġloose": 5753,
      "Ġdeser": 5754,
      "Ġann": 5755,
      "Ġparked": 5756,
      "Ġbaked": 5757,
      "Ġoutdoors": 5758,
      "omas": 5759,
      "ĠDavid": 5760,
      "thank": 5761,
      "Dave": 5762,
      "Ġdam": 5763,
      "ĠBir": 5764,
      "ashed": 5765,
      "Ġteasing": 5766,
      "Ġsoaring": 5767,
      "ĠletÃ¢": 5768,
      "Ġfrosting": 5769,
      "Ġmuscles": 5770,
      "Ġburrow": 5771,
      "bies": 5772,
      "ayla": 5773,
      "Ġbroom": 5774,
      "Ġmachines": 5775,
      "Ġpunished": 5776,
      "ux": 5777,
      "Ġweb": 5778,
      "Ġbrushes": 5779,
      "Ġtouching": 5780,
      "Teddy": 5781,
      "ĠFloppy": 5782,
      "Ġmarks": 5783,
      "Ġincrease": 5784,
      "Ġdrift": 5785,
      "Bella": 5786,
      "Mar": 5787,
      "Ġruler": 5788,
      "Ġguns": 5789,
      "Ġcompetition": 5790,
      "ĠSuzy": 5791,
      "Ġtonight": 5792,
      "ĠJan": 5793,
      "Ġourselves": 5794,
      "Mr": 5795,
      "oh": 5796,
      "Ġhorns": 5797,
      "ÅĵLook": 5798,
      "Andy": 5799,
      "Ġbabies": 5800,
      "ury": 5801,
      "Ġstair": 5802,
      "ĠDid": 5803,
      "Ġintroduc": 5804,
      "Ġsoaked": 5805,
      "agull": 5806,
      "Ġfoods": 5807,
      "Ġprinted": 5808,
      "Ġprunes": 5809,
      "Ġreleased": 5810,
      "Ġoxygen": 5811,
      "imy": 5812,
      "Ġneighbourhood": 5813,
      "Ġtravell": 5814,
      "Ġpoking": 5815,
      "Ġopin": 5816,
      "Ġbudge": 5817,
      "Ġsweeties": 5818,
      "Ġemergency": 5819,
      "oed": 5820,
      "Ġdrives": 5821,
      "Ġrubbing": 5822,
      "die": 5823,
      "Ġmittens": 5824,
      "Ġpurred": 5825,
      "Ġprotected": 5826,
      "Ġdragons": 5827,
      "zen": 5828,
      "Ġsides": 5829,
      "Ġlied": 5830,
      "jam": 5831,
      "Ġstrings": 5832,
      "Ġmuffins": 5833,
      "Ġseagull": 5834,
      "Ġmentioned": 5835,
      "Ġtim": 5836,
      "Ġinch": 5837,
      "Ġvictory": 5838,
      "uke": 5839,
      "Ġ1": 5840,
      "ĠSanta": 5841,
      "Ġgiggling": 5842,
      "Ġsights": 5843,
      "ĠItÃ¢": 5844,
      "ÅĵThis": 5845,
      "Ġproject": 5846,
      "Ġbunch": 5847,
      "Ġrainbows": 5848,
      "Ġtickle": 5849,
      "shing": 5850,
      "ĠAn": 5851,
      "Ġchases": 5852,
      "Ġdragged": 5853,
      "Ġplanets": 5854,
      "Ġsteep": 5855,
      "nes": 5856,
      "indy": 5857,
      "Ġwinner": 5858,
      "bric": 5859,
      "Ġfabric": 5860,
      "Ah": 5861,
      "George": 5862,
      "Ġbeard": 5863,
      "Ġstudying": 5864,
      "âĤ¬âĢĿ": 5865,
      "kins": 5866,
      "ĠBubbles": 5867,
      "Ġsighs": 5868,
      "Ġpears": 5869,
      "Ġpeaches": 5870,
      "Ġstruck": 5871,
      "Ġintroduce": 5872,
      "ais": 5873,
      "ednes": 5874,
      "Ġvowed": 5875,
      "Ġmovies": 5876,
      "dam": 5877,
      "Ġlux": 5878,
      "Ġdemanded": 5879,
      "Ġguys": 5880,
      "icked": 5881,
      "Ġgrant": 5882,
      "Ġsilence": 5883,
      "ĠRabbit": 5884,
      "uctantly": 5885,
      "Ġpouring": 5886,
      "ĠFrank": 5887,
      "Ġscurried": 5888,
      "Joey": 5889,
      "Ġbarely": 5890,
      "Ġmast": 5891,
      "Ġeast": 5892,
      "Ġurged": 5893,
      "Ġstole": 5894,
      "Ġsurface": 5895,
      "ĠHoppy": 5896,
      "Ġpretti": 5897,
      "Ġcrumb": 5898,
      "Ġfrozen": 5899,
      "Ġprettiest": 5900,
      "ĠWednes": 5901,
      "Ġbouncy": 5902,
      "Ġrepeated": 5903,
      "Ġcuts": 5904,
      "Ġbank": 5905,
      "Ġbottles": 5906,
      "Ġsausages": 5907,
      "Ġherbs": 5908,
      "ĠTues": 5909,
      "Ġsorted": 5910,
      "Ġcrowd": 5911,
      "Ġvent": 5912,
      "Ġprints": 5913,
      "ĠAnne": 5914,
      "Ġtexture": 5915,
      "ÅĵHello": 5916,
      "Grandpa": 5917,
      "hins": 5918,
      "Ġwest": 5919,
      "edding": 5920,
      "icky": 5921,
      "Cl": 5922,
      "Mike": 5923,
      "ĠCarl": 5924,
      "ĠPip": 5925,
      "Ġresult": 5926,
      "Ġslimy": 5927,
      "Ġconfident": 5928,
      "Ġcatches": 5929,
      "Ġpout": 5930,
      "ledge": 5931,
      "Ġkicking": 5932,
      "Ġseason": 5933,
      "Ġcamping": 5934,
      "Ġapplauded": 5935,
      "ern": 5936,
      "essie": 5937,
      "Ġcompleted": 5938,
      "Bobby": 5939,
      "Remember": 5940,
      "Ġsorting": 5941,
      "Ġbloomed": 5942,
      "Lola": 5943,
      "ateri": 5944,
      "Ġacted": 5945,
      "Ġpoliceman": 5946,
      "Ġti": 5947,
      "Ġmateri": 5948,
      "Ġscreaming": 5949,
      "Ġexpect": 5950,
      "Ġcurly": 5951,
      "Ġshock": 5952,
      "Ġribbons": 5953,
      "Ella": 5954,
      "Ġgoals": 5955,
      "Ġroaring": 5956,
      "Ġchips": 5957,
      "Ġknowledge": 5958,
      "Ġsinger": 5959,
      "ĠChloe": 5960,
      "Ġshelves": 5961,
      "Ġrocked": 5962,
      "Ġpretends": 5963,
      "rrrr": 5964,
      "Ġgazed": 5965,
      "though": 5966,
      "Ġdiscovering": 5967,
      "ĠJulie": 5968,
      "Henry": 5969,
      "Ġreluctantly": 5970,
      "Ġcautious": 5971,
      "ĠAm": 5972,
      "Ġchewing": 5973,
      "ÅĵDonÃ¢": 5974,
      "Ġthreat": 5975,
      "Ġforgi": 5976,
      "Ġhighest": 5977,
      "Ġstrike": 5978,
      "Ġpebbles": 5979,
      "Ġpowers": 5980,
      "Ġwound": 5981,
      "Ġge": 5982,
      "Ġpatience": 5983,
      "Ġinterest": 5984,
      "exp": 5985,
      "Ġtwinkling": 5986,
      "Ġstamps": 5987,
      "ĠJones": 5988,
      "Ġgoodnight": 5989,
      "avi": 5990,
      "ĠJosh": 5991,
      "Ġcontest": 5992,
      "Ġmatched": 5993,
      "Ġentire": 5994,
      "ĠHop": 5995,
      "esome": 5996,
      "Ġsolution": 5997,
      "fit": 5998,
      "ĠOnce": 5999,
      "ĠRob": 6000,
      "Ġdusty": 6001,
      "Ġinclude": 6002,
      "Ġshivered": 6003,
      "Ġhugging": 6004,
      "Ġdolphins": 6005,
      "uzz": 6006,
      "Ġmarkers": 6007,
      "uly": 6008,
      "Ġflat": 6009,
      "Ġcurtains": 6010,
      "Ġdisagree": 6011,
      "ason": 6012,
      "Ġimportance": 6013,
      "Ġsituation": 6014,
      "ĠTilly": 6015,
      "Ġoutfit": 6016,
      "Ġpenguins": 6017,
      "Ġhomework": 6018,
      "Ġgrowl": 6019,
      "Ġblink": 6020,
      "Ġzookeeper": 6021,
      "expected": 6022,
      "Ġyouth": 6023,
      "ÅĵOh": 6024,
      "Ġuses": 6025,
      "Ġguest": 6026,
      "Ġflags": 6027,
      "bert": 6028,
      "Ġsafer": 6029,
      "Ġachieve": 6030,
      "Uh": 6031,
      "ivery": 6032,
      "Ġmarriage": 6033,
      "Ġrecorded": 6034,
      "Maggie": 6035,
      "Ġtheirs": 6036,
      "Ġsticking": 6037,
      "Ġroads": 6038,
      "Ġshined": 6039,
      "ĠAlways": 6040,
      "Ġagrees": 6041,
      "Ġfault": 6042,
      "Ġmatching": 6043,
      "Ġawesome": 6044,
      "ĠBetty": 6045,
      "Kitty": 6046,
      "zie": 6047,
      "Ġsnugg": 6048,
      "Ġrescued": 6049,
      "cuse": 6050,
      "jamas": 6051,
      "ĠWednesday": 6052,
      "Ġunexpected": 6053,
      "Ġwaiter": 6054,
      "Ġlibrarian": 6055,
      "Ġast": 6056,
      "Ġlearns": 6057,
      "Ġpassing": 6058,
      "Ġstaring": 6059,
      "eezing": 6060,
      "ĠSure": 6061,
      "usted": 6062,
      "ĠCar": 6063,
      "ĠLulu": 6064,
      "Ġfigured": 6065,
      "Leo": 6066,
      "Ġluxury": 6067,
      "njoy": 6068,
      "ĠJamie": 6069,
      "Ġrobb": 6070,
      "Ġbalancing": 6071,
      "bl": 6072,
      "you": 6073,
      "ora": 6074,
      "ĠHa": 6075,
      "Ġmotion": 6076,
      "Pete": 6077,
      "Ġwedding": 6078,
      "irts": 6079,
      "Ġspraying": 6080,
      "Yeah": 6081,
      "Ġintroduced": 6082,
      "vin": 6083,
      "Ġdentist": 6084,
      "ĠSusan": 6085,
      "Ġlap": 6086,
      "ÅĵWhy": 6087,
      "Ġplenty": 6088,
      "Ġworker": 6089,
      "Ġcheering": 6090,
      "Paul": 6091,
      "Excuse": 6092,
      "acob": 6093,
      "Ġreaching": 6094,
      "ĠTuesday": 6095,
      "Ġsnakes": 6096,
      "Ġtowels": 6097,
      "Ġdelivery": 6098,
      "Ġstare": 6099,
      "Ġexha": 6100,
      "ĠYes": 6101,
      "Ġwritten": 6102,
      "Ġarrive": 6103,
      "Ġsway": 6104,
      "Ġscra": 6105,
      "ĠGr": 6106,
      "Ġradishes": 6107,
      "ĠcanÃ¢": 6108,
      "Ġsuitc": 6109,
      "lowly": 6110,
      "Ġwink": 6111,
      "Ġheel": 6112,
      "Ġblooming": 6113,
      "Ġflavor": 6114,
      "Ġexpected": 6115,
      "izzie": 6116,
      "Ġdirection": 6117,
      "ena": 6118,
      "une": 6119,
      "ĠBye": 6120,
      "ĠZoom": 6121,
      "Ġtruly": 6122,
      "Ġslap": 6123,
      "Ġprincesses": 6124,
      "ids": 6125,
      "immer": 6126,
      "Ġbravery": 6127,
      "Ġtractor": 6128,
      "aa": 6129,
      "iar": 6130,
      "Ġsweets": 6131,
      "Mrs": 6132,
      "Ġbead": 6133,
      "Ġpatted": 6134,
      "Ġpajamas": 6135,
      "Ġcaused": 6136,
      "Ġthro": 6137,
      "Ġgreet": 6138,
      "Ġrolls": 6139,
      "Ġreplac": 6140,
      "Ġprayer": 6141,
      "...": 6142,
      "Ġkneeled": 6143,
      "Ġthroat": 6144,
      "itely": 6145,
      "Ġstorekeeper": 6146,
      "Ġgrowling": 6147,
      "Ġfart": 6148,
      "Ġrocking": 6149,
      "Ġowners": 6150,
      "Afterwards": 6151,
      "ilo": 6152,
      "Ġfoc": 6153,
      "oys": 6154,
      "Ġcompletely": 6155,
      "Ġtraveled": 6156,
      "Ġtrembling": 6157,
      "Ġusual": 6158,
      "ults": 6159,
      "Ġregretted": 6160,
      "Ġroots": 6161,
      "Ġpacking": 6162,
      "Fr": 6163,
      "Fred": 6164,
      "Ġlamb": 6165,
      "ĠLou": 6166,
      "Ġobserved": 6167,
      "Ġfir": 6168,
      "iding": 6169,
      "Ġvanish": 6170,
      "Ġexhausted": 6171,
      "Ġdared": 6172,
      "mas": 6173,
      "Ġbelly": 6174,
      "Ġremote": 6175,
      "Ġmane": 6176,
      "Ġworkers": 6177,
      "ĠChrist": 6178,
      "Ġheav": 6179,
      "Grace": 6180,
      "Ġseems": 6181,
      "Ġquacked": 6182,
      "ĠyouÃ¢": 6183,
      "Ġcrabs": 6184,
      "Ġincluded": 6185,
      "James": 6186,
      "Mittens": 6187,
      "ences": 6188,
      "Ġargu": 6189,
      "Ġscales": 6190,
      "Ġpaintings": 6191,
      "Ġstern": 6192,
      "Ġremoved": 6193,
      "Ġrockets": 6194,
      "ĠLeave": 6195,
      "Ġcrackers": 6196,
      "Ġwires": 6197,
      "ĠSadly": 6198,
      "hello": 6199,
      "Ġorganizing": 6200,
      "Ġbaker": 6201,
      "Ġfirm": 6202,
      "Ġarguing": 6203,
      "Sophie": 6204,
      "Ġranger": 6205,
      "Ġunited": 6206,
      "Ġcloses": 6207,
      "Ġcreating": 6208,
      "asm": 6209,
      "Ġcomm": 6210,
      "ĠPipp": 6211,
      "Ġresting": 6212,
      "ĠJohnson": 6213,
      "hell": 6214,
      "Ġboom": 6215,
      "Ġstartled": 6216,
      "Ġopening": 6217,
      "Ġmisses": 6218,
      "Ġleap": 6219,
      "Ġflames": 6220,
      "Ġsled": 6221,
      "Ġwandering": 6222,
      "However": 6223,
      "Ġchuck": 6224,
      "Ġpartic": 6225,
      "Ġhealed": 6226,
      "Ġknights": 6227,
      "Ġstruggle": 6228,
      "Ġreveal": 6229,
      "opes": 6230,
      "angled": 6231,
      "go": 6232,
      "ĠMart": 6233,
      "Ġrubs": 6234,
      "Ġtimer": 6235,
      "Ġventured": 6236,
      "iles": 6237,
      "vers": 6238,
      "Ġleader": 6239,
      "ĠChristmas": 6240,
      "lee": 6241,
      "Ġworries": 6242,
      "Ġpencils": 6243,
      "aze": 6244,
      "per": 6245,
      "Ġden": 6246,
      "Ġinviting": 6247,
      "Ġcrumbs": 6248,
      "Ġseesaw": 6249,
      "ĠJeff": 6250,
      "ĠFor": 6251,
      "ĠwasnÃ¢": 6252,
      "Charlie": 6253,
      "Ġboo": 6254,
      "Ġwasted": 6255,
      "Ġrisk": 6256,
      "Ġdesert": 6257,
      "Ġlollipops": 6258,
      "Ġitchy": 6259,
      "dies": 6260,
      "Fine": 6261,
      "Ġcent": 6262,
      "oline": 6263,
      "Ġrelief": 6264,
      "ctions": 6265,
      "Ġfairies": 6266,
      "Ġpastries": 6267,
      "Ġreply": 6268,
      "Ġmasks": 6269,
      "ĠJessie": 6270,
      "ĠBoth": 6271,
      "ĠFollow": 6272,
      "ĠMomo": 6273,
      "Ġbalanced": 6274,
      "Ġwinked": 6275,
      "Ġcountryside": 6276,
      "Ġcott": 6277,
      "Ġscru": 6278,
      "Ġtrips": 6279,
      "Ġfuzzy": 6280,
      "ĠY": 6281,
      "Ġdarkness": 6282,
      "aisies": 6283,
      "ĠThomas": 6284,
      "ĠBeing": 6285,
      "Ġmelting": 6286,
      "Ġwow": 6287,
      "Ġlogs": 6288,
      "Ġunf": 6289,
      "Ġpots": 6290,
      "Ġaccomplish": 6291,
      "Bad": 6292,
      "Ġusually": 6293,
      "Ġpolished": 6294,
      "Ġpolishing": 6295,
      "Ġhelmets": 6296,
      "Ġsneaky": 6297,
      "ĠJu": 6298,
      "Ġpeeking": 6299,
      "Ġactivities": 6300,
      "Ġdaisies": 6301,
      "Ġcans": 6302,
      "Ġvalued": 6303,
      "Annie": 6304,
      "Ġbeads": 6305,
      "Ġtwinkle": 6306,
      "ĠMatt": 6307,
      "Danny": 6308,
      "Ġgaze": 6309,
      "ĠPut": 6310,
      "Ġparticular": 6311,
      "Sp": 6312,
      "Ġhowever": 6313,
      "Ġcracked": 6314,
      "Ġsigned": 6315,
      "Ġpaddled": 6316,
      "Ellie": 6317,
      "Ġfara": 6318,
      "Ġsnat": 6319,
      "Ġinterested": 6320,
      "Ġfaraway": 6321,
      "ĠSorry": 6322,
      "Ġbecoming": 6323,
      "Ġnaps": 6324,
      "Ġbumpy": 6325,
      "Ġrings": 6326,
      "Ġstem": 6327,
      "ĠClaire": 6328,
      "Ġeverybody": 6329,
      "boat": 6330,
      "Ġsilent": 6331,
      "Ġsnowballs": 6332,
      "Ġcause": 6333,
      "Ġcough": 6334,
      "Ġslam": 6335,
      "Ġsingle": 6336,
      "Ġcoloured": 6337,
      "Alex": 6338,
      "ĠBy": 6339,
      "ĠLinda": 6340,
      "Ġwrist": 6341,
      "Ġsandcastles": 6342,
      "Ġyounger": 6343,
      "Ġhissed": 6344,
      "Ġspike": 6345,
      "ĠEnjoy": 6346,
      "Ġconn": 6347,
      "ĠMad": 6348,
      "Ġdipped": 6349,
      "Ġseven": 6350,
      "Ġfreed": 6351,
      "Ġswirl": 6352,
      "ĠPinky": 6353,
      "ĠDoggy": 6354,
      "Ġphotos": 6355,
      "Ġrestored": 6356,
      "Ġteaches": 6357,
      "Ġpastels": 6358,
      "Ġlined": 6359,
      "Ġcopy": 6360,
      "Ġwiggled": 6361,
      "Ġreplaced": 6362,
      "igi": 6363,
      "Ġforehead": 6364,
      "Ġopinion": 6365,
      "ĠWatch": 6366,
      "Ġswooped": 6367,
      "ĠOw": 6368,
      "Ġblows": 6369,
      "ĠUnfortunately": 6370,
      "pite": 6371,
      "Ġhi": 6372,
      "Ġsobbed": 6373,
      "ĠAunt": 6374,
      "Ġstaying": 6375,
      "Ġsuitcase": 6376,
      "Ġbakery": 6377,
      "Ġfirefighters": 6378,
      "iki": 6379,
      "Ġcautiously": 6380,
      "ĠJenna": 6381,
      "Ġtipt": 6382,
      "Rose": 6383,
      "Ġcous": 6384,
      "ĠDolly": 6385,
      "Ġsplashes": 6386,
      "Ġdirections": 6387,
      "ÅĵMommy": 6388,
      "ĠĊĠ": 6389,
      "Bl": 6390,
      "Some": 6391,
      "Ġprovided": 6392,
      "Ġcash": 6393,
      "Ġlung": 6394,
      "Ġwears": 6395,
      "Ġfilling": 6396,
      "ĠOut": 6397,
      "Ġsweat": 6398,
      "ĠQuack": 6399,
      "Ġchuckled": 6400,
      "rance": 6401,
      "Ġfaced": 6402,
      "Ġtallest": 6403,
      "Ġawake": 6404,
      "Ëľ": 6405,
      "âĤ¬Ëľ": 6406,
      "Ġbowls": 6407,
      "Ġtickled": 6408,
      "Ġcovers": 6409,
      "Ġexplorers": 6410,
      "Ġyesterday": 6411,
      "Toby": 6412,
      "Unfortunately": 6413,
      "Ab": 6414,
      "Ġyourselves": 6415,
      "brush": 6416,
      "Ġaff": 6417,
      "Ġsense": 6418,
      "Ġpiggy": 6419,
      "ĠAbby": 6420,
      "itches": 6421,
      "ĠKeep": 6422,
      "Ġtricked": 6423,
      "cited": 6424,
      "arter": 6425,
      "Ġnect": 6426,
      "Ġscarves": 6427,
      "Ġnectar": 6428,
      "ĠMany": 6429,
      "Ġmarked": 6430,
      "Ġglasses": 6431,
      "Ġstays": 6432,
      "Ġtwin": 6433,
      "Ġpleasure": 6434,
      "Ġseashell": 6435,
      "Run": 6436,
      "Ġcolored": 6437,
      "Ġdetermination": 6438,
      "bbly": 6439,
      "Ġattack": 6440,
      "Ġknocks": 6441,
      "Ġpoems": 6442,
      "Ġcalmed": 6443,
      "Ġdeal": 6444,
      "Ġlighter": 6445,
      "Ġhider": 6446,
      "Ġactions": 6447,
      "Ġkicks": 6448,
      "Ġseeker": 6449,
      "Ġadding": 6450,
      "Ġrefle": 6451,
      "Ġmagnets": 6452,
      "Ġsquealed": 6453,
      "Sandy": 6454,
      "ords": 6455,
      "Ġripe": 6456,
      "Ġjoking": 6457,
      "Ġrecording": 6458,
      "Sad": 6459,
      "Ġroses": 6460,
      "Ġcandies": 6461,
      "mies": 6462,
      "hee": 6463,
      "Ġstroll": 6464,
      "Ġfluttered": 6465,
      "Ġbadge": 6466,
      "Ġbumps": 6467,
      "boo": 6468,
      "Ġty": 6469,
      "Ġsmarter": 6470,
      "Ġbacked": 6471,
      "ÅĵWhatÃ¢": 6472,
      "Millie": 6473,
      "Ġlistens": 6474,
      "Ġbuying": 6475,
      "Ġmarker": 6476,
      "Ġpedals": 6477,
      "Ġprotecting": 6478,
      "ĠBuzzy": 6479,
      "Ġgroceries": 6480,
      "Harry": 6481,
      "Ġbars": 6482,
      "Ġhealth": 6483,
      "affes": 6484,
      "ĠHappy": 6485,
      "Ġknees": 6486,
      "Ġstolen": 6487,
      "Ġsomebody": 6488,
      "ĠLuke": 6489,
      "Ġreads": 6490,
      "ĠNothing": 6491,
      "Ġsecure": 6492,
      "Ġgiraffes": 6493,
      "ĠFox": 6494,
      "Ġfarther": 6495,
      "Ġdarker": 6496,
      "Ġcelebration": 6497,
      "ĠBird": 6498,
      "Kate": 6499,
      "ĠTess": 6500,
      "Those": 6501,
      "ĠPandy": 6502,
      "ners": 6503,
      "Ġdots": 6504,
      "Ġinsects": 6505,
      "urry": 6506,
      "ĠEarth": 6507,
      "Ġpause": 6508,
      "ĠSlowly": 6509,
      "ppers": 6510,
      "Ġliqu": 6511,
      "ĠGet": 6512,
      "Ġfroze": 6513,
      "Ġentrance": 6514,
      "Ġtricky": 6515,
      "Ġcomplaining": 6516,
      "Ġpouted": 6517,
      "ĠJon": 6518,
      "aura": 6519,
      "Ġclowns": 6520,
      "Days": 6521,
      "ophia": 6522,
      "Ġvideos": 6523,
      "ĠJessica": 6524,
      "Ġthorn": 6525,
      "ĠJazz": 6526,
      "Ġparties": 6527,
      "Ġwipes": 6528,
      "Ġmi": 6529,
      "Ġrule": 6530,
      "Ġtalented": 6531,
      "Ġbeginning": 6532,
      "Ġglee": 6533,
      "Ġchoo": 6534,
      "ĠFriend": 6535,
      "coat": 6536,
      "ĠKayla": 6537,
      "ĠAdam": 6538,
      "Ġsmiley": 6539,
      "Ġsnatched": 6540,
      "Ġmixture": 6541,
      "May": 6542,
      "Ġopp": 6543,
      "ĠMo": 6544,
      "Ġmiles": 6545,
      "ility": 6546,
      "ana": 6547,
      "ĠLuckily": 6548,
      "Ġbehavi": 6549,
      "Ġcowb": 6550,
      "Ġcubes": 6551,
      "rig": 6552,
      "llen": 6553,
      "ĠBo": 6554,
      "Ġkites": 6555,
      "Ġhandful": 6556,
      "Ġpaying": 6557,
      "abel": 6558,
      "Ġinstrum": 6559,
      "yond": 6560,
      "Ġbeyond": 6561,
      "Ġnoon": 6562,
      "Ġsalty": 6563,
      "Ġcashier": 6564,
      "Ġmes": 6565,
      "arling": 6566,
      "Ġinsp": 6567,
      "ĠLizzy": 6568,
      "ĠChe": 6569,
      "Ġsteer": 6570,
      "Ġmesmer": 6571,
      "tle": 6572,
      "rious": 6573,
      "Ġclick": 6574,
      "band": 6575,
      "Ġraincoat": 6576,
      "Ġspeaking": 6577,
      "Ġtasks": 6578,
      "Ġweeping": 6579,
      "rincess": 6580,
      "Ġtangled": 6581,
      "Ġdelivered": 6582,
      "Ġrusty": 6583,
      "bell": 6584,
      "iled": 6585,
      "ĠMel": 6586,
      "aren": 6587,
      "igers": 6588,
      "indr": 6589,
      "ĠRobby": 6590,
      "Ġfamilies": 6591,
      "cope": 6592,
      "ossible": 6593,
      "Ġwins": 6594,
      "ĠWater": 6595,
      "Ġimpossible": 6596,
      "ths": 6597,
      "Ġafterwards": 6598,
      "Ġsnowmen": 6599,
      "Ġarrows": 6600,
      "Ġwidened": 6601,
      "Nina": 6602,
      "Ġlower": 6603,
      "ĠTwo": 6604,
      "choo": 6605,
      "Ġraindr": 6606,
      "tuce": 6607,
      "ĠHannah": 6608,
      "Ġlettuce": 6609,
      "ĠPl": 6610,
      "Ġgems": 6611,
      "Ġimproved": 6612,
      "ormed": 6613,
      "Ġacting": 6614,
      "Ġfolding": 6615,
      "Ġdrums": 6616,
      "Ġstroked": 6617,
      "Ġliquid": 6618,
      "ouch": 6619,
      "Ġbatteries": 6620,
      "Ġrecommended": 6621,
      "alph": 6622,
      "?\",": 6623,
      "Ġteased": 6624,
      "Ġcheeks": 6625,
      "Ġchefs": 6626,
      "ĠOlive": 6627,
      "?'": 6628,
      "ĠMon": 6629,
      "Ġyells": 6630,
      "Ġcupcakes": 6631,
      "Ġneedles": 6632,
      "Ġsailboat": 6633,
      "Ġshirts": 6634,
      "sequ": 6635,
      "Ġchoices": 6636,
      "Ġobjects": 6637,
      "anes": 6638,
      "ĠNina": 6639,
      "Ġruining": 6640,
      "Ġmushrooms": 6641,
      "Ġhesitated": 6642,
      "Ġpassen": 6643,
      "Ġdiving": 6644,
      "Ġscaring": 6645,
      "ivity": 6646,
      "Ġjackets": 6647,
      "ĠLizzie": 6648,
      "Ġconsequ": 6649,
      "Ġornaments": 6650,
      "itched": 6651,
      "Ġcust": 6652,
      "Ġwee": 6653,
      "ĠJacob": 6654,
      "ĠSuzie": 6655,
      "Ġsnuck": 6656,
      "Ġbedtime": 6657,
      "Ġsquares": 6658,
      "Ġcomplained": 6659,
      "Time": 6660,
      "no": 6661,
      "Ġcreamy": 6662,
      "Ġastron": 6663,
      "Ġrumble": 6664,
      "Ġfever": 6665,
      "Ġscrews": 6666,
      "Ġminerals": 6667,
      "Ġscrubbed": 6668,
      "cers": 6669,
      "Ġrip": 6670,
      "ĠEl": 6671,
      "Ġgrabbing": 6672,
      "Ġleading": 6673,
      "Ġcreativity": 6674,
      "Ġwrapping": 6675,
      "Ġtigers": 6676,
      "atul": 6677,
      "ĠSque": 6678,
      "sty": 6679,
      "umbling": 6680,
      "Ġcelebrating": 6681,
      "Ġbehaved": 6682,
      "rigued": 6683,
      "ĠwouldnÃ¢": 6684,
      "Ġindeed": 6685,
      "Ġpaddle": 6686,
      "Ġachieved": 6687,
      "ĠGoodbye": 6688,
      "Shh": 6689,
      "Ġswimsuit": 6690,
      "Ġraindrops": 6691,
      "Ġcustom": 6692,
      "endy": 6693,
      "Ġfears": 6694,
      "step": 6695,
      "ĠLarry": 6696,
      "Ġbasement": 6697,
      "Ġsibl": 6698,
      "Ġastronaut": 6699,
      "Ġsiblings": 6700,
      "Great": 6701,
      "mallow": 6702,
      "Ġscratches": 6703,
      "arshmallow": 6704,
      "Ġstomped": 6705,
      "Ġaccomplishment": 6706,
      "Ġnoses": 6707,
      "Bun": 6708,
      "Ġlosing": 6709,
      "ept": 6710,
      "ĠEverybody": 6711,
      "Ġpointy": 6712,
      "Ġdeserve": 6713,
      "Ġconsequences": 6714,
      "Polly": 6715,
      "ky": 6716,
      "ĠSqu": 6717,
      "ĠGigi": 6718,
      "ĠJulia": 6719,
      "Ġpuppies": 6720,
      "Ġannoy": 6721,
      "ĠTara": 6722,
      "Ġthird": 6723,
      "Ġneither": 6724,
      "ÅĵDo": 6725,
      "Bobo": 6726,
      "ans": 6727,
      "Ġbeam": 6728,
      "Ġstung": 6729,
      "Ġchop": 6730,
      "Ġdollhouse": 6731,
      "ĠPrincess": 6732,
      "Ġexperien": 6733,
      "Ġburst": 6734,
      "Ġfluttering": 6735,
      "Ġcor": 6736,
      "Ġbackwards": 6737,
      "Ġflapping": 6738,
      "Ġtempt": 6739,
      "Ġdrifted": 6740,
      "Ġtiptoed": 6741,
      "cl": 6742,
      "vest": 6743,
      "Ġlun": 6744,
      "ĠBinky": 6745,
      "Ġswept": 6746,
      "Ġdef": 6747,
      "Ġwraps": 6748,
      "Ġhallway": 6749,
      "Ġtravelled": 6750,
      "Ġyum": 6751,
      "Ġhides": 6752,
      "Ġsource": 6753,
      "Ġavoid": 6754,
      "Ġtemper": 6755,
      "ĠMick": 6756,
      "Ġdads": 6757,
      "Ġpans": 6758,
      "ded": 6759,
      "ne": 6760,
      "Ġhus": 6761,
      "igning": 6762,
      "ĠwonÃ¢": 6763,
      "ndpare": 6764,
      "ĠBluey": 6765,
      "ĠMira": 6766,
      "Ġhearing": 6767,
      "Tina": 6768,
      "ĠCindy": 6769,
      "anging": 6770,
      "Ġpeacefully": 6771,
      "Ġsunflowers": 6772,
      "Ġartist": 6773,
      "ĠĠĊ": 6774,
      "Ġlimes": 6775,
      "Ġaren": 6776,
      "ĠFinn": 6777,
      "Ġsale": 6778,
      "Ġplayers": 6779,
      "Ġmaterials": 6780,
      "oor": 6781,
      "oey": 6782,
      "Ġwadd": 6783,
      "ĠMilo": 6784,
      "Ġgrandpare": 6785,
      "Ġtramp": 6786,
      "Ġsquish": 6787,
      "Ġpromises": 6788,
      "Ġforgets": 6789,
      "Meow": 6790,
      "Ġgracefully": 6791,
      "Ġech": 6792,
      "Ġache": 6793,
      "Roar": 6794,
      "Ġmarshmallow": 6795,
      "itted": 6796,
      "ĠEls": 6797,
      "ĠDr": 6798,
      "Ġdances": 6799,
      "eal": 6800,
      "Ġgross": 6801,
      "atur": 6802,
      "ÅĵWow": 6803,
      "Ġbeloved": 6804,
      "Ġrivers": 6805,
      "Lilly": 6806,
      "oni": 6807,
      "aker": 6808,
      "Ġperformance": 6809,
      "Ġunpacked": 6810,
      "Ru": 6811,
      "Ġcuddly": 6812,
      "Ġsprinkled": 6813,
      "ĠSparky": 6814,
      "Ġdamage": 6815,
      "uing": 6816,
      "kend": 6817,
      "ÅĵCome": 6818,
      "Ġgrowls": 6819,
      "ĠRover": 6820,
      "immering": 6821,
      "Ġtrampoline": 6822,
      "Have": 6823,
      "Woof": 6824,
      "ĠQ": 6825,
      "ÅĵHi": 6826,
      "Ġpresses": 6827,
      "ĠSnugg": 6828,
      "Ġhusband": 6829,
      "Wh": 6830,
      "ÅĵYouÃ¢": 6831,
      "Ġweekend": 6832,
      "Ġwilling": 6833,
      "Ġhandsome": 6834,
      "ĠAsh": 6835,
      "Ġsnowfl": 6836,
      "Ġslammed": 6837,
      "Dan": 6838,
      "Ew": 6839,
      "Ġdarling": 6840,
      "Ġrefu": 6841,
      "ueen": 6842,
      "Ġrising": 6843,
      "ades": 6844,
      "Ġneighbours": 6845,
      "Ġseconds": 6846,
      "Ġafford": 6847,
      "Ġconcer": 6848,
      "Ġmagician": 6849,
      "ĠEmmy": 6850,
      "Ġhitting": 6851,
      "Ġonions": 6852,
      "Ġfact": 6853,
      "Ġzebras": 6854,
      "ĠWithout": 6855,
      "Ġchip": 6856,
      "Ġheading": 6857,
      "ĠMikey": 6858,
      "Maria": 6859,
      "Ġtemperature": 6860,
      "For": 6861,
      "dri": 6862,
      "Ġbodies": 6863,
      "ongr": 6864,
      "Ġgrassy": 6865,
      "Ġtails": 6866,
      "Ġincluding": 6867,
      "elia": 6868,
      "Ġwindy": 6869,
      "Ġamong": 6870,
      "ĠSnuggles": 6871,
      "Fin": 6872,
      "Ġdiscussed": 6873,
      "ongratul": 6874,
      "Ducky": 6875,
      "Ġstain": 6876,
      "ĠFar": 6877,
      "Pat": 6878,
      "Ġdollars": 6879,
      "Ġleaning": 6880,
      "Ġcenter": 6881,
      "Ġaud": 6882,
      "Ġcoup": 6883,
      "ushing": 6884,
      "Ġprett": 6885,
      "Ġgasp": 6886,
      "Ġmuscle": 6887,
      "Ġneatly": 6888,
      "Ġheavier": 6889,
      "An": 6890,
      "Ġwoof": 6891,
      "ntil": 6892,
      "Ġhelpers": 6893,
      "using": 6894,
      "Ġpecked": 6895,
      "Ġcoloring": 6896,
      "Ġcounts": 6897,
      "Ġseaw": 6898,
      "Ġrepa": 6899,
      "ĠZip": 6900,
      "Ġseparated": 6901,
      "Ġslices": 6902,
      "Ġblocking": 6903,
      "Ġdecorating": 6904,
      "Ġrewarded": 6905,
      "ĠMartha": 6906,
      "Miss": 6907,
      "Ġprinting": 6908,
      "Ġenthusi": 6909,
      "Ġwarnings": 6910,
      "Whee": 6911,
      "Ġgri": 6912,
      "ados": 6913,
      "ĠBee": 6914,
      "Ġtreehouse": 6915,
      "Ġcreations": 6916,
      "Ġdreamt": 6917,
      "Ġhoriz": 6918,
      "Ġtunnels": 6919,
      "Ġhesitant": 6920,
      "Ġprettier": 6921,
      "Ġrepaired": 6922,
      "Ġenthusiasm": 6923,
      "Ġwag": 6924,
      "Ġmer": 6925,
      "Ġmerry": 6926,
      "Ġmeals": 6927,
      "Ġadult": 6928,
      "Ġshrinking": 6929,
      "Ġembarrass": 6930,
      "Ġborrowed": 6931,
      "Ġdesigned": 6932,
      "Ġrequested": 6933,
      "Ġtouc": 6934,
      "Ġstudents": 6935,
      "Ġsurroundings": 6936,
      "Ġrobber": 6937,
      "Ġseaweed": 6938,
      "Ġhorizon": 6939,
      "Pe": 6940,
      "urious": 6941,
      "Ġtodd": 6942,
      "Ġnine": 6943,
      "ĠRemember": 6944,
      "Ġpraying": 6945,
      "Ġswans": 6946,
      "Ġsnuggle": 6947,
      "Milly": 6948,
      "Oops": 6949,
      "ĠAbbie": 6950,
      "fus": 6951,
      "Ġbows": 6952,
      "Ġplans": 6953,
      "Ġplanning": 6954,
      "Ġfeeding": 6955,
      "ĠSophia": 6956,
      "ĠHoot": 6957,
      "Ġdod": 6958,
      "Ġreass": 6959,
      "Ġintrigued": 6960,
      "Ġsuperheroes": 6961,
      "ĠBirthday": 6962,
      "Blue": 6963,
      "Baby": 6964,
      "Ġzipping": 6965,
      "Ġcousin": 6966,
      "Ġcouple": 6967,
      "ĠBessie": 6968,
      "Ġuns": 6969,
      "Ġthrown": 6970,
      "yes": 6971,
      "Ġgobbled": 6972,
      "Ġpotion": 6973,
      "Ġstarfish": 6974,
      "Ġbreathed": 6975,
      "Ġ10": 6976,
      "Boo": 6977,
      "Ġdet": 6978,
      "Ġstool": 6979,
      "Ġalien": 6980,
      "ĠQueen": 6981,
      "iece": 6982,
      "otten": 6983,
      "Ġimagining": 6984,
      "Ġforgiven": 6985,
      "Ġaudience": 6986,
      "ounce": 6987,
      "Ġrecipe": 6988,
      "ccoon": 6989,
      "ition": 6990,
      "ĠSun": 6991,
      "Ġraccoon": 6992,
      "ĠPr": 6993,
      "Ġpops": 6994,
      "Ġmatters": 6995,
      "Ġspreading": 6996,
      "Ġforks": 6997,
      "Ġtriangles": 6998,
      "Ġbuzzed": 6999,
      "Tr": 7000,
      "ĠLaura": 7001,
      "Ġblast": 7002,
      "Ġslower": 7003,
      "Ġvanilla": 7004,
      "Ġavocados": 7005,
      "ĠRobert": 7006,
      "Ġtouches": 7007,
      "the": 7008,
      "Ġnibb": 7009,
      "imon": 7010,
      "Ġwobbled": 7011,
      "ĠPam": 7012,
      "Surpr": 7013,
      "Ġdie": 7014,
      "Ġtapped": 7015,
      "ĠCra": 7016,
      "Ġsailors": 7017,
      "Ġrustling": 7018,
      "Katie": 7019,
      "Yummy": 7020,
      "Ġtwice": 7021,
      "ĠOwl": 7022,
      "Ġhonked": 7023,
      "Ġheroes": 7024,
      "ael": 7025,
      "Ġhour": 7026,
      "Ġaside": 7027,
      "ments": 7028,
      "ably": 7029,
      "ĠFrosty": 7030,
      "vil": 7031,
      "Ġropes": 7032,
      "Ġrotten": 7033,
      "Ġflas": 7034,
      "Ġwiping": 7035,
      "Ġreflection": 7036,
      "Ġcond": 7037,
      "Ġgardener": 7038,
      "--": 7039,
      "wk": 7040,
      "eds": 7041,
      "itude": 7042,
      "ĠJay": 7043,
      "Ġscamp": 7044,
      "ĠListen": 7045,
      "Ġcuriously": 7046,
      "Ġwishing": 7047,
      "Ġthud": 7048,
      "Ġgranted": 7049,
      "By": 7050,
      "ĠKiki": 7051,
      "Ġgeese": 7052,
      "stick": 7053,
      "Ġleast": 7054,
      "Ġage": 7055,
      "Ġbully": 7056,
      "Ġwrink": 7057,
      "ichael": 7058,
      "Ġdelivering": 7059,
      "Ġmarshmallows": 7060,
      "yan": 7061,
      "ido": 7062,
      "Ġstreets": 7063,
      "Ġgrandparents": 7064,
      "Fo": 7065,
      "Ġspikes": 7066,
      "Ġarr": 7067,
      "Ġbaths": 7068,
      "Ġspong": 7069,
      "Ġposter": 7070,
      "Ġnapkins": 7071,
      "Ġnecklaces": 7072,
      "Ġsqueak": 7073,
      "Ġfamiliar": 7074,
      "Ġscraped": 7075,
      "ĠFire": 7076,
      "Ġglued": 7077,
      "ĠThanks": 7078,
      "Clara": 7079,
      "arrow": 7080,
      "Ġposs": 7081,
      "Ġshaped": 7082,
      "Our": 7083,
      "Ġtiss": 7084,
      "Ġpins": 7085,
      "ĠJune": 7086,
      "Ġchos": 7087,
      "Ġchanging": 7088,
      "Ġdrawn": 7089,
      "ĠThose": 7090,
      "ĠFrog": 7091,
      "Ġchosen": 7092,
      "Nemo": 7093,
      "Ġnood": 7094,
      "Ġplain": 7095,
      "Ġwept": 7096,
      "unched": 7097,
      "ently": 7098,
      "Ġsparks": 7099,
      "Ġshops": 7100,
      "ertain": 7101,
      "Ġsports": 7102,
      "ĠSc": 7103,
      "Ġskunk": 7104,
      "ÅĵMy": 7105,
      "Ġhedgeho": 7106,
      "Ġlungs": 7107,
      "Ġpeppers": 7108,
      "Ġhopeful": 7109,
      "Ġbells": 7110,
      "ĠStar": 7111,
      "Ġtested": 7112,
      "Ġfirefighter": 7113,
      "Ġguests": 7114,
      "ae": 7115,
      "Ġsofter": 7116,
      "Ġreason": 7117,
      "Ġfeast": 7118,
      "Ġwarmer": 7119,
      "ĠTodd": 7120,
      "Ġexpress": 7121,
      "ĠZoey": 7122,
      "ĠAbi": 7123,
      "Ġgreeted": 7124,
      "Ġcorre": 7125,
      "uzzy": 7126,
      "Ġnur": 7127,
      "Ġtalks": 7128,
      "Ġscrewdri": 7129,
      "Br": 7130,
      "Like": 7131,
      "ears": 7132,
      "fall": 7133,
      "Ġmoo": 7134,
      "ĠTake": 7135,
      "Ġhawk": 7136,
      "Ġplucked": 7137,
      "ugs": 7138,
      "Ġdancers": 7139,
      "ĠNick": 7140,
      "ounced": 7141,
      "Ġwhispers": 7142,
      "Quick": 7143,
      "Ġflavors": 7144,
      "ĠFriends": 7145,
      "ĠRock": 7146,
      "Ġjoyful": 7147,
      "Ġstands": 7148,
      "Ġlifts": 7149,
      "Ġdived": 7150,
      "Jul": 7151,
      "Ġpuff": 7152,
      "Ġforgetting": 7153,
      "Ġrespected": 7154,
      "ĠSadie": 7155,
      "Ġfocused": 7156,
      "ĠLena": 7157,
      "ĠEx": 7158,
      "Ġcorners": 7159,
      "Ġspoonful": 7160,
      "ĠNobody": 7161,
      "Ġscrewdriver": 7162,
      "Ġmunch": 7163,
      "Ġpens": 7164,
      "irrel": 7165,
      "allowed": 7166,
      "Ġcoc": 7167,
      "Ġswallowed": 7168,
      "Ġremembering": 7169,
      "Ġthroughout": 7170,
      "ĠOnly": 7171,
      "Ġmesmerized": 7172,
      "ĠMickey": 7173,
      "Ġsponge": 7174,
      "arac": 7175,
      "Ġexplo": 7176,
      "Ġcrew": 7177,
      "Ġsniffs": 7178,
      "Ġresisted": 7179,
      "Sadly": 7180,
      "ĠFarmer": 7181,
      "Ġearn": 7182,
      "ters": 7183,
      "ĠWally": 7184,
      "Ġpeck": 7185,
      "Ġwatering": 7186,
      "Ġpours": 7187,
      "Ġflight": 7188,
      "Ġdropping": 7189,
      "ĠOur": 7190,
      "Ġwiggle": 7191,
      "Tweety": 7192,
      "ĠTuna": 7193,
      "Ġsan": 7194,
      "Ġneare": 7195,
      "aster": 7196,
      "ĠStay": 7197,
      "ĠStella": 7198,
      "Ġsending": 7199,
      "Bill": 7200,
      "cky": 7201,
      "ĠWendy": 7202,
      "Ġcraft": 7203,
      "Ġslips": 7204,
      "Ġleads": 7205,
      "Ġsewing": 7206,
      "Ġbiting": 7207,
      "...\"": 7208,
      "fly": 7209,
      "Ġoh": 7210,
      "Ġwarri": 7211,
      "Ġdefe": 7212,
      "Ġpolar": 7213,
      "ĠUntil": 7214,
      "ĠMaya": 7215,
      "Ġhedgehog": 7216,
      "Ġpanicked": 7217,
      "Ġsank": 7218,
      "Very": 7219,
      "Ġwakes": 7220,
      "Ġrushing": 7221,
      "Ġspins": 7222,
      "Ġsneezing": 7223,
      "Ġwobbly": 7224,
      "Ġdresser": 7225,
      "Ġdrawers": 7226,
      "Ġpostman": 7227,
      "Ġoysters": 7228,
      "Ġpuppet": 7229,
      "Ġmate": 7230,
      "Ġrout": 7231,
      "Ġblinking": 7232,
      "years": 7233,
      "Ġsharks": 7234,
      "Ġhumans": 7235,
      "Ġfreedom": 7236,
      "Ġtissue": 7237,
      "vant": 7238,
      "ppies": 7239,
      "Ġroars": 7240,
      "Ġstrongest": 7241,
      "Ġproper": 7242,
      "int": 7243,
      "Ġevil": 7244,
      "Ġspices": 7245,
      "Ġgrows": 7246,
      "Ġdrivers": 7247,
      "Ġlifting": 7248,
      "ĠSqueaky": 7249,
      "ippy": 7250,
      "mates": 7251,
      "Ġtossed": 7252,
      "aying": 7253,
      "Ġgest": 7254,
      "Ġsadd": 7255,
      "iment": 7256,
      "Ġcharac": 7257,
      "Ġconfl": 7258,
      "Ġcrashing": 7259,
      "Ġjoining": 7260,
      "Ġtoaster": 7261,
      "Ġstacked": 7262,
      "Ġincreased": 7263,
      "while": 7264,
      "ĊĊ": 7265,
      "Ġfaded": 7266,
      "ĠJacky": 7267,
      "Ġwrigg": 7268,
      "Ġrespond": 7269,
      "Ġquarreling": 7270,
      "ĠMeg": 7271,
      "Ġpassengers": 7272,
      "Ġaimed": 7273,
      "Ġonward": 7274,
      "ĠLove": 7275,
      "Ġswords": 7276,
      "Ġoffic": 7277,
      "eezes": 7278,
      "Ġsquishy": 7279,
      "Mine": 7280,
      "cake": 7281,
      "Ġnapping": 7282,
      "Ġspat": 7283,
      "lets": 7284,
      "child": 7285,
      "Ġamount": 7286,
      "Ġscampered": 7287,
      "Ġdip": 7288,
      "Ġtables": 7289,
      "Ġpigeons": 7290,
      "Ġtrembled": 7291,
      "Jerry": 7292,
      "ĠthatÃ¢": 7293,
      "Ġscen": 7294,
      "bba": 7295,
      "ÅĵNow": 7296,
      "Ġsteady": 7297,
      "Ġpennies": 7298,
      "Ġprove": 7299,
      "Ġmaster": 7300,
      "eel": 7301,
      "roken": 7302,
      "ÅĵMom": 7303,
      "Ġyielded": 7304,
      "ĠGranny": 7305,
      "fire": 7306,
      "Ġsy": 7307,
      "ĠBaa": 7308,
      "plash": 7309,
      "Ġdoorway": 7310,
      "Ġgrandchild": 7311,
      "Ġloading": 7312,
      "Ġtoddler": 7313,
      "upt": 7314,
      "Ġtrot": 7315,
      "Ġrefreshing": 7316,
      "Ġleapt": 7317,
      "Ruby": 7318,
      "ino": 7319,
      "Ġdaring": 7320,
      "Ġscored": 7321,
      "meal": 7322,
      "Ġfits": 7323,
      "Ġencourag": 7324,
      "Ġappreciation": 7325,
      "Ġwaddled": 7326,
      "Back": 7327,
      "ody": 7328,
      "please": 7329,
      "Ġcoral": 7330,
      "Ġocc": 7331,
      "Ġplayroom": 7332,
      "Ġrainy": 7333,
      "Ġlessons": 7334,
      "rrrrrrrr": 7335,
      "jo": 7336,
      "Ġ2": 7337,
      "Ġties": 7338,
      "onna": 7339,
      "Ġworn": 7340,
      "Ġcosy": 7341,
      "ÅĵWell": 7342,
      "Ġhops": 7343,
      "Ġnervously": 7344,
      "Ġgrandd": 7345,
      "Ġnoodles": 7346,
      "lves": 7347,
      "ĠWell": 7348,
      "Ġpoppies": 7349,
      "Ġangels": 7350,
      "rrr": 7351,
      "Ġoatmeal": 7352,
      "Ġunsure": 7353,
      "rey": 7354,
      "ĠLi": 7355,
      "Ġthoughts": 7356,
      "retty": 7357,
      "Ġpreparing": 7358,
      "Ġbehaving": 7359,
      "Su": 7360,
      "onies": 7361,
      "Ġreun": 7362,
      "ĠEva": 7363,
      "iley": 7364,
      "Ġmonths": 7365,
      "Ġfirmly": 7366,
      "ĠJudy": 7367,
      "Ġpound": 7368,
      "Ġslither": 7369,
      "Ġtwisty": 7370,
      "Kim": 7371,
      "Ġtablet": 7372,
      "Ġcloudy": 7373,
      "Ġmints": 7374,
      "Ġpumpkins": 7375,
      "Ġfirefly": 7376,
      "opsy": 7377,
      "ĠFido": 7378,
      "Ġcausing": 7379,
      "Ġcushions": 7380,
      "ĠRobbie": 7381,
      "Bet": 7382,
      "bird": 7383,
      "hew": 7384,
      "Ġnuzz": 7385,
      "Ġplaytime": 7386,
      "Ġmanag": 7387,
      "bbling": 7388,
      "iona": 7389,
      "Ġgiggles": 7390,
      "Ġdesigns": 7391,
      "During": 7392,
      "Ġtuck": 7393,
      "Ġclues": 7394,
      "Ġpolitely": 7395,
      "Ġlaying": 7396,
      "Ġfleas": 7397,
      "Ġshovels": 7398,
      "Ġpassports": 7399,
      "ĠSquirrel": 7400,
      "anwhile": 7401,
      "Ġnotes": 7402,
      "Ġconvers": 7403,
      "Ġworrying": 7404,
      "Ġsails": 7405,
      "bage": 7406,
      "Ġgonna": 7407,
      "ening": 7408,
      "anie": 7409,
      "Ġstitches": 7410,
      "ĠThatÃ¢": 7411,
      "Ġcolder": 7412,
      "Ġelf": 7413,
      "Ġgarbage": 7414,
      "Ġstreamers": 7415,
      "Ġsurrendered": 7416,
      "dress": 7417,
      "ÅĵBut": 7418,
      "Ġrains": 7419,
      "Beep": 7420,
      "Even": 7421,
      "Ġinj": 7422,
      "antha": 7423,
      "Ġovercome": 7424,
      "Ġaction": 7425,
      "Ġreversed": 7426,
      "Ġresults": 7427,
      "Ġsuffering": 7428,
      "Ġtipped": 7429,
      "Ġponies": 7430,
      "ĠTw": 7431,
      "Ġshown": 7432,
      "Ġbru": 7433,
      "ĠAlong": 7434,
      "Ġbehavior": 7435,
      "broken": 7436,
      "Ġnearly": 7437,
      "Ġchopped": 7438,
      "Ġbattle": 7439,
      "ÅĵIf": 7440,
      "Ġfrowning": 7441,
      "Ġconnected": 7442,
      "Mad": 7443,
      "Watch": 7444,
      "but": 7445,
      "vroom": 7446,
      "Ġblocked": 7447,
      "Ġperforming": 7448,
      "Ġbreathing": 7449,
      "Ġdefin": 7450,
      "isc": 7451,
      "alloween": 7452,
      "Ġais": 7453,
      "Ġcoug": 7454,
      "Ġbravest": 7455,
      "Ġbelts": 7456,
      "Ġduckling": 7457,
      "Ġdistract": 7458,
      "Ġignoring": 7459,
      "Ġseller": 7460,
      "Ġsuits": 7461,
      "Ġloops": 7462,
      "Frank": 7463,
      "Ġechoed": 7464,
      "ĠTry": 7465,
      "ĠHalloween": 7466,
      "Ġscient": 7467,
      "Ġpaintbrush": 7468,
      "Ġbandages": 7469,
      "Ġencouraging": 7470,
      "Ġscientist": 7471,
      "Sn": 7472,
      "Ġtil": 7473,
      "Ġkittens": 7474,
      "ĠAng": 7475,
      "Ġprob": 7476,
      "Ġadults": 7477,
      "ÅĵWhere": 7478,
      "Ġsqueezing": 7479,
      "Ġtwinkled": 7480,
      "Ġcertain": 7481,
      "Ġanger": 7482,
      "Ġguide": 7483,
      "Ġquieter": 7484,
      "Ġhealing": 7485,
      "Ġlicking": 7486,
      "ĠPippin": 7487,
      "Ġrisks": 7488,
      "ĠAshley": 7489,
      "Ġprobably": 7490,
      "Ġsou": 7491,
      "Ġcongratul": 7492,
      "ighting": 7493,
      "Ġfinishing": 7494,
      "ĠRyan": 7495,
      "Ġhairdress": 7496,
      "Ġperformed": 7497,
      "Ġpaths": 7498,
      "Ġcrossing": 7499,
      "Ġcommun": 7500,
      "Ġpays": 7501,
      "ĠHoney": 7502,
      "issa": 7503,
      "Ġedges": 7504,
      "Ġfrowns": 7505,
      "ĠUnder": 7506,
      "Ġseashells": 7507,
      "Ġdefinitely": 7508,
      "ppa": 7509,
      "Ġwobble": 7510,
      "ĠRalph": 7511,
      "Ġsurv": 7512,
      "ĠZara": 7513,
      "ĠBirdy": 7514,
      "Ġsnowflakes": 7515,
      "Surprise": 7516,
      "cent": 7517,
      "Ġflown": 7518,
      "Ġpackages": 7519,
      "Ġreminding": 7520,
      "Ġsymbols": 7521,
      "Ġwider": 7522,
      "Ġforgiving": 7523,
      "Ġofficers": 7524,
      "Ġhairdresser": 7525,
      "ÅĵOkay": 7526,
      "Ġcleaner": 7527,
      "Ġsuggestion": 7528,
      "Follow": 7529,
      "Tony": 7530,
      "Ġni": 7531,
      "Ġshady": 7532,
      "Ġslipping": 7533,
      "Ġhanding": 7534,
      "Ġtravels": 7535,
      "Ġpunishment": 7536,
      "Ġthorns": 7537,
      "Ġgesture": 7538,
      "Ġfant": 7539,
      "Ġsnort": 7540,
      "Ġdrown": 7541,
      "Ġfills": 7542,
      "Ġrepeating": 7543,
      "Ġbrushing": 7544,
      "Ġconflict": 7545,
      "Ġease": 7546,
      "Ġund": 7547,
      "Ġrather": 7548,
      "Ġkings": 7549,
      "ĠMouse": 7550,
      "asty": 7551,
      "Ġunw": 7552,
      "Ġtighter": 7553,
      "Ġfigures": 7554,
      "undred": 7555,
      "Ġsurfing": 7556,
      "ĠAli": 7557,
      "Ġappreciated": 7558,
      "Ġscurry": 7559,
      "ĠPippa": 7560,
      "ibbit": 7561,
      "ĠX": 7562,
      "Ġsoaking": 7563,
      "Ġpuzzled": 7564,
      "ĠAlthough": 7565,
      "Ġcobwebs": 7566,
      "Ġgears": 7567,
      "?!\"": 7568,
      "Listen": 7569,
      "espite": 7570,
      "Ġsever": 7571,
      "ddie": 7572,
      "Ġheartbroken": 7573,
      "Ġpurr": 7574,
      "Jamie": 7575,
      "cher": 7576,
      "ĠBecause": 7577,
      "Ġsmallest": 7578,
      "Ġfinal": 7579,
      "Ġsniffing": 7580,
      "Ġtubes": 7581,
      "ĠLouise": 7582,
      "Ġcottage": 7583,
      "Ġgranddaughter": 7584,
      "Ġseveral": 7585,
      "iel": 7586,
      "ider": 7587,
      "lle": 7588,
      "Ġyel": 7589,
      "Ġbuses": 7590,
      "Ġsweetest": 7591,
      "steps": 7592,
      "Ġmerma": 7593,
      "Ġbless": 7594,
      "Ġdarl": 7595,
      "Ġpeas": 7596,
      "Ġexplorer": 7597,
      "Ġaddress": 7598,
      "Ġcampfire": 7599,
      "Ġdamaged": 7600,
      "citedly": 7601,
      "Ġwarrior": 7602,
      "Ġyelped": 7603,
      "Ġdarlings": 7604,
      "ca": 7605,
      "ĠMabel": 7606,
      "Ġvines": 7607,
      "ÅĵOf": 7608,
      "Ġbits": 7609,
      "Ġtravelling": 7610,
      "Ġheight": 7611,
      "Ġflipped": 7612,
      "Ġstopping": 7613,
      "athy": 7614,
      "Ġtricycle": 7615,
      "Ġunderstands": 7616,
      "Ġwhistles": 7617,
      "Ġfootsteps": 7618,
      "Ġrobots": 7619,
      "ĠFroggy": 7620,
      "Ġreunited": 7621,
      "Ġbracelets": 7622,
      "Ġdisturbing": 7623,
      "Ġburying": 7624,
      "Ġbothering": 7625,
      "Ġspits": 7626,
      "Ġcotton": 7627,
      "Ġfantastic": 7628,
      "ollen": 7629,
      "worm": 7630,
      "idey": 7631,
      "Ġbirdhouse": 7632,
      "Whenever": 7633,
      "Ġbelieving": 7634,
      "Goodnight": 7635,
      "Ġbanged": 7636,
      "ĠQuick": 7637,
      "Ġtying": 7638,
      "onse": 7639,
      "ĠIm": 7640,
      "lph": 7641,
      "Ġswollen": 7642,
      "emma": 7643,
      "Ġresponse": 7644,
      "Ġcuddles": 7645,
      "ĠUp": 7646,
      "Ġresponsib": 7647,
      "found": 7648,
      "Ġstall": 7649,
      "ĠAny": 7650,
      "Ġlapt": 7651,
      "Ġchanges": 7652,
      "Ġwaterfall": 7653,
      "Ġsmelling": 7654,
      "Ġelbow": 7655,
      "Ġantic": 7656,
      "Ġcrowns": 7657,
      "Ġmagnif": 7658,
      "ĠSnowman": 7659,
      "Ġaccomplished": 7660,
      "Ġinstruments": 7661,
      "Hannah": 7662,
      "Ġsill": 7663,
      "Ġspies": 7664,
      "usty": 7665,
      "iza": 7666,
      "ÅĵPlease": 7667,
      "ĠRay": 7668,
      "Ġcollap": 7669,
      "Ġgenie": 7670,
      "Ġawo": 7671,
      "ĠPatch": 7672,
      "eeling": 7673,
      "Mira": 7674,
      "crow": 7675,
      "Ġknots": 7676,
      "Ġcoach": 7677,
      "Ġcheers": 7678,
      "ĠGina": 7679,
      "ails": 7680,
      "Ġexamining": 7681,
      "Ġsurfboard": 7682,
      "Ġefforts": 7683,
      "ms": 7684,
      "ĠSimon": 7685,
      "elie": 7686,
      "Ġraces": 7687,
      "ĠGreen": 7688,
      "Ġbaskets": 7689,
      "Ġships": 7690,
      "Ġpedaled": 7691,
      "ĠJanie": 7692,
      "Ġcowboy": 7693,
      "utter": 7694,
      "ĠMichael": 7695,
      "Ġjars": 7696,
      "Ġmemb": 7697,
      "Ġwhose": 7698,
      "inkle": 7699,
      "Ġwisely": 7700,
      "Ġencount": 7701,
      "Ġluckily": 7702,
      "Ġoccas": 7703,
      "Ġmembers": 7704,
      "Get": 7705,
      "abby": 7706,
      "da": 7707,
      "Ġwithin": 7708,
      "Ġcomforting": 7709,
      "Ġdriveway": 7710,
      "Ġcorrectly": 7711,
      "Ġlaptop": 7712,
      "iens": 7713,
      "Ġtar": 7714,
      "Ġaliens": 7715,
      "ooky": 7716,
      "ĠFighting": 7717,
      "Ġforests": 7718,
      "Ġguessing": 7719,
      "ĠPatty": 7720,
      "Ġspells": 7721,
      "Ġlending": 7722,
      "ĠAmelia": 7723,
      "Vroom": 7724,
      "Ġhundred": 7725,
      "Ġmood": 7726,
      "Ġreapp": 7727,
      "ĠElly": 7728,
      "Ġsurprising": 7729,
      "Ġconqu": 7730,
      "Ġsweep": 7731,
      "Ġsuffered": 7732,
      "Mimi": 7733,
      "Take": 7734,
      "Ġexcept": 7735,
      "Ġbraver": 7736,
      "acles": 7737,
      "Ġcalmly": 7738,
      "Ġwhispering": 7739,
      "Alright": 7740,
      "Ġpeeled": 7741,
      "father": 7742,
      "âĤ¬,": 7743,
      "Ġmailed": 7744,
      "Ġhumming": 7745,
      "Ġprick": 7746,
      "Ġsupported": 7747,
      "perate": 7748,
      "Ġtrotted": 7749,
      "ĠOkay": 7750,
      "rest": 7751,
      "Ġlent": 7752,
      "Ġnasty": 7753,
      "ammy": 7754,
      "Ġshoo": 7755,
      "Ġtoward": 7756,
      "ugging": 7757,
      "Ġpleaded": 7758,
      "attered": 7759,
      "Ġexercises": 7760,
      "Ġgrip": 7761,
      "Ġreassured": 7762,
      "olph": 7763,
      "isions": 7764,
      "onnie": 7765,
      "Ġstumble": 7766,
      "Ġnewfound": 7767,
      "Ġfins": 7768,
      "Ġbusiness": 7769,
      "ĠKat": 7770,
      "Ġafar": 7771,
      "Ġwindowsill": 7772,
      "udolph": 7773,
      "Ġspills": 7774,
      "Poppy": 7775,
      "Ted": 7776,
      "ĠSw": 7777,
      "Ġlies": 7778,
      "Ġplanting": 7779,
      "Ġtwisting": 7780,
      "ĠDavey": 7781,
      "Ġsqueaked": 7782,
      "Ġdelayed": 7783,
      "aven": 7784,
      "fia": 7785,
      "whe": 7786,
      "Ġweeds": 7787,
      "dding": 7788,
      "Ġmarve": 7789,
      "Ġfishes": 7790,
      "Ġnurses": 7791,
      "iscuit": 7792,
      "David": 7793,
      "mered": 7794,
      "Ġmaker": 7795,
      "inger": 7796,
      "ighing": 7797,
      "Ġrays": 7798,
      "Ġscent": 7799,
      "Ġstored": 7800,
      "Ġclassmates": 7801,
      "manda": 7802,
      "Ġsewed": 7803,
      "Ġpupils": 7804,
      "Ġhen": 7805,
      "Ġwasting": 7806,
      "Ġgap": 7807,
      "rian": 7808,
      "ĠAlly": 7809,
      "Ġspy": 7810,
      "Ġalthough": 7811,
      "Ġdecisions": 7812,
      "Ġtasting": 7813,
      "Ġvegg": 7814,
      "Ġaware": 7815,
      "Ġspeeding": 7816,
      "Ġstomp": 7817,
      "Ġactivity": 7818,
      "Ġmasterp": 7819,
      "Ġmaterial": 7820,
      "Abigail": 7821,
      "Ġarranged": 7822,
      "ading": 7823,
      "ĠKaren": 7824,
      "Ġglittering": 7825,
      "Ġannoyed": 7826,
      "Since": 7827,
      "lor": 7828,
      "rier": 7829,
      "ongo": 7830,
      "Ġtreated": 7831,
      "ĠJackie": 7832,
      "Ġteles": 7833,
      "sol": 7834,
      "ĠRain": 7835,
      "Steve": 7836,
      "Ġsolving": 7837,
      "Ġtelescope": 7838,
      "line": 7839,
      "pen": 7840,
      "wise": 7841,
      "Ġicing": 7842,
      "inted": 7843,
      "order": 7844,
      "chy": 7845,
      "ĠLia": 7846,
      "Ġgoodby": 7847,
      "ĠSpe": 7848,
      "Ġdiscussing": 7849,
      "ĠChris": 7850,
      "Ġnibbled": 7851,
      "Ġbuddy": 7852,
      "ĠBow": 7853,
      "Ġsped": 7854,
      "Ġspooky": 7855,
      "Ġtweet": 7856,
      "Ġjoins": 7857,
      "Ġpermitted": 7858,
      "Ġgazing": 7859,
      "Ġrefuse": 7860,
      "Ġawoke": 7861,
      "Ġgoodbyes": 7862,
      "Bunny": 7863,
      "rup": 7864,
      "Ġdot": 7865,
      "Ġdep": 7866,
      "Ġdump": 7867,
      "Ġger": 7868,
      "Ġrin": 7869,
      "rie": 7870,
      "Ġdoorbell": 7871,
      "Ġdespite": 7872,
      "ĠSpidey": 7873,
      "Ġscarecrow": 7874,
      "Ġwealth": 7875,
      "Ġpandas": 7876,
      "Ġexplains": 7877,
      "Ġpurrs": 7878,
      "Ġcharge": 7879,
      "Ġdecl": 7880,
      "Josh": 7881,
      "Ġteachers": 7882,
      "Ġhonking": 7883,
      "Ġapologised": 7884,
      "Ġsimply": 7885,
      "ĠQuackers": 7886,
      "Ġcongratulated": 7887,
      "even": 7888,
      "Ġexch": 7889,
      "ĠFuzzy": 7890,
      "Ġtapping": 7891,
      "ÅĵHey": 7892,
      "ĠFlopsy": 7893,
      "Ġbelongings": 7894,
      "Ġimages": 7895,
      "Ġtoolbox": 7896,
      "flies": 7897,
      "Quack": 7898,
      "Ġchilly": 7899,
      "ĠDuck": 7900,
      "Ġservant": 7901,
      "Ġveggies": 7902,
      "Ke": 7903,
      "ipes": 7904,
      "illiam": 7905,
      "Ġcovering": 7906,
      "Ġcrystals": 7907,
      "Ġstudent": 7908,
      "Ġwiggly": 7909,
      "Ġsweaty": 7910,
      "Ġsyrup": 7911,
      "Ġmasterpiece": 7912,
      "Ġloses": 7913,
      "artled": 7914,
      "ilda": 7915,
      "Ġfires": 7916,
      "Ġtroubles": 7917,
      "Ġargum": 7918,
      "Ġencouragement": 7919,
      "Ġconcert": 7920,
      "Rachel": 7921,
      "Ġuntied": 7922,
      "Ġunfortunately": 7923,
      "acle": 7924,
      "Ġpurpose": 7925,
      "Ġpicnics": 7926,
      "Ġtype": 7927,
      "Ġinspired": 7928,
      "Jessie": 7929,
      "uel": 7930,
      "owing": 7931,
      "Ġbea": 7932,
      "elle": 7933,
      "Ġtrans": 7934,
      "anda": 7935,
      "Ġsquaw": 7936,
      "ĠDog": 7937,
      "Ġemerged": 7938,
      "Ġnibble": 7939,
      "Ġsav": 7940,
      "ĠMina": 7941,
      "Ġswap": 7942,
      "Ġthanking": 7943,
      "ÅĵSee": 7944,
      "ivia": 7945,
      "abra": 7946,
      "Ġconnect": 7947,
      "Je": 7948,
      "ris": 7949,
      "Ġhoo": 7950,
      "erk": 7951,
      "ĠSatur": 7952,
      "Ġposit": 7953,
      "Ġconvin": 7954,
      "Ġfoxes": 7955,
      "ĠOther": 7956,
      "screen": 7957,
      "Ġpresented": 7958,
      "Ġchocolates": 7959,
      "Ġdisplayed": 7960,
      "Ġinsisting": 7961,
      "Ġmosquitoes": 7962,
      "Ġwounds": 7963,
      "Ġattacked": 7964,
      "Ġbeaming": 7965,
      "True": 7966,
      "Ġcocoon": 7967,
      "Ġanticip": 7968,
      "we": 7969,
      "Ġfailed": 7970,
      "Ġjoked": 7971,
      "ÅĵThe": 7972,
      "Ġwarmly": 7973,
      "ĠRudolph": 7974,
      "Ġscram": 7975,
      "Ġprayers": 7976,
      "Ġorders": 7977,
      "ĠBubba": 7978,
      "Ġgrandson": 7979,
      "Leave": 7980,
      "Ġrobbers": 7981,
      "Ġoppos": 7982,
      "Ġtarget": 7983,
      "rily": 7984,
      "ats": 7985,
      "Ġque": 7986,
      "ĠZoomy": 7987,
      "Ġvibr": 7988,
      "Ġvehicles": 7989,
      "Always": 7990,
      "Ġsternly": 7991,
      "Ġmermaid": 7992,
      "Ġseals": 7993,
      "Ġcleared": 7994,
      "ĠStan": 7995,
      "Ġterrified": 7996,
      "Ġgrandfather": 7997,
      "ĠPepper": 7998,
      "Ġbackpacks": 7999,
      "Ġincreasing": 8000,
      "Ġastronauts": 8001,
      "Ġconversation": 8002,
      "Ġscurrying": 8003,
      "Ġtransf": 8004,
      "Jess": 8005,
      "what": 8006,
      "Ġclerk": 8007,
      "Ġnodding": 8008,
      "ĠKelly": 8009,
      "Ġmagazines": 8010,
      "Ġflaps": 8011,
      "Ġcustomers": 8012,
      "Car": 8013,
      "Two": 8014,
      "Ġaim": 8015,
      "ecca": 8016,
      "ĠWelcome": 8017,
      "Ġvisitors": 8018,
      "Meanwhile": 8019,
      "Ġlipstick": 8020,
      "Uncle": 8021,
      "Ġwrinkled": 8022,
      "ĠSaturday": 8023,
      "Ġopposite": 8024,
      "five": 8025,
      "Ġbitten": 8026,
      "Ġwhimp": 8027,
      "Ġflips": 8028,
      "aula": 8029,
      "Ġtwenty": 8030,
      "Ġsunscreen": 8031,
      "Ġdiso": 8032,
      "Ġrescuing": 8033,
      "Ġtires": 8034,
      "Anne": 8035,
      "Ġfocus": 8036,
      "Ġmatey": 8037,
      "lo": 8038,
      "sm": 8039,
      "its": 8040,
      "ooking": 8041,
      "Ġmommies": 8042,
      "Ġwhoo": 8043,
      "Ġpeep": 8044,
      "Ġends": 8045,
      "Ġtidied": 8046,
      "ĠZero": 8047,
      "Ġturtles": 8048,
      "Ġotters": 8049,
      "Ġtaped": 8050,
      "Chloe": 8051,
      "Ġnearest": 8052,
      "Ġanticipation": 8053,
      "Adam": 8054,
      "Rosie": 8055,
      "Ġsheets": 8056,
      "Ġmanners": 8057,
      "Ġuntie": 8058,
      "Ġdressing": 8059,
      "Ġjud": 8060,
      "Ġdragonfly": 8061,
      "Ġzooms": 8062,
      "Ġrats": 8063,
      "Ġadmiration": 8064,
      "Ġexperienced": 8065,
      "Ġencountered": 8066,
      "Ġqueens": 8067,
      "Am": 8068,
      "Any": 8069,
      "Dear": 8070,
      "hil": 8071,
      "ĠSplash": 8072,
      "Ġrely": 8073,
      "Ġloc": 8074,
      "ĠWil": 8075,
      "agic": 8076,
      "Ġdangers": 8077,
      "Ġdisc": 8078,
      "Ġadds": 8079,
      "ĠJean": 8080,
      "Tweetie": 8081,
      "Ġtilted": 8082,
      "Cla": 8083,
      "Joy": 8084,
      "gain": 8085,
      "ancy": 8086,
      "Ġblond": 8087,
      "ĠPin": 8088,
      "Ġtesting": 8089,
      "Ġcrawls": 8090,
      "Ġlabels": 8091,
      "ĠKevin": 8092,
      "Ġaisle": 8093,
      "Ġsurvive": 8094,
      "ĠSpeedy": 8095,
      "ole": 8096,
      "pit": 8097,
      "ĠSk": 8098,
      "ĠEddie": 8099,
      "ĠFiona": 8100,
      "Ġbeautifully": 8101,
      "Ġsprout": 8102,
      "ĠStitch": 8103,
      "ĠFreddie": 8104,
      "Ġmischie": 8105,
      "Ġbeeped": 8106,
      "Ġartwork": 8107,
      "Ġseagulls": 8108,
      "Ġdeclared": 8109,
      "Ġscrambled": 8110,
      "Ġmischievous": 8111,
      "Penny": 8112,
      "yl": 8113,
      "Ġbou": 8114,
      "Ġcracks": 8115,
      "Ġrotting": 8116,
      "Ġbouqu": 8117,
      "Buzz": 8118,
      "car": 8119,
      "Ġpuck": 8120,
      "ĠSmo": 8121,
      "Ġshall": 8122,
      "Ġshimmering": 8123,
      "Ġclicked": 8124,
      "Ġbrightest": 8125,
      "ĠJaney": 8126,
      "Ġvisits": 8127,
      "Ġdiamonds": 8128,
      "Ġdiscoveries": 8129,
      "Claire": 8130,
      "hind": 8131,
      "ĠBongo": 8132,
      "romise": 8133,
      "ortun": 8134,
      "Stay": 8135,
      "Ġbreaths": 8136,
      "Ġpriz": 8137,
      "Ġapplause": 8138,
      "ĠElsie": 8139,
      "Boys": 8140,
      "Ġting": 8141,
      "Ġforce": 8142,
      "Ġsmashed": 8143,
      "ĠYouÃ¢": 8144,
      "ĠDory": 8145,
      "ortunately": 8146,
      "ctric": 8147,
      "Ġbeeh": 8148,
      "Ġyoungest": 8149,
      "Ġdesigning": 8150,
      "Ġmillion": 8151,
      "Ġfilms": 8152,
      "ĠMaddie": 8153,
      "Ġopportun": 8154,
      "Ġnuzzled": 8155,
      "ators": 8156,
      "Ġinches": 8157,
      "ĠIzzy": 8158,
      "ĠCle": 8159,
      "Ġghosts": 8160,
      "ĠPeppa": 8161,
      "Ġuniforms": 8162,
      "Ġrowed": 8163,
      "ĠgirlÃ¢": 8164,
      "ĠJoan": 8165,
      "ordinary": 8166,
      "Ġexpert": 8167,
      "Choo": 8168,
      "Ġstroke": 8169,
      "Ġforgiveness": 8170,
      "Ġdrowned": 8171,
      "Beth": 8172,
      "Ġheaven": 8173,
      "Ġbeating": 8174,
      "ÅĵSure": 8175,
      "Ġrecorder": 8176,
      "Ġlowered": 8177,
      "Ġquestioned": 8178,
      "Ġsteering": 8179,
      "Ġdodged": 8180,
      "Ġroutine": 8181,
      "Ġresponded": 8182,
      "Bang": 8183,
      "Mat": 8184,
      "ĠHold": 8185,
      "elvet": 8186,
      "ĠJax": 8187,
      "ĠLion": 8188,
      "ĠDespite": 8189,
      "ĠPen": 8190,
      "Ġtwists": 8191
    },
    "merges": [
      [
        "h",
        "e"
      ],
      [
        "Ġ",
        "t"
      ],
      [
        "Ġ",
        "a"
      ],
      [
        "Ġ",
        "s"
      ],
      [
        "Ġ",
        "w"
      ],
      [
        "n",
        "d"
      ],
      [
        "Ġt",
        "he"
      ],
      [
        "e",
        "d"
      ],
      [
        "Ġa",
        "nd"
      ],
      [
        "Ġt",
        "o"
      ],
      [
        "Ġ",
        "b"
      ],
      [
        "i",
        "n"
      ],
      [
        "Ġ",
        "h"
      ],
      [
        "r",
        "e"
      ],
      [
        "Ġw",
        "a"
      ],
      [
        "o",
        "u"
      ],
      [
        "Ġ",
        "f"
      ],
      [
        "i",
        "t"
      ],
      [
        "Ġ",
        "c"
      ],
      [
        "Ġ",
        "l"
      ],
      [
        "Ġ",
        "d"
      ],
      [
        "e",
        "r"
      ],
      [
        "Ġ",
        "he"
      ],
      [
        "Ġ",
        "m"
      ],
      [
        "Ġ",
        "p"
      ],
      [
        "Ġwa",
        "s"
      ],
      [
        "Ġ",
        "T"
      ],
      [
        "o",
        "m"
      ],
      [
        "Ġ",
        "o"
      ],
      [
        "a",
        "y"
      ],
      [
        "a",
        "r"
      ],
      [
        "i",
        "s"
      ],
      [
        "in",
        "g"
      ],
      [
        "i",
        "l"
      ],
      [
        "Ġ",
        "g"
      ],
      [
        "i",
        "d"
      ],
      [
        "a",
        "t"
      ],
      [
        "e",
        "n"
      ],
      [
        "Ġ",
        "n"
      ],
      [
        "Ġs",
        "a"
      ],
      [
        "ĠT",
        "he"
      ],
      [
        "Ġh",
        "a"
      ],
      [
        "Ġ",
        "S"
      ],
      [
        "a",
        "n"
      ],
      [
        "i",
        "m"
      ],
      [
        "o",
        "r"
      ],
      [
        "o",
        "n"
      ],
      [
        "Ġ",
        "it"
      ],
      [
        "Ġt",
        "h"
      ],
      [
        "l",
        "l"
      ],
      [
        "l",
        "e"
      ],
      [
        "Ġ",
        "H"
      ],
      [
        "o",
        "t"
      ],
      [
        "Ġhe",
        "r"
      ],
      [
        "e",
        "t"
      ],
      [
        "i",
        "r"
      ],
      [
        "ĠS",
        "he"
      ],
      [
        "e",
        "s"
      ],
      [
        "ĠH",
        "e"
      ],
      [
        "Ġ",
        "in"
      ],
      [
        "ĠThe",
        "y"
      ],
      [
        "v",
        "er"
      ],
      [
        "u",
        "t"
      ],
      [
        "o",
        "w"
      ],
      [
        "c",
        "k"
      ],
      [
        "Ġ",
        "y"
      ],
      [
        "Ġ",
        "e"
      ],
      [
        "Ġ",
        "u"
      ],
      [
        "l",
        "d"
      ],
      [
        "o",
        "o"
      ],
      [
        "Ġsa",
        "id"
      ],
      [
        "il",
        "y"
      ],
      [
        "i",
        "g"
      ],
      [
        "Ġ",
        "\""
      ],
      [
        "Ġ",
        "r"
      ],
      [
        "Ġb",
        "e"
      ],
      [
        "a",
        "m"
      ],
      [
        "Ġ",
        "I"
      ],
      [
        "Ġs",
        "t"
      ],
      [
        "k",
        "e"
      ],
      [
        "c",
        "e"
      ],
      [
        "v",
        "e"
      ],
      [
        "it",
        "h"
      ],
      [
        "p",
        "p"
      ],
      [
        "Ġs",
        "he"
      ],
      [
        "L",
        "ily"
      ],
      [
        "Ġw",
        "ith"
      ],
      [
        "Ġy",
        "ou"
      ],
      [
        "Ġo",
        "n"
      ],
      [
        "O",
        "n"
      ],
      [
        "k",
        "ed"
      ],
      [
        "r",
        "i"
      ],
      [
        "Ġo",
        "f"
      ],
      [
        "Ġp",
        "l"
      ],
      [
        "n",
        "t"
      ],
      [
        "a",
        "d"
      ],
      [
        "Ġh",
        "is"
      ],
      [
        "Ġs",
        "o"
      ],
      [
        "ver",
        "y"
      ],
      [
        "Ġd",
        "ay"
      ],
      [
        "Ġth",
        "at"
      ],
      [
        "Ġpl",
        "ay"
      ],
      [
        "Ġ",
        "Lily"
      ],
      [
        "Ġu",
        "p"
      ],
      [
        "Ġthe",
        "y"
      ],
      [
        "Ġha",
        "d"
      ],
      [
        "s",
        "t"
      ],
      [
        "Ġw",
        "e"
      ],
      [
        "Ġm",
        "om"
      ],
      [
        "Ġ",
        "B"
      ],
      [
        "Ġf",
        "or"
      ],
      [
        "e",
        "l"
      ],
      [
        "u",
        "n"
      ],
      [
        "'",
        "s"
      ],
      [
        "ou",
        "ld"
      ],
      [
        "m",
        "y"
      ],
      [
        "Ġl",
        "i"
      ],
      [
        "T",
        "he"
      ],
      [
        "c",
        "h"
      ],
      [
        "Ġwa",
        "nt"
      ],
      [
        "Ġha",
        "pp"
      ],
      [
        "en",
        "t"
      ],
      [
        "Ġs",
        "h"
      ],
      [
        "it",
        "t"
      ],
      [
        "ou",
        "t"
      ],
      [
        "he",
        "r"
      ],
      [
        "Ġn",
        "ot"
      ],
      [
        "Ġd",
        "o"
      ],
      [
        "om",
        "e"
      ],
      [
        "s",
        "e"
      ],
      [
        "Ġ",
        "very"
      ],
      [
        "e",
        "nd"
      ],
      [
        "l",
        "y"
      ],
      [
        "a",
        "ll"
      ],
      [
        "ou",
        "nd"
      ],
      [
        "Ġw",
        "h"
      ],
      [
        "Ġ",
        "k"
      ],
      [
        "im",
        "e"
      ],
      [
        "itt",
        "le"
      ],
      [
        "Ġ",
        "M"
      ],
      [
        "Ġt",
        "ime"
      ],
      [
        "a",
        "l"
      ],
      [
        "Ġn",
        "e"
      ],
      [
        "Ġl",
        "ittle"
      ],
      [
        "Ġ",
        "is"
      ],
      [
        "h",
        "t"
      ],
      [
        "Ġthe",
        "re"
      ],
      [
        "Ġb",
        "ig"
      ],
      [
        "Ġhapp",
        "y"
      ],
      [
        "ĠI",
        "t"
      ],
      [
        "Ġ",
        "re"
      ],
      [
        "Ġs",
        "m"
      ],
      [
        "Ġb",
        "ut"
      ],
      [
        ".",
        "\""
      ],
      [
        "r",
        "y"
      ],
      [
        "Ġsa",
        "w"
      ],
      [
        "Ġa",
        "n"
      ],
      [
        "r",
        "a"
      ],
      [
        "ri",
        "end"
      ],
      [
        "Ġ",
        "Ċ"
      ],
      [
        "Ġf",
        "riend"
      ],
      [
        "Ġa",
        "s"
      ],
      [
        "a",
        "ck"
      ],
      [
        "a",
        "ke"
      ],
      [
        "On",
        "e"
      ],
      [
        "id",
        "e"
      ],
      [
        "!",
        "\""
      ],
      [
        "'",
        "t"
      ],
      [
        "u",
        "g"
      ],
      [
        "Ġl",
        "oo"
      ],
      [
        "Ġwe",
        "re"
      ],
      [
        "t",
        "er"
      ],
      [
        "v",
        "ed"
      ],
      [
        "Ġl",
        "o"
      ],
      [
        "o",
        "re"
      ],
      [
        "On",
        "ce"
      ],
      [
        "Ġs",
        "e"
      ],
      [
        "Ġto",
        "o"
      ],
      [
        "Ġb",
        "o"
      ],
      [
        "Ġh",
        "im"
      ],
      [
        "Ġg",
        "o"
      ],
      [
        "Ġa",
        "re"
      ],
      [
        "e",
        "c"
      ],
      [
        "ĠT",
        "im"
      ],
      [
        "il",
        "l"
      ],
      [
        "Ġwant",
        "ed"
      ],
      [
        "Ġ",
        "j"
      ],
      [
        "ar",
        "d"
      ],
      [
        "Ġthe",
        "m"
      ],
      [
        "ir",
        "l"
      ],
      [
        "Ġup",
        "on"
      ],
      [
        "Ġthe",
        "ir"
      ],
      [
        "Ġa",
        "t"
      ],
      [
        "Ġg",
        "irl"
      ],
      [
        "Ġ",
        "out"
      ],
      [
        "u",
        "r"
      ],
      [
        "Ġd",
        "id"
      ],
      [
        "i",
        "nd"
      ],
      [
        "Ġ",
        "A"
      ],
      [
        "ay",
        "s"
      ],
      [
        "f",
        "u"
      ],
      [
        "Ġs",
        "p"
      ],
      [
        "Ġsm",
        "il"
      ],
      [
        "Ġha",
        "ve"
      ],
      [
        "Ġc",
        "ould"
      ],
      [
        "he",
        "n"
      ],
      [
        "a",
        "in"
      ],
      [
        "he",
        "d"
      ],
      [
        "ĠB",
        "en"
      ],
      [
        "ar",
        "t"
      ],
      [
        "Ġc",
        "an"
      ],
      [
        "r",
        "om"
      ],
      [
        "Ġw",
        "ent"
      ],
      [
        "Ġe",
        "x"
      ],
      [
        "i",
        "c"
      ],
      [
        "Ġa",
        "r"
      ],
      [
        "l",
        "p"
      ],
      [
        "?",
        "\""
      ],
      [
        "oo",
        "d"
      ],
      [
        "fu",
        "l"
      ],
      [
        "Ġfriend",
        "s"
      ],
      [
        "Ġn",
        "am"
      ],
      [
        "ig",
        "ht"
      ],
      [
        "Ġk",
        "n"
      ],
      [
        "Ġ",
        "J"
      ],
      [
        "h",
        "ing"
      ],
      [
        "Ġhe",
        "lp"
      ],
      [
        "Ġa",
        "ll"
      ],
      [
        "Y",
        "ou"
      ],
      [
        "u",
        "m"
      ],
      [
        "ar",
        "k"
      ],
      [
        "on",
        "e"
      ],
      [
        "Ġb",
        "ack"
      ],
      [
        "ĠT",
        "om"
      ],
      [
        "Ġf",
        "un"
      ],
      [
        "Ġc",
        "l"
      ],
      [
        "a",
        "re"
      ],
      [
        "Ġn",
        "o"
      ],
      [
        "Ġl",
        "e"
      ],
      [
        "o",
        "p"
      ],
      [
        "Ġs",
        "c"
      ],
      [
        "Ġnam",
        "ed"
      ],
      [
        "Ġa",
        "l"
      ],
      [
        "el",
        "t"
      ],
      [
        "Ġsmil",
        "ed"
      ],
      [
        "ou",
        "g"
      ],
      [
        "Ġm",
        "an"
      ],
      [
        "Ġlo",
        "ved"
      ],
      [
        "Ġto",
        "y"
      ],
      [
        "s",
        "ide"
      ],
      [
        "Ġ",
        "One"
      ],
      [
        "Ġli",
        "ke"
      ],
      [
        "i",
        "ck"
      ],
      [
        "Ġas",
        "ked"
      ],
      [
        "Ġf",
        "elt"
      ],
      [
        "Ġf",
        "e"
      ],
      [
        "Ġm",
        "e"
      ],
      [
        "Ġse",
        "e"
      ],
      [
        "Ġloo",
        "ked"
      ],
      [
        "Ġs",
        "ome"
      ],
      [
        "am",
        "e"
      ],
      [
        "Ġ",
        "W"
      ],
      [
        "Ġr",
        "o"
      ],
      [
        "Ġar",
        "ound"
      ],
      [
        "ĠTim",
        "my"
      ],
      [
        "om",
        "et"
      ],
      [
        "Ġb",
        "r"
      ],
      [
        "u",
        "re"
      ],
      [
        "i",
        "ce"
      ],
      [
        "Ġb",
        "ir"
      ],
      [
        "g",
        "et"
      ],
      [
        "Ġbo",
        "y"
      ],
      [
        "Ġw",
        "ould"
      ],
      [
        "on",
        "g"
      ],
      [
        "Ġst",
        "art"
      ],
      [
        "s",
        "s"
      ],
      [
        "Ġbir",
        "d"
      ],
      [
        "Ġf",
        "a"
      ],
      [
        "Ġs",
        "omet"
      ],
      [
        "w",
        "ay"
      ],
      [
        ",",
        "\""
      ],
      [
        "Ġm",
        "ake"
      ],
      [
        "ing",
        "s"
      ],
      [
        "Ġa",
        "g"
      ],
      [
        "Ġ",
        "You"
      ],
      [
        "ad",
        "e"
      ],
      [
        "Ġs",
        "ays"
      ],
      [
        "Ġwh",
        "at"
      ],
      [
        "d",
        "d"
      ],
      [
        "Ġw",
        "or"
      ],
      [
        "ĠB",
        "ut"
      ],
      [
        "Ã",
        "¢"
      ],
      [
        "â",
        "Ĥ"
      ],
      [
        "âĤ",
        "¬"
      ],
      [
        "k",
        "ing"
      ],
      [
        "ow",
        "n"
      ],
      [
        "Ġr",
        "an"
      ],
      [
        "Ġa",
        "way"
      ],
      [
        "get",
        "her"
      ],
      [
        "Ġt",
        "re"
      ],
      [
        "i",
        "e"
      ],
      [
        "ar",
        "ed"
      ],
      [
        "a",
        "g"
      ],
      [
        "ou",
        "d"
      ],
      [
        "Ġc",
        "ar"
      ],
      [
        "Ġstart",
        "ed"
      ],
      [
        "Ġm",
        "ade"
      ],
      [
        "i",
        "f"
      ],
      [
        "Ġto",
        "gether"
      ],
      [
        "t",
        "her"
      ],
      [
        "Ġp",
        "ark"
      ],
      [
        "Ġc",
        "o"
      ],
      [
        "Ġsomet",
        "hing"
      ],
      [
        "Ġsa",
        "d"
      ],
      [
        "Ġo",
        "ther"
      ],
      [
        "it",
        "ed"
      ],
      [
        "Ġne",
        "w"
      ],
      [
        "Ġf",
        "rom"
      ],
      [
        "Ġp",
        "ut"
      ],
      [
        "e",
        "ll"
      ],
      [
        "oo",
        "k"
      ],
      [
        "Ġh",
        "ug"
      ],
      [
        "Ġl",
        "a"
      ],
      [
        "Ġp",
        "r"
      ],
      [
        "a",
        "ch"
      ],
      [
        "Ġ",
        "L"
      ],
      [
        "b",
        "le"
      ],
      [
        "Ġag",
        "ain"
      ],
      [
        "Ġg",
        "ood"
      ],
      [
        "Ġex",
        "c"
      ],
      [
        "Ġm",
        "u"
      ],
      [
        "Ġh",
        "ome"
      ],
      [
        "e",
        "p"
      ],
      [
        "Ġf",
        "l"
      ],
      [
        "ri",
        "ed"
      ],
      [
        "Ġw",
        "hen"
      ],
      [
        "Ġwh",
        "o"
      ],
      [
        "h",
        "at"
      ],
      [
        "es",
        "t"
      ],
      [
        "Ġc",
        "h"
      ],
      [
        "Ġf",
        "ound"
      ],
      [
        "Ġthe",
        "n"
      ],
      [
        "pp",
        "ed"
      ],
      [
        "Ġd",
        "ec"
      ],
      [
        "a",
        "s"
      ],
      [
        "n",
        "n"
      ],
      [
        "Ġg",
        "et"
      ],
      [
        "Ġwa",
        "l"
      ],
      [
        "Ġplay",
        "ing"
      ],
      [
        "q",
        "u"
      ],
      [
        "Ġs",
        "w"
      ],
      [
        "oug",
        "ht"
      ],
      [
        "Ġli",
        "ked"
      ],
      [
        "u",
        "ck"
      ],
      [
        "Ġth",
        "ings"
      ],
      [
        "p",
        "l"
      ],
      [
        "all",
        "y"
      ],
      [
        "Ġ",
        "E"
      ],
      [
        "ou",
        "s"
      ],
      [
        "Ġg",
        "ot"
      ],
      [
        "r",
        "o"
      ],
      [
        "Ġb",
        "l"
      ],
      [
        "ĠM",
        "om"
      ],
      [
        "ar",
        "a"
      ],
      [
        "Ġyou",
        "r"
      ],
      [
        "Ġexc",
        "ited"
      ],
      [
        "Ġdo",
        "g"
      ],
      [
        "Ġc",
        "ame"
      ],
      [
        "a",
        "ve"
      ],
      [
        "id",
        "ed"
      ],
      [
        "a",
        "x"
      ],
      [
        "Ġe",
        "very"
      ],
      [
        "Ġ",
        "D"
      ],
      [
        "Ġdec",
        "ided"
      ],
      [
        "nn",
        "a"
      ],
      [
        "Ġsc",
        "ared"
      ],
      [
        "Ġ",
        "v"
      ],
      [
        "u",
        "st"
      ],
      [
        "Ġd",
        "own"
      ],
      [
        "Ġc",
        "are"
      ],
      [
        "ou",
        "se"
      ],
      [
        "Ġon",
        "e"
      ],
      [
        "Ġf",
        "ind"
      ],
      [
        "The",
        "y"
      ],
      [
        "is",
        "t"
      ],
      [
        "a",
        "p"
      ],
      [
        "Ġbe",
        "c"
      ],
      [
        "n",
        "y"
      ],
      [
        "Ġth",
        "an"
      ],
      [
        "u",
        "e"
      ],
      [
        "Ġw",
        "ill"
      ],
      [
        "Ġfe",
        "el"
      ],
      [
        "Ġm",
        "y"
      ],
      [
        "Ġa",
        "b"
      ],
      [
        "Ġd",
        "ad"
      ],
      [
        "ar",
        "n"
      ],
      [
        "Ġloo",
        "k"
      ],
      [
        "ou",
        "r"
      ],
      [
        "u",
        "dd"
      ],
      [
        "Ġg",
        "r"
      ],
      [
        "Ġg",
        "ra"
      ],
      [
        "er",
        "s"
      ],
      [
        "u",
        "s"
      ],
      [
        "es",
        "s"
      ],
      [
        "Ġ",
        "ke"
      ],
      [
        "Ġtoy",
        "s"
      ],
      [
        "Ġp",
        "o"
      ],
      [
        "Ġdid",
        "n"
      ],
      [
        "w",
        "ays"
      ],
      [
        "Ġtoo",
        "k"
      ],
      [
        "f",
        "e"
      ],
      [
        "Ġb",
        "all"
      ],
      [
        "nd",
        "er"
      ],
      [
        "Ġab",
        "out"
      ],
      [
        "ĠS",
        "am"
      ],
      [
        "Ġal",
        "ways"
      ],
      [
        "Ġmom",
        "my"
      ],
      [
        "Ġl",
        "ot"
      ],
      [
        "an",
        "t"
      ],
      [
        "b",
        "b"
      ],
      [
        "Ġkn",
        "e"
      ],
      [
        "is",
        "e"
      ],
      [
        "Ġtre",
        "e"
      ],
      [
        "Ġout",
        "side"
      ],
      [
        "Ġ",
        "F"
      ],
      [
        "Ġth",
        "ought"
      ],
      [
        "Ġt",
        "a"
      ],
      [
        "Ġm",
        "ore"
      ],
      [
        "Ġle",
        "arn"
      ],
      [
        "en",
        "ed"
      ],
      [
        "it",
        "e"
      ],
      [
        "re",
        "t"
      ],
      [
        "Ġh",
        "o"
      ],
      [
        "Ġkn",
        "ow"
      ],
      [
        "Ġs",
        "or"
      ],
      [
        "c",
        "hed"
      ],
      [
        "g",
        "ed"
      ],
      [
        "ec",
        "i"
      ],
      [
        "Ġin",
        "t"
      ],
      [
        "Ġc",
        "at"
      ],
      [
        "Ġo",
        "ld"
      ],
      [
        "Ġt",
        "ake"
      ],
      [
        "Ġla",
        "ug"
      ],
      [
        "ĠM",
        "ax"
      ],
      [
        "i",
        "a"
      ],
      [
        "i",
        "ve"
      ],
      [
        "Ġkne",
        "w"
      ],
      [
        "Ġsp",
        "eci"
      ],
[...]
