{
  "version": "1.0",
  "truncation": null,
  "padding": null,
  "added_tokens": [
    {
      "id": 0,
      "content": "<|bos|>",
      "single_word": false,
      "lstrip": false,
      "rstrip": false,
      "normalized": false,
      "special": true
    },
    {
      "id": 1,
      "content": "<|eos|>",
      "single_word": false,
      "lstrip": false,
      "rstrip": false,
      "normalized": false,
      "special": true
    },
    {
      "id": 2,
      "content": "<|pad|>",
      "single_word": false,
      "lstrip": false,
      "rstrip": false,
      "normalized": false,
      "special": true
    },
    {
      "id": 3,
      "content": "<|unk|>",
      "single_word": false,
      "lstrip": false,
      "rstrip": false,
      "normalized": false,
      "special": true
    },
    {
      "id": 4,
      "content": "<|system|>",
      "single_word": false,
      "lstrip": false,
      "rstrip": false,
      "normalized": false,
      "special": true
    },
    {
      "id": 5,
      "content": "<|user|>",
      "single_word": false,
      "lstrip": false,
      "rstrip": false,
      "normalized": false,
      "special": true
    },
    {
      "id": 6,
      "content": "<|assistant|>",
      "single_word": false,
      "lstrip": false,
      "rstrip": false,
      "normalized": false,
      "special": true
    },
    {
      "id": 7,
      "content": "<|im_start|>",
      "single_word": false,
      "lstrip": false,
      "rstrip": false,
      "normalized": false,
      "special": true
    },
    {
      "id": 8,
      "content": "<|im_end|>",
      "single_word": false,
      "lstrip": false,
      "rstrip": false,
      "normalized": false,
      "special": true
    }
  ],
  "normalizer": null,
  "pre_tokenizer": {
    "type": "Sequence",
    "pretokenizers": [
      {
        "type": "Split",
        "pattern": {
          "Regex": "'s|'t|'re|'ve|'m|'ll|'d| ?\\p{L}+| ?\\p{N}+| ?[^\\s\\p{L}\\p{N}]+|\\s+(?!\\S)|\\s+"
        },
        "behavior": "Isolated",
        "invert": false
      },
      {
        "type": "Digits",
        "individual_digits": true
      },
      {
        "type": "ByteLevel",
        "add_prefix_space": false,
        "trim_offsets": true,
        "use_regex": false
      }
    ]
  },
  "post_processor": {
    "type": "TemplateProcessing",
    "single": [
      {
        "SpecialToken": {
          "id": "<|bos|>",
          "type_id": 0
        }
      },
      {
        "Sequence": {
          "id": "A",
          "type_id": 0
        }
      }
    ],
    "pair": [
      {
        "SpecialToken": {
          "id": "<|bos|>",
          "type_id": 0
        }
      },
      {
        "Sequence": {
          "id": "A",
          "type_id": 0
        }
      },
      {
        "SpecialToken": {
          "id": "<|bos|>",
          "type_id": 0
        }
      },
      {
        "Sequence": {
          "id": "B",
          "type_id": 1
        }
      }
    ],
    "special_tokens": {
      "<|bos|>": {
        "id": "<|bos|>",
        "ids": [
          0
        ],
        "tokens": [
          "<|bos|>"
        ]
      }
    }
  },
  "decoder": {
    "type": "ByteLevel",
    "add_prefix_space": true,
    "trim_offsets": true,
    "use_regex": true
  },
  "model": {
    "type": "BPE",
    "dropout": null,
    "unk_token": "<|unk|>",
    "continuing_subword_prefix": null,
    "end_of_word_suffix": null,
    "fuse_unk": false,
    "byte_fallback": false,
    "ignore_merges": false,
    "vocab": {
      "<|bos|>": 0,
      "<|eos|>": 1,
      "<|pad|>": 2,
      "<|unk|>": 3,
      "<|system|>": 4,
      "<|user|>": 5,
      "<|assistant|>": 6,
      "<|im_start|>": 7,
      "<|im_end|>": 8,
      "!": 9,
      "\"": 10,
      "#": 11,
      "$": 12,
      "%": 13,
      "&": 14,
      "'": 15,
      "(": 16,
      ")": 17,
      "*": 18,
      "+": 19,
      ",": 20,
      "-": 21,
      ".": 22,
      "/": 23,
      "0": 24,
      "1": 25,
      "2": 26,
      "3": 27,
      "4": 28,
      "5": 29,
      "6": 30,
      "7": 31,
      "8": 32,
      "9": 33,
      ":": 34,
      ";": 35,
      "<": 36,
      "=": 37,
      ">": 38,
      "?": 39,
      "@": 40,
      "A": 41,
      "B": 42,
      "C": 43,
      "D": 44,
      "E": 45,
      "F": 46,
      "G": 47,
      "H": 48,
      "I": 49,
      "J": 50,
      "K": 51,
      "L": 52,
      "M": 53,
      "N": 54,
      "O": 55,
      "P": 56,
      "Q": 57,
      "R": 58,
      "S": 59,
      "T": 60,
      "U": 61,
      "V": 62,
      "W": 63,
      "X": 64,
      "Y": 65,
      "Z": 66,
      "[": 67,
      "\\": 68,
      "]": 69,
      "^": 70,
      "_": 71,
      "`": 72,
      "a": 73,
      "b": 74,
      "c": 75,
      "d": 76,
      "e": 77,
      "f": 78,
      "g": 79,
      "h": 80,
      "i": 81,
      "j": 82,
      "k": 83,
      "l": 84,
      "m": 85,
      "n": 86,
      "o": 87,
      "p": 88,
      "q": 89,
      "r": 90,
      "s": 91,
      "t": 92,
      "u": 93,
      "v": 94,
      "w": 95,
      "x": 96,
      "y": 97,
      "z": 98,
      "{": 99,
      "|": 100,
      "}": 101,
      "~": 102,
      "¡": 103,
      "¢": 104,
      "£": 105,
      "¤": 106,
      "¥": 107,
      "¦": 108,
      "§": 109,
      "¨": 110,
      "©": 111,
      "ª": 112,
      "«": 113,
      "¬": 114,
      "®": 115,
      "¯": 116,
      "°": 117,
      "±": 118,
      "²": 119,
      "³": 120,
      "´": 121,
      "µ": 122,
      "¶": 123,
      "·": 124,
      "¸": 125,
      "¹": 126,
      "º": 127,
      "»": 128,
      "¼": 129,
      "½": 130,
      "¾": 131,
      "¿": 132,
      "À": 133,
      "Á": 134,
      "Â": 135,
      "Ã": 136,
      "Ä": 137,
      "Å": 138,
      "Æ": 139,
      "Ç": 140,
      "È": 141,
      "É": 142,
      "Ê": 143,
      "Ë": 144,
      "Ì": 145,
      "Í": 146,
      "Î": 147,
      "Ï": 148,
      "Ð": 149,
      "Ñ": 150,
      "Ò": 151,
      "Ó": 152,
      "Ô": 153,
      "Õ": 154,
      "Ö": 155,
      "×": 156,
      "Ø": 157,
      "Ù": 158,
      "Ú": 159,
      "Û": 160,
      "Ü": 161,
      "Ý": 162,
      "Þ": 163,
      "ß": 164,
      "à": 165,
      "á": 166,
      "â": 167,
      "ã": 168,
      "ä": 169,
      "å": 170,
      "æ": 171,
      "ç": 172,
      "è": 173,
      "é": 174,
      "ê": 175,
      "ë": 176,
      "ì": 177,
      "í": 178,
      "î": 179,
      "ï": 180,
      "ð": 181,
      "ñ": 182,
      "ò": 183,
      "ó": 184,
      "ô": 185,
      "õ": 186,
      "ö": 187,
      "÷": 188,
      "ø": 189,
      "ù": 190,
      "ú": 191,
      "û": 192,
      "ü": 193,
      "ý": 194,
      "þ": 195,
      "ÿ": 196,
      "Ā": 197,
      "ā": 198,
      "Ă": 199,
      "ă": 200,
      "Ą": 201,
      "ą": 202,
      "Ć": 203,
      "ć": 204,
      "Ĉ": 205,
      "ĉ": 206,
      "Ċ": 207,
      "ċ": 208,
      "Č": 209,
      "č": 210,
      "Ď": 211,
      "ď": 212,
      "Đ": 213,
      "đ": 214,
      "Ē": 215,
      "ē": 216,
      "Ĕ": 217,
      "ĕ": 218,
      "Ė": 219,
      "ė": 220,
      "Ę": 221,
      "ę": 222,
      "Ě": 223,
      "ě": 224,
      "Ĝ": 225,
      "ĝ": 226,
      "Ğ": 227,
      "ğ": 228,
      "Ġ": 229,
      "ġ": 230,
      "Ģ": 231,
      "ģ": 232,
      "Ĥ": 233,
      "ĥ": 234,
      "Ħ": 235,
      "ħ": 236,
      "Ĩ": 237,
      "ĩ": 238,
      "Ī": 239,
      "ī": 240,
      "Ĭ": 241,
      "ĭ": 242,
      "Į": 243,
      "į": 244,
      "İ": 245,
      "ı": 246,
      "Ĳ": 247,
      "ĳ": 248,
      "Ĵ": 249,
      "ĵ": 250,
      "Ķ": 251,
      "ķ": 252,
      "ĸ": 253,
      "Ĺ": 254,
      "ĺ": 255,
      "Ļ": 256,
      "ļ": 257,
      "Ľ": 258,
      "ľ": 259,
      "Ŀ": 260,
      "ŀ": 261,
      "Ł": 262,
      "ł": 263,
      "Ń": 264,
      "Ġt": 265,
      "Ġa": 266,
      "ĠĠ": 267,
      "he": 268,
      "in": 269,
      "re": 270,
      "on": 271,
      "Ġthe": 272,
      "er": 273,
      "at": 274,
      "Ġs": 275,
      "Ġo": 276,
      "en": 277,
      "Ġc": 278,
      "es": 279,
      "is": 280,
      "Ġw": 281,
      "or": 282,
      "it": 283,
      "an": 284,
      "al": 285,
      "Ġp": 286,
      "ĠĠĠĠ": 287,
      "Ġf": 288,
      "Ġan": 289,
      "Ġb": 290,
      "Ġof": 291,
      "ing": 292,
      "ed": 293,
      "ar": 294,
      "Ġin": 295,
      "ou": 296,
      "Ġm": 297,
      "ion": 298,
      "Ġd": 299,
      "ic": 300,
      "Ġto": 301,
      "Ġand": 302,
      "le": 303,
      "ro": 304,
      "as": 305,
      "ent": 306,
      "Ġth": 307,
      "ct": 308,
      "Ġh": 309,
      "Ġe": 310,
      "el": 311,
      "Ġre": 312,
      "Ġn": 313,
      "st": 314,
      "il": 315,
      "om": 316,
      "Ġl": 317,
      "et": 318,
      "Ġis": 319,
      "im": 320,
      "ve": 321,
      "ol": 322,
      "âĢ": 323,
      "ĠT": 324,
      "Ġg": 325,
      "ation": 326,
      "id": 327,
      "ut": 328,
      "ĠĠĠ": 329,
      "ra": 330,
      "se": 331,
      "ot": 332,
      "ce": 333,
      "ow": 334,
      "ly": 335,
      "ur": 336,
      "ig": 337,
      "Ġbe": 338,
      "Ġfor": 339,
      "ch": 340,
      "Ġu": 341,
      "ĠA": 342,
      "am": 343,
      "Ġy": 344,
      "ĠS": 345,
      "ul": 346,
      "Ġthat": 347,
      "Ġon": 348,
      "ver": 349,
      "Ġst": 350,
      "ĠĠĠĠĠĠĠĠ": 351,
      "ĠI": 352,
      "ir": 353,
      "ĠC": 354,
      "if": 355,
      "Ġ(": 356,
      "ay": 357,
      "ith": 358,
      "Ġas": 359,
      "ad": 360,
      "Ġcon": 361,
      "um": 362,
      "Ġpro": 363,
      "od": 364,
      "Ġyou": 365,
      "Ġare": 366,
      "her": 367,
      "Ġwith": 368,
      "Ġit": 369,
      "Ġ=": 370,
      "ge": 371,
      "ter": 372,
      "Ġal": 373,
      "qu": 374,
      "Ġor": 375,
      "Ġwh": 376,
      "nd": 377,
      "Ġde": 378,
      "ist": 379,
      "ĠM": 380,
      "ate": 381,
      "ĠThe": 382,
      "ĠP": 383,
      "ab": 384,
      "Ġex": 385,
      "est": 386,
      "ers": 387,
      "th": 388,
      "res": 389,
      "pe": 390,
      "Ġv": 391,
      "ri": 392,
      "ess": 393,
      "Ġwe": 394,
      "ĠĠĠĠĠĠĠ": 395,
      "ment": 396,
      "us": 397,
      "os": 398,
      "Ġcom": 399,
      "ill": 400,
      "ĠB": 401,
      "op": 402,
      "and": 403,
      "ity": 404,
      "ore": 405,
      "rom": 406,
      "Ġhe": 407,
      "iv": 408,
      "ac": 409,
      "em": 410,
      "nt": 411,
      "Ġsu": 412,
      "Ġby": 413,
      "igh": 414,
      "ke": 415,
      "ies": 416,
      "âĢĻ": 417,
      "ain": 418,
      "ort": 419,
      "Ġr": 420,
      "ant": 421,
      "ĠH": 422,
      "pp": 423,
      "ld": 424,
      "ect": 425,
      "ĠW": 426,
      "ive": 427,
      "Ġcan": 428,
      "oc": 429,
      "ĊĠĠĠĠĠĠĠ": 430,
      "Ġat": 431,
      "ĠD": 432,
      "ĠF": 433,
      "un": 434,
      "Ġha": 435,
      "ĠE": 436,
      "ĠR": 437,
      "Ġne": 438,
      "Ġfrom": 439,
      "Ġch": 440,
      "ud": 441,
      "Ġse": 442,
      "ĊĠĠĠĠĠĠĠĠ": 443,
      "ĠN": 444,
      "ial": 445,
      "art": 446,
      "Ġnot": 447,
      "ure": 448,
      "pl": 449,
      "Ġle": 450,
      "ĊĠĠĠ": 451,
      "Ġthis": 452,
      "pt": 453,
      "Ġwas": 454,
      "ight": 455,
      "og": 456,
      "ĠL": 457,
      "ical": 458,
      "ĠâĢ": 459,
      "ions": 460,
      "all": 461,
      "end": 462,
      "Ġhave": 463,
      "ine": 464,
      "Ġsh": 465,
      "ĠG": 466,
      "Ġ\"": 467,
      "Ġim": 468,
      "elf": 469,
      "ere": 470,
      "ag": 471,
      "rou": 472,
      "Ġus": 473,
      "per": 474,
      "Ġab": 475,
      "out": 476,
      "Ġint": 477,
      "ich": 478,
      "ult": 479,
      "iz": 480,
      "our": 481,
      "age": 482,
      "ould": 483,
      "act": 484,
      "Ġwor": 485,
      "ost": 486,
      "ome": 487,
      "The": 488,
      "ust": 489,
      "ue": 490,
      "Ġk": 491,
      "ther": 492,
      "ard": 493,
      "ated": 494,
      "ell": 495,
      "gh": 496,
      "--": 497,
      "Ġpl": 498,
      "Ġwhe": 499,
      "ĠO": 500,
      "##": 501,
      "ff": 502,
      "are": 503,
      "ans": 504,
      "Ġen": 505,
      "cl": 506,
      "ple": 507,
      "ame": 508,
      "du": 509,
      "orm": 510,
      "ide": 511,
      "Ġres": 512,
      "ations": 513,
      "Ġyour": 514,
      "ak": 515,
      "Ġall": 516,
      "ast": 517,
      "ber": 518,
      "ind": 519,
      "Ġtheir": 520,
      "Ġwhich": 521,
      "ass": 522,
      "Ġwill": 523,
      "Ġad": 524,
      "Ġcont": 525,
      "cc": 526,
      "port": 527,
      "ction": 528,
      "ous": 529,
      "ĠU": 530,
      "int": 531,
      "ĠIn": 532,
      "able": 533,
      "ap": 534,
      "Ġthey": 535,
      "Ġdo": 536,
      "ew": 537,
      "ĠJ": 538,
      "ĠTh": 539,
      "ble": 540,
      "ong": 541,
      "ire": 542,
      "Ġdis": 543,
      "ip": 544,
      "Ġhas": 545,
      "ep": 546,
      "ents": 547,
      "ary": 548,
      "Ġmore": 549,
      "one": 550,
      "ime": 551,
      "Ġif": 552,
      "ach": 553,
      "Ġcl": 554,
      "Ġme": 555,
      "ks": 556,
      "vel": 557,
      "ry": 558,
      "ood": 559,
      "ance": 560,
      "ear": 561,
      "ence": 562,
      "'s": 563,
      "Ġ-": 564,
      "Âł": 565,
      "so": 566,
      "ex": 567,
      "Ġ$": 568,
      "ase": 569,
      "ru": 570,
      "âĢĿ": 571,
      "Ġone": 572,
      "Ġper": 573,
      ").": 574,
      "ual": 575,
      "ign": 576,
      "ia": 577,
      "ater": 578,
      "Ġother": 579,
      "ress": 580,
      "ath": 581,
      "ĊĠĠĠĠĠĠĠĠĠĠĠ": 582,
      "Ġman": 583,
      "ile": 584,
      "Ġout": 585,
      "ang": 586,
      "Ġj": 587,
      "Ġbut": 588,
      "ild": 589,
      "ition": 590,
      "ose": 591,
      "ice": 592,
      "ake": 593,
      "Ġar": 594,
      "Ġcomp": 595,
      "Ġun": 596,
      "),": 597,
      "ace": 598,
      "con": 599,
      "Ġ'": 600,
      "ord": 601,
      "ens": 602,
      "Ġso": 603,
      "ely": 604,
      "ount": 605,
      "ack": 606,
      "Ġnum": 607,
      "Ġalso": 608,
      "Ġself": 609,
      "au": 610,
      "form": 611,
      "ite": 612,
      "Ġ\\": 613,
      "Ġpre": 614,
      "av": 615,
      "Ġqu": 616,
      "ors": 617,
      "ub": 618,
      "Ġli": 619,
      "ĠâĢľ": 620,
      "ok": 621,
      "Ġpart": 622,
      "Ġwere": 623,
      "very": 624,
      "Ġev": 625,
      "ces": 626,
      "Ġ+": 627,
      "iff": 628,
      "ms": 629,
      "Ġsp": 630,
      "Ġabout": 631,
      "ph": 632,
      "Ġsy": 633,
      "ound": 634,
      "ĠSt": 635,
      "ory": 636,
      "ree": 637,
      "Ġsc": 638,
      "ric": 639,
      "now": 640,
      "urn": 641,
      "Ġits": 642,
      "reat": 643,
      "__": 644,
      "Ġapp": 645,
      "Ġstud": 646,
      "):": 647,
      "Ġup": 648,
      "Ġspe": 649,
      "Ġte": 650,
      "low": 651,
      "..": 652,
      "nder": 653,
      "Ġro": 654,
      "ĠK": 655,
      "Ġwhen": 656,
      "Ġbec": 657,
      "Ġthan": 658,
      "Ġthere": 659,
      "ject": 660,
      "Ġcomm": 661,
      "Ġtw": 662,
      "ail": 663,
      "ata": 664,
      "ef": 665,
      "Ġdiff": 666,
      "ish": 667,
      "Ġwho": 668,
      "ĠIt": 669,
      "Ġhow": 670,
      "ays": 671,
      "Ġpe": 672,
      "ates": 673,
      "Ġsome": 674,
      "Ġtime": 675,
      "Ġinto": 676,
      "Ġtr": 677,
      "ĠV": 678,
      "Ġdef": 679,
      "ĠThis": 680,
      "Ġthese": 681,
      "we": 682,
      "ys": 683,
      "Ġmay": 684,
      "Ġind": 685,
      "ings": 686,
      "Ġbet": 687,
      "ari": 688,
      "vers": 689,
      "Ġour": 690,
      "cre": 691,
      "irst": 692,
      "Ġthem": 693,
      "Ġcol": 694,
      "Ġhis": 695,
      "olog": 696,
      "ĠCh": 697,
      "Ġgo": 698,
      "ove": 699,
      "Ġtra": 700,
      "Ġuse": 701,
      "ally": 702,
      "Ġwork": 703,
      "les": 704,
      "Ġcons": 705,
      "erv": 706,
      "ob": 707,
      "rit": 708,
      "Ġunder": 709,
      "Ġknow": 710,
      "ĠY": 711,
      "Ġtwo": 712,
      "Ġra": 713,
      "ough": 714,
      "ert": 715,
      "Ġyear": 716,
      "oint": 717,
      "Ġrec": 718,
      "Ġover": 719,
      "ause": 720,
      "rough": 721,
      "ople": 722,
      "get": 723,
      "Ġacc": 724,
      "ific": 725,
      "lect": 726,
      "ient": 727,
      "Ġag": 728,
      "tern": 729,
      "Ġany": 730,
      "Ġx": 731,
      "row": 732,
      "clud": 733,
      "ie": 734,
      "Ġbeen": 735,
      "Ġco": 736,
      "cess": 737,
      "self": 738,
      "Ġneed": 739,
      "ren": 740,
      "ft": 741,
      "Ġact": 742,
      "Ġrel": 743,
      "rib": 744,
      "Ġpr": 745,
      "Ġdes": 746,
      "eth": 747,
      "ities": 748,
      "Ġwould": 749,
      "stem": 750,
      "Ġbl": 751,
      "Ġval": 752,
      "mer": 753,
      "Ġass": 754,
      "Ġnew": 755,
      "ian": 756,
      "Ġob": 757,
      "ange": 758,
      "ll": 759,
      "ons": 760,
      "ib": 761,
      "----": 762,
      "lp": 763,
      "red": 764,
      "lic": 765,
      "Ġimport": 766,
      "te": 767,
      "ular": 768,
      "Ġpos": 769,
      "Ġdiffere": 770,
      "ck": 771,
      "ating": 772,
      "ics": 773,
      "Ġpeople": 774,
      "eg": 775,
      "ments": 776,
      "ook": 777,
      "Ġwhat": 778,
      "Ġequ": 779,
      "Ġfirst": 780,
      "Ġ#": 781,
      "Ġsuch": 782,
      "Ġhelp": 783,
      "Ġgen": 784,
      "als": 785,
      "erm": 786,
      "Ġget": 787,
      "Ġmost": 788,
      "ise": 789,
      "ative": 790,
      "Ġno": 791,
      "ning": 792,
      "Ġonly": 793,
      "Ġret": 794,
      "Ġsa": 795,
      "Ġlike": 796,
      "ution": 797,
      "Ġadd": 798,
      "In": 799,
      "oth": 800,
      "ext": 801,
      "Ġhad": 802,
      "Ġused": 803,
      "ffect": 804,
      "Ġprodu": 805,
      "Ġam": 806,
      "Ġform": 807,
      "Ġspec": 808,
      "Ġnumber": 809,
      "alth": 810,
      "ov": 811,
      "Ġsub": 812,
      "ict": 813,
      "Ġ[": 814,
      "Ġprov": 815,
      "ds": 816,
      "ram": 817,
      "ility": 818,
      "ĠâĢĵ": 819,
      "',": 820,
      "Ġmany": 821,
      "ween": 822,
      "Ġinclud": 823,
      "ract": 824,
      "ational": 825,
      "ink": 826,
      "ced": 827,
      "Ġthrough": 828,
      "Ġmod": 829,
      "hed": 830,
      "ĊĠĠĠĠĠĠĠĠĠĠĠĠĠĠĠĠ": 831,
      "velop": 832,
      "hen": 833,
      "ool": 834,
      "Ġfun": 835,
      "ty": 836,
      "its": 837,
      "cept": 838,
      "Ġreg": 839,
      "ible": 840,
      "round": 841,
      "Ġfe": 842,
      "Ġph": 843,
      "Ġbetween": 844,
      "pro": 845,
      "ize": 846,
      "fter": 847,
      "Ġwhere": 848,
      "Ġchild": 849,
      "ark": 850,
      "Ġsol": 851,
      "own": 852,
      "Ġdi": 853,
      "Ġsystem": 854,
      "ful": 855,
      "Ġem": 856,
      "Ġoff": 857,
      "Ġset": 858,
      "ne": 859,
      "ample": 860,
      "Ġrem": 861,
      "Ġsim": 862,
      "Ġexp": 863,
      "ĠUn": 864,
      "cy": 865,
      "ures": 866,
      "iss": 867,
      "Ġthen": 868,
      "ower": 869,
      "Ġfl": 870,
      "ased": 871,
      "uring": 872,
      "\",": 873,
      "Ġinv": 874,
      "Ġshould": 875,
      "Ġinf": 876,
      "ps": 877,
      "ax": 878,
      "()": 879,
      "ÂłÂł": 880,
      "com": 881,
      "ick": 882,
      "Ġeach": 883,
      "hes": 884,
      "hat": 885,
      "ues": 886,
      "ĊĊĠĠĠ": 887,
      "Ġdevelop": 888,
      "Ġinter": 889,
      "Ġresult": 890,
      "Ġsm": 891,
      "arg": 892,
      "Ġatt": 893,
      "ss": 894,
      "pect": 895,
      "Ġfol": 896,
      "vi": 897,
      "Ġvari": 898,
      "Ġdifferent": 899,
      "Ġdist": 900,
      "Ġtrans": 901,
      "fore": 902,
      "Ġty": 903,
      "ng": 904,
      "Ġpol": 905,
      "Ġmat": 906,
      "ied": 907,
      "ten": 908,
      "Ġac": 909,
      "Ġreturn": 910,
      "Ġsur": 911,
      "ever": 912,
      "arch": 913,
      "ĊĠĠĠĠĠĠĠĠĠĠĠĠĠĠĠ": 914,
      "Ġmake": 915,
      "Ġdata": 916,
      "put": 917,
      "ars": 918,
      "Ġinst": 919,
      "aw": 920,
      "Ġfind": 921,
      "Ġsupp": 922,
      "Ġpoint": 923,
      "iel": 924,
      "Ġbu": 925,
      "resent": 926,
      "Ġcould": 927,
      "der": 928,
      "Ġwell": 929,
      "ines": 930,
      "ident": 931,
      "Ġcall": 932,
      "hem": 933,
      "Ġdet": 934,
      "ting": 935,
      "Ġwater": 936,
      "Ġproble": 937,
      "ife": 938,
      "Ġke": 939,
      "Ġstr": 940,
      "Ġjust": 941,
      "ci": 942,
      "Ġfact": 943,
      "Ġgra": 944,
      "ade": 945,
      "Ġ{": 946,
      "\"\"": 947,
      "Ġrequ": 948,
      "ĠHe": 949,
      "ix": 950,
      "imes": 951,
      "ered": 952,
      "Ġbecause": 953,
      "ec": 954,
      "ock": 955,
      "Ġfollow": 956,
      "uch": 957,
      "Ġyears": 958,
      "))": 959,
      "Ġusing": 960,
      "ont": 961,
      "Ġhigh": 962,
      "bers": 963,
      "ists": 964,
      "ins": 965,
      "####": 966,
      "ically": 967,
      "Ġlear": 968,
      "wn": 969,
      "ily": 970,
      "Ġtest": 971,
      "other": 972,
      "ants": 973,
      "Ġeven": 974,
      "gan": 975,
      "Ġgiv": 976,
      "chn": 977,
      "Ġcur": 978,
      "Ġway": 979,
      "Ġhealth": 980,
      "Ġgener": 981,
      "}{": 982,
      "Ġsame": 983,
      "Th": 984,
      "Ġevery": 985,
      "Ġsign": 986,
      "Ġincre": 987,
      "gy": 988,
      "ts": 989,
      "ĠWe": 990,
      "formation": 991,
      "ĠPro": 992,
      "Ġsee": 993,
      "chool": 994,
      "aking": 995,
      "val": 996,
      "ually": 997,
      "Ġpers": 998,
      "rac": 999,
      "==": 1000,
      "Ġcent": 1001,
      "ural": 1002,
      "Ġcount": 1003,
      "ology": 1004,
      "Ġafter": 1005,
      "ature": 1006,
      "ruct": 1007,
      "Ġfound": 1008,
      "uc": 1009,
      "ĠIf": 1010,
      "oci": 1011,
      "Ġlong": 1012,
      "Ġbel": 1013,
      "Ġed": 1014,
      "Ġear": 1015,
      "Ġref": 1016,
      "ving": 1017,
      "ork": 1018,
      "cent": 1019,
      "inal": 1020,
      "Ġcor": 1021,
      "ince": 1022,
      "ited": 1023,
      "Ġboth": 1024,
      "ond": 1025,
      "Ġrese": 1026,
      "Ġthose": 1027,
      "ness": 1028,
      "vent": 1029,
      "Ġher": 1030,
      "Ġdoes": 1031,
      "Ġext": 1032,
      "the": 1033,
      "Ġexper": 1034,
      "eng": 1035,
      "ode": 1036,
      "ages": 1037,
      "Ġeffect": 1038,
      "ases": 1039,
      "oy": 1040,
      "Ġrep": 1041,
      "$$": 1042,
      "Ġvery": 1043,
      "Ġcomple": 1044,
      "read": 1045,
      "Ġend": 1046,
      "Ġprocess": 1047,
      "old": 1048,
      "Ġmin": 1049,
      "Ġright": 1050,
      "ward": 1051,
      "els": 1052,
      "stand": 1053,
      "Ġpat": 1054,
      "ĠHow": 1055,
      "cul": 1056,
      "Ġcre": 1057,
      "ism": 1058,
      "name": 1059,
      "Ġent": 1060,
      "Ġel": 1061,
      "ined": 1062,
      "ices": 1063,
      "Ġworld": 1064,
      "nce": 1065,
      "Ġmed": 1066,
      "ved": 1067,
      "par": 1068,
      "Ġdec": 1069,
      "ĠFor": 1070,
      "meric": 1071,
      "land": 1072,
      "Ġ.": 1073,
      "Ġpartic": 1074,
      "up": 1075,
      "ute": 1076,
      "Ġdisc": 1077,
      "cial": 1078,
      "Ġcar": 1079,
      "pr": 1080,
      "Ġbeing": 1081,
      "Ġ*": 1082,
      "Ġexpl": 1083,
      "Ġappro": 1084,
      "ĠAl": 1085,
      "Ġdep": 1086,
      "Ġprog": 1087,
      "Ġgrou": 1088,
      "Ġ&": 1089,
      "ĠCom": 1090,
      "ody": 1091,
      "Ġloc": 1092,
      "ential": 1093,
      "de": 1094,
      "ivid": 1095,
      "frac": 1096,
      "ĠAn": 1097,
      "Ġbo": 1098,
      "ized": 1099,
      "Ġfunction": 1100,
      "Ġstudents": 1101,
      "ety": 1102,
      "Ġshow": 1103,
      "Ġhum": 1104,
      "Ġmuch": 1105,
      "Ġsmall": 1106,
      "arm": 1107,
      "Ġread": 1108,
      "Ġimportant": 1109,
      "Ġtechn": 1110,
      "Ġwhile": 1111,
      "led": 1112,
      "Ġmy": 1113,
      "cer": 1114,
      "Ġexample": 1115,
      "Ġins": 1116,
      "ection": 1117,
      "ethod": 1118,
      "li": 1119,
      "Ġinformation": 1120,
      "ĠRe": 1121,
      "hip": 1122,
      "Ġback": 1123,
      "Ġconst": 1124,
      "Ġmon": 1125,
      "Ġlevel": 1126,
      "Ġposs": 1127,
      "rent": 1128,
      "iron": 1129,
      "Ġshe": 1130,
      "Ġsaid": 1131,
      "tle": 1132,
      "Ġca": 1133,
      "Ġcal": 1134,
      "Ġsk": 1135,
      "Ġstart": 1136,
      "('": 1137,
      "Ġpub": 1138,
      "ĠAs": 1139,
      "irect": 1140,
      "Ġlead": 1141,
      "Ġvalue": 1142,
      "ĠAmeric": 1143,
      "ield": 1144,
      ".,": 1145,
      "âĢ¢": 1146,
      "to": 1147,
      "ides": 1148,
      "ivers": 1149,
      "Ġchildren": 1150,
      "ator": 1151,
      "Ġclass": 1152,
      "Ġ:": 1153,
      "uth": 1154,
      "Ġduring": 1155,
      "ather": 1156,
      "und": 1157,
      "Ġstate": 1158,
      "Ġline": 1159,
      "ale": 1160,
      "ĊĊ": 1161,
      "ality": 1162,
      "io": 1163,
      "gg": 1164,
      "ption": 1165,
      "air": 1166,
      "ted": 1167,
      ".âĢĿ": 1168,
      "Ġart": 1169,
      "ave": 1170,
      "Ġresp": 1171,
      "Ġown": 1172,
      "Ġlife": 1173,
      "ĠEx": 1174,
      "Ġconf": 1175,
      "Ġthree": 1176,
      "Ġfam": 1177,
      "Ġimp": 1178,
      "Ġmust": 1179,
      "ets": 1180,
      "ĠThey": 1181,
      "Ġquest": 1182,
      "any": 1183,
      "lo": 1184,
      "str": 1185,
      "Ġstudy": 1186,
      "Ġless": 1187,
      "arge": 1188,
      "Ġmade": 1189,
      "Ġcommun": 1190,
      "ider": 1191,
      "Ġdown": 1192,
      "ience": 1193,
      "Ġpar": 1194,
      "Ġnow": 1195,
      "Ġbefore": 1196,
      "Ġgrow": 1197,
      "Ġbr": 1198,
      "'t": 1199,
      "Ġtake": 1200,
      "Ġmain": 1201,
      "Ġav": 1202,
      "ergy": 1203,
      "akes": 1204,
      "ves": 1205,
      "dition": 1206,
      "Ġgood": 1207,
      "Ġperson": 1208,
      "Ġâ": 1209,
      "ĠAr": 1210,
      "ral": 1211,
      "ĠYou": 1212,
      "Ġunderstand": 1213,
      "app": 1214,
      "Ġpower": 1215,
      "ull": 1216,
      "ives": 1217,
      "Ġpop": 1218,
      "ĊĊĠĠĠĠĠĠĠ": 1219,
      "This": 1220,
      "oss": 1221,
      "Ġser": 1222,
      "Ġfood": 1223,
      "``": 1224,
      "ven": 1225,
      "uss": 1226,
      "Ġcalled": 1227,
      "over": 1228,
      "Ġmult": 1229,
      "Ġhand": 1230,
      "Ġgl": 1231,
      "sc": 1232,
      "Ġagain": 1233,
      "],": 1234,
      "Ġschool": 1235,
      "itions": 1236,
      "cond": 1237,
      "ains": 1238,
      "itive": 1239,
      "ify": 1240,
      "tt": 1241,
      "viron": 1242,
      "Ġz": 1243,
      "rain": 1244,
      "Ġest": 1245,
      "ired": 1246,
      "Ġop": 1247,
      "omet": 1248,
      "--------": 1249,
      "Ġgiven": 1250,
      "Ġoften": 1251,
      "ĠQ": 1252,
      "Ġaround": 1253,
      "ability": 1254,
      "Ġlook": 1255,
      "(\"": 1256,
      "ency": 1257,
      "Ġap": 1258,
      "ross": 1259,
      "Ġcommon": 1260,
      "Ġmet": 1261,
      "')": 1262,
      "Ġlet": 1263,
      "Ġcontin": 1264,
      "ision": 1265,
      "rol": 1266,
      "Ġday": 1267,
      "||": 1268,
      "Ġi": 1269,
      "Ġlit": 1270,
      "Ġhist": 1271,
      "ĠSe": 1272,
      "Ġocc": 1273,
      "ns": 1274,
      "irc": 1275,
      "âĢĶ": 1276,
      "Ġele": 1277,
      "from": 1278,
      "ffic": 1279,
      "Ġactiv": 1280,
      "ters": 1281,
      "Ġmem": 1282,
      "ĠThere": 1283,
      "Ġmeas": 1284,
      "iqu": 1285,
      "Ġplan": 1286,
      "ĠInd": 1287,
      "{\\": 1288,
      "ious": 1289,
      "Ġwant": 1290,
      "Ġallow": 1291,
      "Ġtreat": 1292,
      "Ġnumbers": 1293,
      "ug": 1294,
      "line": 1295,
      "Ġserv": 1296,
      "ished": 1297,
      "ared": 1298,
      "Ġredu": 1299,
      "':": 1300,
      "atic": 1301,
      "Ġbody": 1302,
      "ource": 1303,
      "Ġbre": 1304,
      "Ġwithin": 1305,
      "Ġmethod": 1306,
      "ulation": 1307,
      "Ġve": 1308,
      "Ġprot": 1309,
      "Ġcell": 1310,
      "Ġvi": 1311,
      "day": 1312,
      "omen": 1313,
      "Ġproduct": 1314,
      "Ġcle": 1315,
      "ĠBut": 1316,
      "ank": 1317,
      "Ġeas": 1318,
      "sw": 1319,
      "Ġelect": 1320,
      "ĠĠĠĠĠĠĠĠĠĠĠĠĠĠĠĠ": 1321,
      "Ġwrit": 1322,
      "ner": 1323,
      "Ġproper": 1324,
      "Ġthink": 1325,
      "ĠNew": 1326,
      "St": 1327,
      "Ġsupport": 1328,
      "Ġstand": 1329,
      "Ġdesign": 1330,
      "ids": 1331,
      "Ġtri": 1332,
      "ray": 1333,
      "ense": 1334,
      ".\"": 1335,
      "Ġris": 1336,
      "\":": 1337,
      "ash": 1338,
      "Ġorgan": 1339,
      "ization": 1340,
      "oh": 1341,
      "Ġdise": 1342,
      "right": 1343,
      "vironment": 1344,
      "Ġarea": 1345,
      "Ġide": 1346,
      "raph": 1347,
      "pos": 1348,
      "Ġproblem": 1349,
      "ital": 1350,
      "ĠCon": 1351,
      "ples": 1352,
      "Ġdid": 1353,
      "erest": 1354,
      "ional": 1355,
      "ately": 1356,
      "Ġchange": 1357,
      "Ġresearch": 1358,
      "acter": 1359,
      "Ġtem": 1360,
      "['": 1361,
      "Ġanother": 1362,
      "Ġtyp": 1363,
      "Ġident": 1364,
      "Ġsym": 1365,
      "Ġgu": 1366,
      "Ġbuild": 1367,
      "def": 1368,
      "Ġpass": 1369,
      "Ġ\"\"\"": 1370,
      "ocial": 1371,
      "Ġmean": 1372,
      "ots": 1373,
      "Ġplay": 1374,
      "ah": 1375,
      "Ġreal": 1376,
      "hers": 1377,
      "Ġpract": 1378,
      "Ġ==": 1379,
      "Ġ/": 1380,
      "Ġanal": 1381,
      "ertain": 1382,
      "Ġbeh": 1383,
      "Ġmight": 1384,
      "iversity": 1385,
      "Ġknown": 1386,
      "Ġthough": 1387,
      "Ġgre": 1388,
      "Ġstill": 1389,
      "mon": 1390,
      "way": 1391,
      "aj": 1392,
      "']": 1393,
      "Ġhere": 1394,
      "ror": 1395,
      "Ġhim": 1396,
      "ead": 1397,
      "Ġlist": 1398,
      "_{": 1399,
      "py": 1400,
      "âĢĵ": 1401,
      "Ġgreat": 1402,
      "Ġchang": 1403,
      "ively": 1404,
      "ĠAnd": 1405,
      "Ġdirect": 1406,
      "ier": 1407,
      "ape": 1408,
      "Ġoper": 1409,
      "ury": 1410,
      "Ġcare": 1411,
      "Ġ|": 1412,
      "Ġwithout": 1413,
      "Ġdesc": 1414,
      "here": 1415,
      "Ġdon": 1416,
      "...": 1417,
      "Ġname": 1418,
      "set": 1419,
      "Ġhuman": 1420,
      "Ġenergy": 1421,
      "Ġincluding": 1422,
      "Ġobject": 1423,
      "ĠThese": 1424,
      "Ġadv": 1425,
      "Ġgover": 1426,
      "Ġorder": 1427,
      "ĠWh": 1428,
      "ividual": 1429,
      "ouse": 1430,
      "Ġsum": 1431,
      "Ġmeans": 1432,
      "**": 1433,
      "ination": 1434,
      "Ġorig": 1435,
      "Ġvis": 1436,
      "agn": 1437,
      "aterial": 1438,
      "br": 1439,
      "iod": 1440,
      "Ġplace": 1441,
      "arent": 1442,
      "Ġbas": 1443,
      "bs": 1444,
      "Ġter": 1445,
      "Ġinvol": 1446,
      "____": 1447,
      "Ġcour": 1448,
      "ron": 1449,
      "rue": 1450,
      "Ġlearn": 1451,
      "Ġtop": 1452,
      "ĠâĢĺ": 1453,
      "ote": 1454,
      "Ġtype": 1455,
      "ER": 1456,
      "Ġland": 1457,
      "Ġreport": 1458,
      "ining": 1459,
      "Ġpresent": 1460,
      "tain": 1461,
      "ĠTo": 1462,
      "Ġcurrent": 1463,
      "ason": 1464,
      "ries": 1465,
      "ton": 1466,
      "Ġfollowing": 1467,
      "ified": 1468,
      "Ġgroup": 1469,
      "}$": 1470,
      "ior": 1471,
      "Ġche": 1472,
      ",âĢĿ": 1473,
      "path": 1474,
      "ways": 1475,
      "ression": 1476,
      "alk": 1477,
      "ental": 1478,
      "view": 1479,
      "min": 1480,
      "Ġ)": 1481,
      "less": 1482,
      "Ġsince": 1483,
      "sh": 1484,
      "ources": 1485,
      "ording": 1486,
      "Ġgovern": 1487,
      "Ġsecond": 1488,
      "ilar": 1489,
      "\")": 1490,
      "Ġcalcul": 1491,
      "Ġpossible": 1492,
      "angu": 1493,
      "}\\": 1494,
      "Ġpres": 1495,
      "Ġlim": 1496,
      "oms": 1497,
      "atch": 1498,
      "lish": 1499,
      "Ġinteg": 1500,
      "Ġinterest": 1501,
      "Ġindividual": 1502,
      "conom": 1503,
      "Ġlo": 1504,
      "Ġeduc": 1505,
      "Ġproject": 1506,
      "ĠIs": 1507,
      "^{": 1508,
      "ĠDe": 1509,
      "man": 1510,
      "of": 1511,
      "Ġfew": 1512,
      "Ġhy": 1513,
      "Ġlarge": 1514,
      "ength": 1515,
      "Ġinc": 1516,
      "Ġnon": 1517,
      "ĠAd": 1518,
      "ration": 1519,
      "requ": 1520,
      "ĠHowever": 1521,
      "Ġcap": 1522,
      "It": 1523,
      "//": 1524,
      "Ġphys": 1525,
      "ccess": 1526,
      "Ġcase": 1527,
      "yn": 1528,
      "Ġsay": 1529,
      "ĠWhat": 1530,
      "Ġpot": 1531,
      "ames": 1532,
      "imate": 1533,
      "not": 1534,
      "Ġsl": 1535,
      "AT": 1536,
      "Ġ<": 1537,
      "Ġbest": 1538,
      "Ġsit": 1539,
      "ox": 1540,
      "Ġprof": 1541,
      "Ġpur": 1542,
      "data": 1543,
      "ument": 1544,
      "xt": 1545,
      "Ġpublic": 1546,
      "outh": 1547,
      "orn": 1548,
      "for": 1549,
      "Ġlight": 1550,
      "###": 1551,
      "âĢľ": 1552,
      "Ġfin": 1553,
      "ats": 1554,
      "ery": 1555,
      "Ġcaus": 1556,
      "Ġopen": 1557,
      "ĠWhen": 1558,
      "nect": 1559,
      "Ġmove": 1560,
      "Ġmaterial": 1561,
      "Ġbased": 1562,
      "ole": 1563,
      "ĠSh": 1564,
      "Ġrest": 1565,
      "uro": 1566,
      "Ġiss": 1567,
      "Ġlast": 1568,
      "Ġdeterm": 1569,
      "Ġimpro": 1570,
      "work": 1571,
      "Ġchar": 1572,
      "ym": 1573,
      "Ġeng": 1574,
      "Ġkeep": 1575,
      "ently": 1576,
      "Ġ`": 1577,
      "dict": 1578,
      "ering": 1579,
      "Ġprint": 1580,
      "ĠEng": 1581,
      "Ġtimes": 1582,
      "Ġenvironment": 1583,
      "Ġmark": 1584,
      "ĠRes": 1585,
      "We": 1586,
      "Ġlog": 1587,
      "Ġgr": 1588,
      "Ġtry": 1589,
      "cing": 1590,
      "olution": 1591,
      "ĊĠĠĠĠĠĠĠĠĠĠĠĠĠĠĠĠĠĠĠ": 1592,
      "Ġaddition": 1593,
      "Ġopp": 1594,
      "Ġbetter": 1595,
      "ĠX": 1596,
      "Ġlaw": 1597,
      "ium": 1598,
      "Ġet": 1599,
      "ences": 1600,
      "plic": 1601,
      "ĠCl": 1602,
      "oun": 1603,
      "Ġappe": 1604,
      "Ġinclude": 1605,
      "Ġvol": 1606,
      "Ġansw": 1607,
      "Ġrepresent": 1608,
      "Ġben": 1609,
      "iness": 1610,
      "Ġ$\\": 1611,
      "Ġnat": 1612,
      "Ġperform": 1613,
      "ends": 1614,
      "iles": 1615,
      "Ġproblems": 1616,
      "az": 1617,
      "Ġparticular": 1618,
      "ables": 1619,
      "ients": 1620,
      "Ġprob": 1621,
      "ern": 1622,
      "ware": 1623,
      "Ġtoo": 1624,
      "ians": 1625,
      "Ġstep": 1626,
      "Ġbeg": 1627,
      "ards": 1628,
      "ask": 1629,
      "Ġhome": 1630,
      "text": 1631,
      "Ġexam": 1632,
      "Ġpercent": 1633,
      "Ġdevelopment": 1634,
      "raw": 1635,
      "Ġimm": 1636,
      "Ġsocial": 1637,
      "ention": 1638,
      "vert": 1639,
      "Ġmulti": 1640,
      "Ġconsider": 1641,
      "gen": 1642,
      "ule": 1643,
      "Ġbecome": 1644,
      "Ġprogram": 1645,
      "ĠNone": 1646,
      "ĠSo": 1647,
      "ĠUniversity": 1648,
      "Ġmill": 1649,
      "Ġsqu": 1650,
      "Ġmodel": 1651,
      "rop": 1652,
      "Ġlab": 1653,
      "Ġsever": 1654,
      "Ġrun": 1655,
      "Ġcomb": 1656,
      "Ġhapp": 1657,
      "Ġlow": 1658,
      "Ġthings": 1659,
      "Ġfour": 1660,
      "ided": 1661,
      "Ġcirc": 1662,
      "gs": 1663,
      "Ġoccur": 1664,
      "arc": 1665,
      "ometh": 1666,
      "rite": 1667,
      "ĠZ": 1668,
      "Ġdel": 1669,
      "Ġelse": 1670,
      "ret": 1671,
      "lu": 1672,
      "ither": 1673,
      "Ġdisease": 1674,
      "If": 1675,
      "Ġant": 1676,
      "omething": 1677,
      "Ġrange": 1678,
      "Ġer": 1679,
      "Ġpost": 1680,
      "ailable": 1681,
      "ological": 1682,
      "Ġold": 1683,
      "Ġcho": 1684,
      "ajor": 1685,
      "Ġcertain": 1686,
      "mod": 1687,
      "Ġ$$": 1688,
      "Ġrad": 1689,
      "====": 1690,
      "Ġhig": 1691,
      "ĠPh": 1692,
      "amp": 1693,
      "icle": 1694,
      "osed": 1695,
      "Ġlearning": 1696,
      "ĉĉ": 1697,
      "Ġcontrol": 1698,
      "Ġcomput": 1699,
      "ived": 1700,
      "ON": 1701,
      "Ġcost": 1702,
      "Ġhead": 1703,
      "Ġprovide": 1704,
      "face": 1705,
      "ances": 1706,
      "orth": 1707,
      "Ġresults": 1708,
      "utions": 1709,
      "eral": 1710,
      "Ġturn": 1711,
      "What": 1712,
      "Ġpri": 1713,
      "Ġperiod": 1714,
      "Ġabove": 1715,
      "duct": 1716,
      "Ġrisk": 1717,
      "Ġunt": 1718,
      "Ġpain": 1719,
      "ww": 1720,
      "eter": 1721,
      "ane": 1722,
      "IN": 1723,
      "ills": 1724,
      "urther": 1725,
      "ems": 1726,
      "Ġamount": 1727,
      "Ġsignific": 1728,
      "imal": 1729,
      "Ġvalues": 1730,
      "by": 1731,
      "Ġtot": 1732,
      "ission": 1733,
      "Ġess": 1734,
      "ÂłÂłÂłÂł": 1735,
      "Ġwomen": 1736,
      "uthor": 1737,
      "ĠAmerican": 1738,
      "._": 1739,
      "Ġair": 1740,
      "math": 1741,
      "ĠPl": 1742,
      "Ġblood": 1743,
      "Ġang": 1744,
      "Ġspace": 1745,
      "Ġstruct": 1746,
      "Ġlangu": 1747,
      "ann": 1748,
      "be": 1749,
      "Ġtre": 1750,
      "ember": 1751,
      "Ġmus": 1752,
      "Ġsomething": 1753,
      "Ġdue": 1754,
      "Ġes": 1755,
      "play": 1756,
      "Ġkey": 1757,
      "aces": 1758,
      "Ġpo": 1759,
      "Ġmeasure": 1760,
      "Ġside": 1761,
      "Ġcreate": 1762,
      "Ġcult": 1763,
      "lished": 1764,
      "Ġseveral": 1765,
      "Ġagainst": 1766,
      "Ġable": 1767,
      "Ġcond": 1768,
      "ctions": 1769,
      "Ġalong": 1770,
      "Ġlarg": 1771,
      "ume": 1772,
      "Ġlik": 1773,
      "oid": 1774,
      "Ġdev": 1775,
      "ocus": 1776,
      "idence": 1777,
      "ĠLe": 1778,
      "Ġalways": 1779,
      "co": 1780,
      "Ġeconom": 1781,
      "alse": 1782,
      "ised": 1783,
      "Ġwar": 1784,
      "Ġquestion": 1785,
      "ories": 1786,
      "Ġterm": 1787,
      "Ġearly": 1788,
      "ĠCol": 1789,
      "Ġobs": 1790,
      "ES": 1791,
      "Ġbi": 1792,
      "Ġcontain": 1793,
      "yle": 1794,
      "Ġleft": 1795,
      "ogn": 1796,
      "Ġcause": 1797,
      "Ġamong": 1798,
      "Ġfore": 1799,
      "use": 1800,
      "Ġconcept": 1801,
      "import": 1802,
      "stit": 1803,
      "mit": 1804,
      "rect": 1805,
      "aper": 1806,
      "vious": 1807,
      "Ġsing": 1808,
      "etic": 1809,
      "type": 1810,
      "ĠSp": 1811,
      "ma": 1812,
      "ek": 1813,
      "Ġaffect": 1814,
      "Ġsimilar": 1815,
      "Ġput": 1816,
      "Ġview": 1817,
      "Ġmajor": 1818,
      "Ġnear": 1819,
      "Ġfamily": 1820,
      "ctor": 1821,
      "Ġhistory": 1822,
      "Ġtext": 1823,
      "Ġtoget": 1824,
      "Ġtogether": 1825,
      "ĠâĢĶ": 1826,
      "Ġsaf": 1827,
      "onse": 1828,
      "Ġgovernment": 1829,
      "rist": 1830,
      "Ġbus": 1831,
      "class": 1832,
      "ĠCan": 1833,
      "Ġmaking": 1834,
      "ploy": 1835,
      "Ġavailable": 1836,
      "Ġinit": 1837,
      "ateg": 1838,
      "me": 1839,
      "To": 1840,
      "ograph": 1841,
      "ta": 1842,
      "Ġnext": 1843,
      "='": 1844,
      "}}": 1845,
      "ams": 1846,
      "://": 1847,
      "Ġopt": 1848,
      "Ġareas": 1849,
      "Ġassoci": 1850,
      "ling": 1851,
      "Ġnorm": 1852,
      "col": 1853,
      "ended": 1854,
      "Ġmonth": 1855,
      "Ġbenef": 1856,
      "iving": 1857,
      "Ġothers": 1858,
      "Ġcome": 1859,
      "Ġcr": 1860,
      "Ġspecial": 1861,
      "])": 1862,
      "Ġsuccess": 1863,
      ",\"": 1864,
      "Ġcreat": 1865,
      "oks": 1866,
      "pecial": 1867,
      "verse": 1868,
      "Ġfeel": 1869,
      "Ġpress": 1870,
      "Ġaccess": 1871,
      "ieve": 1872,
      "though": 1873,
      "Ġflow": 1874,
      "ik": 1875,
      "ending": 1876,
      "Ġscient": 1877,
      "add": 1878,
      "Ġexist": 1879,
      "hemat": 1880,
      "Ġspecific": 1881,
      "lying": 1882,
      "Ġ>": 1883,
      "ina": 1884,
      "ique": 1885,
      "Ġplant": 1886,
      "Ġtotal": 1887,
      "ĠAt": 1888,
      "ably": 1889,
      "Ġmen": 1890,
      "Ġnatural": 1891,
      "ĠUnited": 1892,
      "Ġdescrib": 1893,
      "idd": 1894,
      "Ġsays": 1895,
      "cur": 1896,
      "Ġspecies": 1897,
      "ysis": 1898,
      "aster": 1899,
      "Ġfocus": 1900,
      "ird": 1901,
      "left": 1902,
      "########": 1903,
      "erc": 1904,
      "Ġpoints": 1905,
      "Ġlocal": 1906,
      "Ġmov": 1907,
      "ero": 1908,
      "aps": 1909,
      "Ġapplic": 1910,
      "Ġrelations": 1911,
      "Ġsw": 1912,
      "Ġuntil": 1913,
      "Ġenc": 1914,
      "Ġdig": 1915,
      "Ġwhy": 1916,
      "Ġgive": 1917,
      "Ġsize": 1918,
      "Ġpotential": 1919,
      "Ġ,": 1920,
      "Ġsignificant": 1921,
      "Ġvarious": 1922,
      "test": 1923,
      "How": 1924,
      "Ġleg": 1925,
      "Ġlittle": 1926,
      "\\_": 1927,
      "Ġequation": 1928,
      "Ġpath": 1929,
      "Ġrece": 1930,
      "verage": 1931,
      "Ġcomplex": 1932,
      "ators": 1933,
      "Ġfree": 1934,
      "file": 1935,
      "As": 1936,
      "Ġworks": 1937,
      "Ġtreatment": 1938,
      "ring": 1939,
      "ggest": 1940,
      "Ġage": 1941,
      "ĠOr": 1942,
      "Ġshort": 1943,
      "ours": 1944,
      "Ġyoung": 1945,
      "Ġfar": 1946,
      "por": 1947,
      "ĠâĪ": 1948,
      "Ġdiscuss": 1949,
      "Ġneg": 1950,
      "icult": 1951,
      "For": 1952,
      "rans": 1953,
      "Ġwhether": 1954,
      "uture": 1955,
      "Ġhard": 1956,
      "Ġexpect": 1957,
      "ones": 1958,
      "Ġmar": 1959,
      "There": 1960,
      "Ġinvest": 1961,
      "Ġdistrib": 1962,
      "Ġfield": 1963,
      "Ġconditions": 1964,
      "cle": 1965,
      "Ġwords": 1966,
      "une": 1967,
      "Ġprevent": 1968,
      "ĠSc": 1969,
      "rix": 1970,
      "Ġbehav": 1971,
      "Ġstat": 1972,
      "Ġconnect": 1973,
      "Ġcountry": 1974,
      "Ġintern": 1975,
      "Ġgoing": 1976,
      "ĠGod": 1977,
      "Ġdays": 1978,
      "ledge": 1979,
      "arget": 1980,
      "ĠEn": 1981,
      "Ġ_": 1982,
      "Ġleast": 1983,
      "log": 1984,
      "osp": 1985,
      "Ġaut": 1986,
      "Ġequal": 1987,
      "Ġdiv": 1988,
      "ula": 1989,
      "ĠOn": 1990,
      "ilities": 1991,
      "Ġbook": 1992,
      "igure": 1993,
      "AS": 1994,
      "ault": 1995,
      "Ġsystems": 1996,
      "rodu": 1997,
      "Ġlevels": 1998,
      "Ġ%": 1999,
      "hy": 2000,
      "Ġtemper": 2001,
      "AR": 2002,
      "Ġmot": 2003,
      "Ġacross": 2004,
      "Ġsuggest": 2005,
      "Ġbelow": 2006,
      "Ġbegin": 2007,
      "asing": 2008,
      "erence": 2009,
      "mand": 2010,
      "Ġways": 2011,
      "ger": 2012,
      "Ġcy": 2013,
      "ĠStates": 2014,
      "Ġbro": 2015,
      "utes": 2016,
      "Ġimpact": 2017,
      "Ġtool": 2018,
      "Ġnecess": 2019,
      "à¤": 2020,
      "Ġhaving": 2021,
      "omes": 2022,
      "aken": 2023,
      "aring": 2024,
      "Ġnet": 2025,
      "Ġlanguage": 2026,
      "ored": 2027,
      "Ġlater": 2028,
      "Ġdri": 2029,
      "lection": 2030,
      "Ġparent": 2031,
      "Ġmass": 2032,
      "obal": 2033,
      "ĠBy": 2034,
      "Ġrate": 2035,
      "ĠThat": 2036,
      "OR": 2037,
      "Ġprom": 2038,
      "Ġdeg": 2039,
      "ortun": 2040,
      "ĠAll": 2041,
      "Ġcharacter": 2042,
      "dis": 2043,
      "ee": 2044,
      "att": 2045,
      "sy": 2046,
      "alf": 2047,
      "Ġchanges": 2048,
      "Ġcells": 2049,
      "ils": 2050,
      "Ġcourse": 2051,
      "Ġincrease": 2052,
      "Ġlength": 2053,
      "Ġgeneral": 2054,
      "Ġfac": 2055,
      "fficient": 2056,
      "Ġask": 2057,
      "af": 2058,
      "Ġeither": 2059,
      "ĠCent": 2060,
      "urope": 2061,
      "Ex": 2062,
      "Ġterms": 2063,
      "Ġfil": 2064,
      "Ġpopulation": 2065,
      "oring": 2066,
      "orld": 2067,
      "âĪ": 2068,
      "reg": 2069,
      "ĠĠĠĠĠ": 2070,
      "Ġremain": 2071,
      "version": 2072,
      "ĠTe": 2073,
      "Ġcrit": 2074,
      "icro": 2075,
      "Ġfull": 2076,
      "ires": 2077,
      "Ġlikely": 2078,
      "Ġhigher": 2079,
      "Ġpositive": 2080,
      "atory": 2081,
      "Ġanswer": 2082,
      "rt": 2083,
      "oot": 2084,
      "Ġtypes": 2085,
      "Ġworking": 2086,
      "Ġrele": 2087,
      "Ġindust": 2088,
      "Ġclear": 2089,
      "agement": 2090,
      "atures": 2091,
      "Ġvir": 2092,
      "thing": 2093,
      "Ġkind": 2094,
      "Ġbig": 2095,
      "Ġweight": 2096,
      "rel": 2097,
      "Ġteac": 2098,
      "istic": 2099,
      "An": 2100,
      "Ġill": 2101,
      "Ġsingle": 2102,
      "lam": 2103,
      "Ġarg": 2104,
      "Ch": 2105,
      "ĠUS": 2106,
      "list": 2107,
      "equ": 2108,
      "Ġrecord": 2109,
      "Ġrequire": 2110,
      "Ġneeds": 2111,
      "ready": 2112,
      "Ġdifficult": 2113,
      "Ġfurther": 2114,
      "Ġprotect": 2115,
      "ĠCal": 2116,
      "Ġindic": 2117,
      "sp": 2118,
      "ruction": 2119,
      "Ġusually": 2120,
      "ges": 2121,
      "Ġens": 2122,
      "aves": 2123,
      "Ġtoday": 2124,
      "init": 2125,
      "let": 2126,
      "Ġsimple": 2127,
      "angle": 2128,
      "ush": 2129,
      "ilit": 2130,
      "Ġenough": 2131,
      "Ġquestions": 2132,
      "Ġmakes": 2133,
      "\".": 2134,
      "most": 2135,
      "ĠIm": 2136,
      "ĠEurope": 2137,
      "Ġfri": 2138,
      "ĠAf": 2139,
      "ID": 2140,
      "oney": 2141,
      "Ġheart": 2142,
      "NA": 2143,
      "ope": 2144,
      "Ġsure": 2145,
      "Ġaccount": 2146,
      "ĠFr": 2147,
      "iting": 2148,
      "Ġevent": 2149,
      "side": 2150,
      "Ġeducation": 2151,
      "Ġcheck": 2152,
      "pecially": 2153,
      "ĠQu": 2154,
      "Ġmax": 2155,
      "ĠNational": 2156,
      "new": 2157,
      "ification": 2158,
      "Ġrelationship": 2159,
      "ĠChrist": 2160,
      "Ġpast": 2161,
      "ches": 2162,
      "Ġabs": 2163,
      "Ġestab": 2164,
      "Ġhowever": 2165,
      "ĠBe": 2166,
      "Ġauthor": 2167,
      "Ġfuture": 2168,
      "imum": 2169,
      "load": 2170,
      "ĠÃ": 2171,
      "Ġcases": 2172,
      "opy": 2173,
      "Ġdr": 2174,
      "ĠOne": 2175,
      "epend": 2176,
      "Ġtechnology": 2177,
      "Ġreason": 2178,
      "Ġpolit": 2179,
      "Ġexperience": 2180,
      "Ġlower": 2181,
      "Ġcontinu": 2182,
      "itud": 2183,
      "place": 2184,
      "Ġur": 2185,
      "Ġoriginal": 2186,
      "time": 2187,
      "ounds": 2188,
      "Ġgraph": 2189,
      "Ġdom": 2190,
      "bol": 2191,
      "Ġcommunity": 2192,
      "lab": 2193,
      "Ġrequired": 2194,
      "Ġgroups": 2195,
      "Ġfund": 2196,
      "inter": 2197,
      "Ġey": 2198,
      "Ġfile": 2199,
      "Ġnever": 2200,
      "Ġalready": 2201,
      "args": 2202,
      "Ġprim": 2203,
      "Ġstrong": 2204,
      "Ġnp": 2205,
      "Ġaway": 2206,
      "ĠWith": 2207,
      "Ġword": 2208,
      "rict": 2209,
      "Ġchall": 2210,
      "ales": 2211,
      "inf": 2212,
      "Ġ}": 2213,
      "EN": 2214,
      "wards": 2215,
      "son": 2216,
      "ties": 2217,
      "Ġobserv": 2218,
      "sequ": 2219,
      "Ġdeath": 2220,
      "Ġwhole": 2221,
      "Ġsurface": 2222,
      "Ġmillion": 2223,
      "ilt": 2224,
      "True": 2225,
      "inary": 2226,
      "resp": 2227,
      "Ġloss": 2228,
      "Ġfrequ": 2229,
      "elves": 2230,
      "ĠEar": 2231,
      "ĠÎ": 2232,
      "Ġreally": 2233,
      "Ġexpress": 2234,
      "âĢ¦": 2235,
      "aching": 2236,
      "Ġsolution": 2237,
      "Ġprofess": 2238,
      "Ġbrain": 2239,
      "Ġimprove": 2240,
      "Ġge": 2241,
      "Ġfactors": 2242,
      "ĠMed": 2243,
      "bra": 2244,
      "Ġtrue": 2245,
      "Ġbusiness": 2246,
      "ott": 2247,
      "Ġsubject": 2248,
      "ivity": 2249,
      "Ġdone": 2250,
      "Ġknowledge": 2251,
      "andom": 2252,
      "ptoms": 2253,
      "Ġforce": 2254,
      "Ġunderstanding": 2255,
      "=\"": 2256,
      "num": 2257,
      "Ġsource": 2258,
      "ules": 2259,
      "ociety": 2260,
      "ison": 2261,
      "Ġcancer": 2262,
      "Ġpattern": 2263,
      "Ġrespons": 2264,
      "ometimes": 2265,
      "Ġsens": 2266,
      "Ġcannot": 2267,
      "fact": 2268,
      "Ġpaper": 2269,
      "key": 2270,
      "Ġrole": 2271,
      "ene": 2272,
      "Ġcentury": 2273,
      ")$": 2274,
      "Ġtell": 2275,
      "When": 2276,
      "Ġred": 2277,
      "ival": 2278,
      "Ġsitu": 2279,
      "ising": 2280,
      "Ġsequ": 2281,
      "aim": 2282,
      "ged": 2283,
      "Ġespecially": 2284,
      "Ġden": 2285,
      "Ġeffects": 2286,
      "Ġresearc": 2287,
      "edi": 2288,
      "ibility": 2289,
      "bo": 2290,
      "Ġcountries": 2291,
      "Ġfunctions": 2292,
      "Ġonce": 2293,
      "clus": 2294,
      "Ġrespect": 2295,
      "Ġground": 2296,
      "Ġmind": 2297,
      "apt": 2298,
      "Ġconcer": 2299,
      "Ġwind": 2300,
      "ript": 2301,
      "Ġplants": 2302,
      "[\"": 2303,
      "].": 2304,
      "ipp": 2305,
      "eds": 2306,
      "ening": 2307,
      "Ġmathemat": 2308,
      "Now": 2309,
      "ST": 2310,
      "Ġut": 2311,
      "Ġder": 2312,
      "Ġcorrect": 2313,
      "Ġdam": 2314,
      "ises": 2315,
      "Ġfall": 2316,
      "Ġaccording": 2317,
      "Ġsquare": 2318,
      "Pro": 2319,
      "čĊ": 2320,
      "Ġcondition": 2321,
      "Ġconsum": 2322,
      "rams": 2323,
      "ĠSome": 2324,
      "ĠAfric": 2325,
      "roll": 2326,
      "Ġchem": 2327,
      "ĠJoh": 2328,
      "ĠBrit": 2329,
      "ĠÂ": 2330,
      "Ġphysical": 2331,
      "Ġemploy": 2332,
      "Ġinflu": 2333,
      "Ġposition": 2334,
      "wh": 2335,
      "Ġlay": 2336,
      "Ġstandard": 2337,
      "ler": 2338,
      "ĠBl": 2339,
      "icy": 2340,
      "ging": 2341,
      "Ġscience": 2342,
      "Ġpatients": 2343,
      "acc": 2344,
      "Ġhtt": 2345,
      "omm": 2346,
      "Ġactually": 2347,
      "Ġdetail": 2348,
      "cos": 2349,
      "Ġcontrib": 2350,
      "ief": 2351,
      "ights": 2352,
      "Ġfail": 2353,
      "Ġstudies": 2354,
      "Ġparts": 2355,
      "Ġfive": 2356,
      "Ġrather": 2357,
      "Ġsat": 2358,
      "ĊĠĠĠĠĠĠĠĠĠĠĠĠĠĠĠĠĠĠĠĠĠĠĠĠ": 2359,
      "ned": 2360,
      "Ġcomes": 2361,
      "unt": 2362,
      "Ġlot": 2363,
      "Ġsuper": 2364,
      "Ġcollect": 2365,
      "....": 2366,
      "ication": 2367,
      "----------------": 2368,
      "ields": 2369,
      "Ġport": 2370,
      "dd": 2371,
      "Ġanalysis": 2372,
      "Ġgrowth": 2373,
      "Ġprin": 2374,
      "Ġflu": 2375,
      "Ġhouse": 2376,
      "fer": 2377,
      "Ġpay": 2378,
      "ĠAss": 2379,
      "Ġexcept": 2380,
      "Ġassociated": 2381,
      "imals": 2382,
      "Ġconsid": 2383,
      "ites": 2384,
      "Ġimage": 2385,
      "ley": 2386,
      "nal": 2387,
      "org": 2388,
      "Ġproducts": 2389,
      "enc": 2390,
      "You": 2391,
      "Ġseen": 2392,
      "qrt": 2393,
      "size": 2394,
      "Ġaddress": 2395,
      "Ġinput": 2396,
      "Ġaverage": 2397,
      "Ġach": 2398,
      "AN": 2399,
      "cont": 2400,
      "Ġactivity": 2401,
      "izing": 2402,
      "ĠPr": 2403,
      "Al": 2404,
      "Ġinitial": 2405,
      "Ġpractice": 2406,
      "Ġresponse": 2407,
      "ype": 2408,
      "Ġitself": 2409,
      "So": 2410,
      "eed": 2411,
      "hern": 2412,
      "ply": 2413,
      "Ġprevious": 2414,
      "Ġidea": 2415,
      "Ġseries": 2416,
      "leep": 2417,
      "Ġupon": 2418,
      "IT": 2419,
      "overed": 2420,
      "ĠGe": 2421,
      "Ġpressure": 2422,
      "Ġcut": 2423,
      "date": 2424,
      "Ġhalf": 2425,
      "Ġdoc": 2426,
      "Ġproduction": 2427,
      "pre": 2428,
      "Ġbir": 2429,
      "oman": 2430,
      "bl": 2431,
      "ĠStud": 2432,
      "eration": 2433,
      "Ġentire": 2434,
      "Ġskills": 2435,
      "Ġresources": 2436,
      "aut": 2437,
      "Ġintrodu": 2438,
      "ump": 2439,
      ".)": 2440,
      "Ġcity": 2441,
      "ĠEnglish": 2442,
      "Ġrecogn": 2443,
      "Ġarticle": 2444,
      "Ġsymptoms": 2445,
      "ae": 2446,
      "ips": 2447,
      "Ġrelated": 2448,
      "Ġstates": 2449,
      "Ġessential": 2450,
      "action": 2451,
      "Ġbuilding": 2452,
      "ĠGen": 2453,
      "atter": 2454,
      "Ġapproach": 2455,
      "met": 2456,
      "istance": 2457,
      "Ġtarget": 2458,
      "iver": 2459,
      "Ġtaken": 2460,
      "Ġcreated": 2461,
      "che": 2462,
      "empt": 2463,
      "Ġneeded": 2464,
      "rad": 2465,
      "ands": 2466,
      "ĠGerm": 2467,
      "Ġpie": 2468,
      "Ġassert": 2469,
      "essage": 2470,
      "my": 2471,
      "Ġexact": 2472,
      "earch": 2473,
      "ublic": 2474,
      "Ġbecame": 2475,
      "Ġstructure": 2476,
      "ĠWar": 2477,
      "bon": 2478,
      "AL": 2479,
      "Ġsepar": 2480,
      "Ġsent": 2481,
      "icial": 2482,
      "Ġquality": 2483,
      "Ġbreak": 2484,
      "mber": 2485,
      "Ġann": 2486,
      "Ġactivities": 2487,
      "order": 2488,
      "raction": 2489,
      "ĠMay": 2490,
      "ĠWorld": 2491,
      "Ġeff": 2492,
      "Ġprovided": 2493,
      "istics": 2494,
      "Ġcompon": 2495,
      "Ġquick": 2496,
      "Ġnormal": 2497,
      "Ġbase": 2498,
      "ystem": 2499,
      "sing": 2500,
      "Ġcolor": 2501,
      "Ġreduce": 2502,
      "ze": 2503,
      "ream": 2504,
      "fig": 2505,
      "Ġconsidered": 2506,
      "augh": 2507,
      "Ġteam": 2508,
      "Ġnut": 2509,
      "čĊĠĠĠĠĠĠĠ": 2510,
      "ĠCont": 2511,
      "Ġexc": 2512,
      "Ġparticip": 2513,
      "Ġmath": 2514,
      "iding": 2515,
      "Ġdat": 2516,
      "plement": 2517,
      "Ġdifference": 2518,
      "mat": 2519,
      "Ġdraw": 2520,
      "Ġmeet": 2521,
      "Ġstudent": 2522,
      "Ġengine": 2523,
      "Ġhol": 2524,
      "Ġstory": 2525,
      "Ġsite": 2526,
      "aced": 2527,
      "Ġaction": 2528,
      "lim": 2529,
      "IC": 2530,
      "Ġregard": 2531,
      "Ġoutput": 2532,
      "(\\": 2533,
      "oura": 2534,
      "Ġelements": 2535,
      "Ġdest": 2536,
      "Ġmembers": 2537,
      "Ġprovides": 2538,
      "ĠMan": 2539,
      "upp": 2540,
      "value": 2541,
      "ĠShe": 2542,
      "eb": 2543,
      "Ġimag": 2544,
      "ĠIntern": 2545,
      "where": 2546,
      "Ġweek": 2547,
      "erve": 2548,
      "ĠInt": 2549,
      "Ġ__": 2550,
      "Ġdeveloped": 2551,
      "nces": 2552,
      "Ġdistance": 2553,
      "uted": 2554,
      "Ġshows": 2555,
      "Ġissues": 2556,
      "Ġnature": 2557,
      "chan": 2558,
      "Ġmethods": 2559,
      "pri": 2560,
      "imens": 2561,
      "Ġnecessary": 2562,
      "Ġglobal": 2563,
      "ĠSci": 2564,
      "Ġsix": 2565,
      "Ġwon": 2566,
      "Ġphot": 2567,
      "Ġjob": 2568,
      "sych": 2569,
      "Ġdefin": 2570,
      "Ġgreater": 2571,
      "Ġinstead": 2572,
      "ĠHealth": 2573,
      "Ġtradition": 2574,
      "osis": 2575,
      "Ġeffort": 2576,
      "Ġformula": 2577,
      "anced": 2578,
      "urch": 2579,
      "Ġlink": 2580,
      "arr": 2581,
      "acy": 2582,
      "Ġsoft": 2583,
      "Ġtalk": 2584,
      "RE": 2585,
      "Ġmeaning": 2586,
      "Ġlive": 2587,
      "Ġtaking": 2588,
      "Ġquant": 2589,
      "Ġdetermine": 2590,
      "Ġrecomm": 2591,
      "ĠPol": 2592,
      "Ġobtain": 2593,
      "Ġmarket": 2594,
      "ores": 2595,
      "reen": 2596,
      "Ġwhite": 2597,
      "Ġcontent": 2598,
      "Ġfr": 2599,
      "ription": 2600,
      "point": 2601,
      "Ġmoney": 2602,
      "ius": 2603,
      "illed": 2604,
      "Ġever": 2605,
      "Ġconstant": 2606,
      "Ġtemperature": 2607,
      "Ġevidence": 2608,
      "Ġresearchers": 2609,
      "ĠAm": 2610,
      "ĠDo": 2611,
      "raft": 2612,
      "Ġstress": 2613,
      "alu": 2614,
      "Ġstop": 2615,
      "amin": 2616,
      "Ġfamil": 2617,
      "Ġdru": 2618,
      "Ġhelps": 2619,
      "oon": 2620,
      "mselves": 2621,
      "bb": 2622,
      "rem": 2623,
      "iddle": 2624,
      "Ġuser": 2625,
      "rate": 2626,
      "ĠLet": 2627,
      "Ġeasy": 2628,
      "Ġnegative": 2629,
      "aries": 2630,
      "Ġclimate": 2631,
      "Ġsal": 2632,
      "Ġselect": 2633,
      "Ġclos": 2634,
      "Ġhours": 2635,
      "Ġyet": 2636,
      "Wh": 2637,
      "Ġregion": 2638,
      "yl": 2639,
      "ĊĠĠĠĠĠĠĠĠĠĠĠĠĠĠĠĠĠĠĠĠĠĠĠ": 2640,
      "Ġincreased": 2641,
      "Ġthemselves": 2642,
      "Ġthought": 2643,
      "Ġexerc": 2644,
      "Ġax": 2645,
      "Ġshown": 2646,
      "Ġfactor": 2647,
      "ĠNo": 2648,
      "resh": 2649,
      "enge": 2650,
      "acks": 2651,
      "Ġwrite": 2652,
      "Ġtable": 2653,
      "Ġwriting": 2654,
      "rm": 2655,
      "itude": 2656,
      "čĊĠĠĠ": 2657,
      "Ġspeed": 2658,
      "dom": 2659,
      "Ġmedical": 2660,
      "oin": 2661,
      "back": 2662,
      "mission": 2663,
      "Ġlines": 2664,
      "Ġmagn": 2665,
      "roup": 2666,
      "ustom": 2667,
      "ming": 2668,
      "iment": 2669,
      "Ġeffective": 2670,
      "ĊĠĠĠĠĠĠĠĠĠĠĠĠĠĠĠĠĠĠĠĠĠĠĠĠĠĠĠĠĠĠĠĠ": 2671,
      "pose": 2672,
      "Ġmultiple": 2673,
      "Ġ--": 2674,
      "ured": 2675,
      "Ġzero": 2676,
      "rror": 2677,
      "oph": 2678,
      "uments": 2679,
      "Ġwritten": 2680,
      "Ġcomputer": 2681,
      "Ġability": 2682,
      "Ġblack": 2683,
      "sqrt": 2684,
      "Ġnational": 2685,
      "Ġunit": 2686,
      "But": 2687,
      "mp": 2688,
      "=\\": 2689,
      "Ġdoesn": 2690,
      "ober": 2691,
      "aling": 2692,
      "Ġcame": 2693,
      "$.": 2694,
      "Ġgas": 2695,
      "head": 2696,
      "Ġmaterials": 2697,
      "Ġopportun": 2698,
      "Ġskin": 2699,
      "ĠSouth": 2700,
      "part": 2701,
      "lt": 2702,
      "Ġexplain": 2703,
      "Ġsimply": 2704,
      "Ġsense": 2705,
      "ister": 2706,
      "Ġmicro": 2707,
      "ĠNorth": 2708,
      "df": 2709,
      "Ġbox": 2710,
      "ivil": 2711,
      "AC": 2712,
      "esc": 2713,
      "Ġmatter": 2714,
      "pec": 2715,
      "ele": 2716,
      "Ġalmost": 2717,
      "Ġincreasing": 2718,
      "\"]": 2719,
      "ai": 2720,
      "LE": 2721,
      "Ġmach": 2722,
      "print": 2723,
      "ĠState": 2724,
      "Ġver": 2725,
      "Ġetc": 2726,
      "ĠApp": 2727,
      "Ġanimals": 2728,
      "ournal": 2729,
      "astic": 2730,
      "Ġappear": 2731,
      "ĠEarth": 2732,
      "Ġliving": 2733,
      "Ġindepend": 2734,
      "Ġproduce": 2735,
      "Ġexperi": 2736,
      "ĠAmerica": 2737,
      "ults": 2738,
      "Ġgreen": 2739,
      "Ġthing": 2740,
      "Ġelement": 2741,
      "Ġmaintain": 2742,
      "Ġregular": 2743,
      "imately": 2744,
      "hib": 2745,
      "lease": 2746,
      "word": 2747,
      "ĠPar": 2748,
      "append": 2749,
      "ĠCar": 2750,
      "Ġhistor": 2751,
      "Ġmonths": 2752,
      "Ġseem": 2753,
      "irection": 2754,
      "iven": 2755,
      "Ġ@": 2756,
      "ung": 2757,
      "Ġroot": 2758,
      "Ġthroughout": 2759,
      "IS": 2760,
      "wise": 2761,
      "Ġri": 2762,
      "ĠGu": 2763,
      "fully": 2764,
      "Ġassess": 2765,
      "ĠAct": 2766,
      "like": 2767,
      "ney": 2768,
      "ĠDr": 2769,
      "Ġhealthy": 2770,
      "itor": 2771,
      "Ġbasic": 2772,
      "umn": 2773,
      "Ġbehavior": 2774,
      "Ġball": 2775,
      "hood": 2776,
      "aged": 2777,
      "Ġpolitical": 2778,
      "Ġclose": 2779,
      "Ġonline": 2780,
      "fect": 2781,
      "ift": 2782,
      "Ġheat": 2783,
      "Ġrelig": 2784,
      "Ġmodern": 2785,
      "$,": 2786,
      "ey": 2787,
      "Ġpredict": 2788,
      "ĠAfter": 2789,
      "Ġsuff": 2790,
      "ideo": 2791,
      "Ġconduct": 2792,
      "________": 2793,
      "Ġpage": 2794,
      "eters": 2795,
      "Ġdog": 2796,
      "Ġdoing": 2797,
      "Ġpublished": 2798,
      "Ġcat": 2799,
      "\"\"\"": 2800,
      "sin": 2801,
      "Ġprote": 2802,
      "ened": 2803,
      "Ġmor": 2804,
      "assert": 2805,
      "Ġservices": 2806,
      "Ġcomplete": 2807,
      "uel": 2808,
      "enn": 2809,
      "artment": 2810,
      ");": 2811,
      "anc": 2812,
      "Ġarch": 2813,
      "ried": 2814,
      "ser": 2815,
      "Ġtraining": 2816,
      "ĠNow": 2817,
      "'re": 2818,
      "lex": 2819,
      "Ġfat": 2820,
      "Ġreading": 2821,
      "ows": 2822,
      "Ġla": 2823,
      "Ġmodels": 2824,
      "Ġrev": 2825,
      "ĠJohn": 2826,
      "Ġeconomic": 2827,
      "Ġevalu": 2828,
      "Ġmanagement": 2829,
      "Ġclaim": 2830,
      "Ġdiet": 2831,
      "Ġgives": 2832,
      "atives": 2833,
      "med": 2834,
      "reed": 2835,
      "ls": 2836,
      "Ġsometimes": 2837,
      "Ġinside": 2838,
      "None": 2839,
      "Con": 2840,
      "ĠCo": 2841,
      "Ġfish": 2842,
      "Ã©": 2843,
      "elling": 2844,
      "style": 2845,
      "based": 2846,
      "Ġdivid": 2847,
      "itle": 2848,
      "Ġservice": 2849,
      "Ġorigin": 2850,
      "Ġwid": 2851,
      "Ġoil": 2852,
      "ĠAust": 2853,
      "ĠÂł": 2854,
      "aches": 2855,
      "pid": 2856,
      "sum": 2857,
      "ithm": 2858,
      "Ġrights": 2859,
      "aily": 2860,
      "amples": 2861,
      "pi": 2862,
      "Ġcompany": 2863,
      "Ġtakes": 2864,
      "go": 2865,
      "Ġlonger": 2866,
      "},": 2867,
      "Ġtook": 2868,
      "Ġbar": 2869,
      "Ġpriv": 2870,
      "emic": 2871,
      "Ġcontext": 2872,
      "ordin": 2873,
      "Ġlimit": 2874,
      "Ġfeed": 2875,
      "ĠDep": 2876,
      "Ġconsist": 2877,
      "Ġdemon": 2878,
      "Ġclean": 2879,
      "Ġappl": 2880,
      "ched": 2881,
      "Ġcode": 2882,
      "Ġnumer": 2883,
      "cles": 2884,
      "ĠWhile": 2885,
      "Ġdistribution": 2886,
      "orks": 2887,
      "ĠMe": 2888,
      "ccording": 2889,
      "Ġrat": 2890,
      "Ġidentify": 2891,
      "Ġunique": 2892,
      "Ġanaly": 2893,
      "ĠNot": 2894,
      "mb": 2895,
      "Ġproperties": 2896,
      "Ġbecomes": 2897,
      "Ġshape": 2898,
      "Com": 2899,
      "Ġmatrix": 2900,
      "Ġshare": 2901,
      "Ġsoil": 2902,
      "ixed": 2903,
      "ĠPer": 2904,
      "Ġhor": 2905,
      "reng": 2906,
      "ED": 2907,
      "========": 2908,
      "Ġestim": 2909,
      "Ġemer": 2910,
      "Ġcontinue": 2911,
      "Ġevents": 2912,
      "Ġforms": 2913,
      "icles": 2914,
      "vere": 2915,
      "Ġhold": 2916,
      "ensive": 2917,
      "ĠAg": 2918,
      "rig": 2919,
      "Ġparents": 2920,
      "Ġavoid": 2921,
      "Ġdou": 2922,
      "Ġpopular": 2923,
      "Ġpersonal": 2924,
      "Ġfeet": 2925,
      "Ġindividuals": 2926,
      "uck": 2927,
      "aving": 2928,
      "Re": 2929,
      "Error": 2930,
      "Ġliter": 2931,
      "light": 2932,
      "ĠYork": 2933,
      "rs": 2934,
      "Ġuses": 2935,
      "Ġflo": 2936,
      "AA": 2937,
      "ĠRet": 2938,
      "lor": 2939,
      "ĠTrue": 2940,
      "Ġimplement": 2941,
      "ulations": 2942,
      "Ġtheory": 2943,
      "come": 2944,
      "ĠHist": 2945,
      "Ġrandom": 2946,
      "ĠDis": 2947,
      "Ġsun": 2948,
      "ĠMar": 2949,
      "opt": 2950,
      "odes": 2951,
      "anks": 2952,
      "iet": 2953,
      "ĠII": 2954,
      "Ġallows": 2955,
      "asc": 2956,
      "Ġbuilt": 2957,
      "ocks": 2958,
      "Ġpict": 2959,
      "Ġrequest": 2960,
      "ait": 2961,
      "Ġensure": 2962,
      "Ġpair": 2963,
      "Ċĉ": 2964,
      "Ġrow": 2965,
      "Ġos": 2966,
      "Ġmedic": 2967,
      "Ġapprox": 2968,
      "Ġelectric": 2969,
      "Ġbal": 2970,
      "array": 2971,
      "Ġdemonstr": 2972,
      "aff": 2973,
      "ĠHere": 2974,
      "ĠAb": 2975,
      "Ġchemical": 2976,
      "cient": 2977,
      "Ġsleep": 2978,
      "Ġtree": 2979,
      "rown": 2980,
      "Ġ...": 2981,
      "format": 2982,
      "Ġexpression": 2983,
      "Ġparam": 2984,
      "Ġearli": 2985,
      "Ġlarger": 2986,
      "stitute": 2987,
      "Ġaccept": 2988,
      "arily": 2989,
      "dir": 2990,
      "ĠThen": 2991,
      "Ġincludes": 2992,
      "Ġbegan": 2993,
      "rame": 2994,
      "ops": 2995,
      "fil": 2996,
      "apter": 2997,
      "Ġfire": 2998,
      "Ġspread": 2999,
      "Im": 3000,
      "ĠHis": 3001,
      "Ġproperty": 3002,
      "stance": 3003,
      "Ġfinal": 3004,
      "Ġcontact": 3005,
      "duc": 3006,
      "Ġrule": 3007,
      "ION": 3008,
      "ĠSchool": 3009,
      "Ġcross": 3010,
      "Ġtravel": 3011,
      "bit": 3012,
      "Ġdecl": 3013,
      "Ġreview": 3014,
      "Ġvert": 3015,
      "Ġexpected": 3016,
      "unction": 3017,
      "Ġmechan": 3018,
      "Ġslow": 3019,
      "rap": 3020,
      "Ġdirectly": 3021,
      "lear": 3022,
      "ese": 3023,
      "aging": 3024,
      "Ġrecent": 3025,
      "Ġmom": 3026,
      "display": 3027,
      "Ġheav": 3028,
      "''": 3029,
      "ĊĠ": 3030,
      "Ġblock": 3031,
      "param": 3032,
      "len": 3033,
      "estion": 3034,
      "Ġgetting": 3035,
      "sub": 3036,
      "Ġfru": 3037,
      "ĠSince": 3038,
      "Ġlooking": 3039,
      "ĠSim": 3040,
      "Ġface": 3041,
      "Ġchalleng": 3042,
      "vey": 3043,
      "Ġdeep": 3044,
      "Ġthus": 3045,
      "Ġremov": 3046,
      "Ġfarm": 3047,
      "iation": 3048,
      "uff": 3049,
      "lege": 3050,
      "Ġangle": 3051,
      "ender": 3052,
      "rapy": 3053,
      "Ġsample": 3054,
      "Ġnetwork": 3055,
      "Ġoutside": 3056,
      "abit": 3057,
      "Ġgame": 3058,
      "ĠMore": 3059,
      "ached": 3060,
      "Ġcontains": 3061,
      "Ġrefer": 3062,
      "ounter": 3063,
      "Ġir": 3064,
      "Ġsmaller": 3065,
      "Ġones": 3066,
      "Ġideas": 3067,
      "Ġcauses": 3068,
      "max": 3069,
      "Ġdefined": 3070,
      "onal": 3071,
      "Ġinvolved": 3072,
      "Ġindustry": 3073,
      "Ġcaused": 3074,
      "Ġbit": 3075,
      ")^": 3076,
      "Ċĉĉ": 3077,
      "ĠNe": 3078,
      "ground": 3079,
      "ura": 3080,
      "atively": 3081,
      "het": 3082,
      "Ġsolve": 3083,
      "ners": 3084,
      "ĠSol": 3085,
      "Ġadded": 3086,
      "amed": 3087,
      "inct": 3088,
      "Ġprec": 3089,
      "ET": 3090,
      "apan": 3091,
      "Ġsymbol": 3092,
      "Ġdecre": 3093,
      "cd": 3094,
      "Ġste": 3095,
      "Ġbenefits": 3096,
      "Ġthird": 3097,
      "Ġissue": 3098,
      "Ġsociety": 3099,
      "user": 3100,
      "Ġdesigned": 3101,
      "ĠBritish": 3102,
      "Ġdirection": 3103,
      "Ġbring": 3104,
      "wo": 3105,
      "Ġdiagn": 3106,
      "www": 3107,
      "Ġsurv": 3108,
      "urs": 3109,
      "ĠMat": 3110,
      "xy": 3111,
      "Ġcorresp": 3112,
      "iction": 3113,
      "uit": 3114,
      "ĠVal": 3115,
      "Ġinfect": 3116,
      "Ġsomeone": 3117,
      "ike": 3118,
      "ession": 3119,
      "Ġlives": 3120,
      "Ġinj": 3121,
      "Ġbill": 3122,
      "Ġsteps": 3123,
      "Ġeasily": 3124,
      "Ġstreng": 3125,
      "Ġprinci": 3126,
      "estern": 3127,
      "Ġattempt": 3128,
      "ĠPre": 3129,
      "ĠCO": 3130,
      "Ġschools": 3131,
      "Ġpack": 3132,
      "Ġlinear": 3133,
      "gebra": 3134,
      "Ġprobability": 3135,
      "rees": 3136,
      "minist": 3137,
      "pper": 3138,
      "ecause": 3139,
      "Ġappropri": 3140,
      "ufact": 3141,
      "rast": 3142,
      "ster": 3143,
      "Ġearth": 3144,
      "Ġgain": 3145,
      "iques": 3146,
      "Ġvariety": 3147,
      "Ġenvironmental": 3148,
      "ada": 3149,
      "Ġaltern": 3150,
      "ĠJew": 3151,
      "ĠPe": 3152,
      "On": 3153,
      "ronic": 3154,
      "omial": 3155,
      "Ġtherefore": 3156,
      "Ġsides": 3157,
      "Ġparticularly": 3158,
      "Ġfigure": 3159,
      "Ġdemand": 3160,
      "Ġmovement": 3161,
      "rim": 3162,
      "rag": 3163,
      "issions": 3164,
      "da": 3165,
      "Ġsex": 3166,
      "ĠJan": 3167,
      "Ġobjects": 3168,
      "Ġbelieve": 3169,
      "ceed": 3170,
      "Ġadditional": 3171,
      "Ġvariable": 3172,
      "Ġtowards": 3173,
      "Res": 3174,
      "iter": 3175,
      "Ġequations": 3176,
      "ags": 3177,
      "Ġcompared": 3178,
      "():": 3179,
      "abet": 3180,
      "Ġfem": 3181,
      "egin": 3182,
      "yp": 3183,
      "cal": 3184,
      "Ġcenter": 3185,
      "with": 3186,
      "ĠIndia": 3187,
      "curity": 3188,
      "Ġraise": 3189,
      "mun": 3190,
      "plit": 3191,
      "Ġtools": 3192,
      "Ġsources": 3193,
      "Ġwebs": 3194,
      "ricult": 3195,
      "Ġsequence": 3196,
      "ĠResearch": 3197,
      "ĠCons": 3198,
      "Ġviol": 3199,
      "room": 3200,
      "ervation": 3201,
      "Ġattention": 3202,
      "Ġscientists": 3203,
      "Ġadj": 3204,
      "isions": 3205,
      "Ġlen": 3206,
      "Ġeat": 3207,
      "Ġuseful": 3208,
      "Ġwild": 3209,
      "ares": 3210,
      "ades": 3211,
      "ctors": 3212,
      "Ġbacter": 3213,
      "Ġsearch": 3214,
      "ml": 3215,
      "Ġminutes": 3216,
      "Cl": 3217,
      "Ġrules": 3218,
      "Ġvector": 3219,
      "ĠMin": 3220,
      "idge": 3221,
      "Ġperformance": 3222,
      "bed": 3223,
      "gor": 3224,
      "Ġwhose": 3225,
      "Ġcompan": 3226,
      "Ġrequires": 3227,
      "Ġquite": 3228,
      "Ġmusic": 3229,
      "Ġcou": 3230,
      "know": 3231,
      "Ġago": 3232,
      "RO": 3233,
      "Ġtax": 3234,
      "Ġled": 3235,
      "ĠPart": 3236,
      "Ġsect": 3237,
      "Ġsection": 3238,
      "lands": 3239,
      "Ġcarbon": 3240,
      "resents": 3241,
      "ensity": 3242,
      "Ġcover": 3243,
      "Ġstra": 3244,
      "Ġdeb": 3245,
      "oll": 3246,
      "Ġcompet": 3247,
      "rated": 3248,
      "oday": 3249,
      "itch": 3250,
      "Ġbound": 3251,
      "rial": 3252,
      "rie": 3253,
      "Ġord": 3254,
      "ĠÃĹ": 3255,
      "Ġharm": 3256,
      "rought": 3257,
      "ension": 3258,
      "Ġsound": 3259,
      "ĠYour": 3260,
      "Ġincluded": 3261,
      "Ġprograms": 3262,
      "cret": 3263,
      "Ġgenerally": 3264,
      "Ġproduced": 3265,
      "Â°": 3266,
      "}{\\": 3267,
      "Ġprimary": 3268,
      "ĠScience": 3269,
      "range": 3270,
      "Ġcm": 3271,
      "Ġinstance": 3272,
      "Ġencoura": 3273,
      "state": 3274,
      "Ġlove": 3275,
      "Ġgot": 3276,
      "ancial": 3277,
      "Ġconver": 3278,
      "Ġload": 3279,
      "inks": 3280,
      "off": 3281,
      "Ġstarted": 3282,
      "ĠJapan": 3283,
      "Let": 3284,
      "And": 3285,
      "Ġreported": 3286,
      "ancy": 3287,
      "ĊĠĠĠĠĠ": 3288,
      "ederal": 3289,
      ")=": 3290,
      "Ġprobably": 3291,
      "Ġdamage": 3292,
      "Ġ**": 3293,
      "__(": 3294,
      "Ġheight": 3295,
      "Ġversion": 3296,
      "Ġvariables": 3297,
      "Ġfit": 3298,
      "ðĿ": 3299,
      "ĠCount": 3300,
      "Ġcard": 3301,
      "Ġassum": 3302,
      "rench": 3303,
      "index": 3304,
      "One": 3305,
      "Ġculture": 3306,
      "Ġaff": 3307,
      "alle": 3308,
      "ĠAug": 3309,
      "ana": 3310,
      "Ġdocument": 3311,
      "Ġgoal": 3312,
      "gar": 3313,
      "ception": 3314,
      "Ġaccom": 3315,
      "displaystyle": 3316,
      "ament": 3317,
      "ĠFalse": 3318,
      "}$$": 3319,
      "By": 3320,
      "Ġcustom": 3321,
      "Ġkids": 3322,
      "Ġrepresents": 3323,
      "Ġinvestig": 3324,
      "ĠBo": 3325,
      "Ġbehind": 3326,
      "Ġhttp": 3327,
      "Ġsolutions": 3328,
      "Ġwall": 3329,
      "Ġlack": 3330,
      "do": 3331,
      "ĠTest": 3332,
      "Ġquickly": 3333,
      "iency": 3334,
      "Ġvisit": 3335,
      "ously": 3336,
      "Ġteachers": 3337,
      "Ġthreat": 3338,
      "Ġfeatures": 3339,
      "Ġhyp": 3340,
      "Ġexamples": 3341,
      "undred": 3342,
      "ĠKing": 3343,
      "ĠOct": 3344,
      "erate": 3345,
      "Ġgrowing": 3346,
      "Ġfoods": 3347,
      "bor": 3348,
      "izes": 3349,
      "anger": 3350,
      "Ġful": 3351,
      "Ġrout": 3352,
      "Ġpsych": 3353,
      "term": 3354,
      "ĠWill": 3355,
      "ued": 3356,
      "vant": 3357,
      "mar": 3358,
      "Ġleading": 3359,
      "Ġreflect": 3360,
      "umb": 3361,
      "Ġconcent": 3362,
      "ying": 3363,
      "Ġfav": 3364,
      "Ġprep": 3365,
      "Ġsn": 3366,
      "iber": 3367,
      "Ġremains": 3368,
      "thon": 3369,
      "Ġunits": 3370,
      "Ġstri": 3371,
      "Ġhyd": 3372,
      "ĠReg": 3373,
      "Ġemot": 3374,
      "ii": 3375,
      "Ġpoor": 3376,
      "Ġrot": 3377,
      "ĠFirst": 3378,
      "Ġcalculate": 3379,
      "config": 3380,
      "Ġdeveloping": 3381,
      "Ġfinding": 3382,
      "Ġcomplet": 3383,
      ")\\": 3384,
      "Ġcamp": 3385,
      "Ġexactly": 3386,
      "SE": 3387,
      "Ġthous": 3388,
      "Ġdaily": 3389,
      "Ġforest": 3390,
      "Ġdepend": 3391,
      "ĠComp": 3392,
      "Ġmention": 3393,
      "ilitary": 3394,
      "Ġhost": 3395,
      "Ġmanufact": 3396,
      "ban": 3397,
      "Ġremember": 3398,
      "model": 3399,
      "ieved": 3400,
      "################": 3401,
      "uge": 3402,
      "âĤ": 3403,
      "Ġtechniques": 3404,
      "ha": 3405,
      "uild": 3406,
      "Ġsort": 3407,
      "enced": 3408,
      "Ġapply": 3409,
      "Ġapplication": 3410,
      "Ġprogress": 3411,
      "Ġcircle": 3412,
      "Ġï": 3413,
      "Ġlate": 3414,
      "stain": 3415,
      "Ġfast": 3416,
      "umber": 3417,
      "Ġpolicy": 3418,
      "Ġfriends": 3419,
      "Ġofficial": 3420,
      "ulate": 3421,
      "ĠThus": 3422,
      "Ġsin": 3423,
      "Ġcos": 3424,
      "Ġtransform": 3425,
      "hing": 3426,
      "Ġvirus": 3427,
      "Ġperfect": 3428,
      "Ġchoose": 3429,
      "pha": 3430,
      "Ġaware": 3431,
      "ĠAustral": 3432,
      "Ġattack": 3433,
      "ography": 3434,
      "Ġcit": 3435,
      "Ġwood": 3436,
      "ME": 3437,
      "Ġserious": 3438,
      "CT": 3439,
      "Ġachieve": 3440,
      ")(": 3441,
      "Ġerror": 3442,
      "Ġcapac": 3443,
      "oration": 3444,
      "Ġreve": 3445,
      "ellow": 3446,
      "ino": 3447,
      "aly": 3448,
      "ĠPres": 3449,
      "Ġvideo": 3450,
      "Ġcritical": 3451,
      "ĠMany": 3452,
      "Ġsafety": 3453,
      "Ġpatient": 3454,
      "rong": 3455,
      "Ġseems": 3456,
      "AP": 3457,
      "Ġbooks": 3458,
      "bre": 3459,
      "nection": 3460,
      "ifically": 3461,
      "HE": 3462,
      "ilk": 3463,
      "Ġsituation": 3464,
      "ĠTherefore": 3465,
      "count": 3466,
      "Ġanimal": 3467,
      "Â²": 3468,
      "Ġearlier": 3469,
      "Ġvolume": 3470,
      "Ġfront": 3471,
      "([": 3472,
      "tings": 3473,
      "yond": 3474,
      "Ġcommit": 3475,
      "Ġnight": 3476,
      "que": 3477,
      "Ġmedia": 3478,
      "$\\": 3479,
      "Ġaspect": 3480,
      "ĠÏ": 3481,
      "atus": 3482,
      "Ġsoftware": 3483,
      "Ġoffer": 3484,
      "Ġsimpl": 3485,
      "Ġfoot": 3486,
      "Ġscale": 3487,
      "Ġproced": 3488,
      "Ġcool": 3489,
      "Ġwalk": 3490,
      "Ġcapt": 3491,
      "haps": 3492,
      "Ġlif": 3493,
      "comp": 3494,
      "Ġindex": 3495,
      "osing": 3496,
      "Ġdegree": 3497,
      "vention": 3498,
      "Ġpropos": 3499,
      "ĠApr": 3500,
      "na": 3501,
      "ache": 3502,
      "Ġ$$\\": 3503,
      "Ġcommand": 3504,
      "Ġprior": 3505,
      "asons": 3506,
      "uary": 3507,
      "Ġ->": 3508,
      "Ġisn": 3509,
      "Ġtend": 3510,
      "arrow": 3511,
      "Ġsustain": 3512,
      "Ġimmedi": 3513,
      "Ġvacc": 3514,
      "Ġinteract": 3515,
      "Ġtraditional": 3516,
      "Ġroad": 3517,
      "Ġbasis": 3518,
      "Ġapplications": 3519,
      "Ġcateg": 3520,
      "Ġvia": 3521,
      "align": 3522,
      "Ġcentral": 3523,
      "Ġsafe": 3524,
      "erg": 3525,
      "arv": 3526,
      "amb": 3527,
      "ĠChina": 3528,
      "info": 3529,
      "Ġtests": 3530,
      "Ġscientific": 3531,
      "Ġestablished": 3532,
      "Ġexercise": 3533,
      "IV": 3534,
      "Ġaim": 3535,
      "oes": 3536,
      "Ġnote": 3537,
      "igen": 3538,
      "((": 3539,
      "At": 3540,
      "Ġpy": 3541,
      "DE": 3542,
      "Ġreach": 3543,
      "sect": 3544,
      "Un": 3545,
      "joy": 3546,
      "Ġmoment": 3547,
      "Ġappropriate": 3548,
      "ĠEd": 3549,
      "Ġbott": 3550,
      "CO": 3551,
      "Ġveget": 3552,
      "oud": 3553,
      "Ġmental": 3554,
      "False": 3555,
      "iam": 3556,
      "ube": 3557,
      "Ġcru": 3558,
      "irit": 3559,
      "Ġthinking": 3560,
      "isms": 3561,
      "ĠEduc": 3562,
      "Ġdescribed": 3563,
      "ĠJu": 3564,
      "uration": 3565,
      "Ġlargest": 3566,
      "Ġdevice": 3567,
      "Ġsoon": 3568,
      "Ġrepe": 3569,
      "year": 3570,
      "Ġbab": 3571,
      "Ġdetect": 3572,
      "Ġtrees": 3573,
      "Ġhundred": 3574,
      "ĠOther": 3575,
      "Ġconstruct": 3576,
      "Ġvalid": 3577,
      "lation": 3578,
      "Ġprice": 3579,
      "Ġsea": 3580,
      "known": 3581,
      "pite": 3582,
      "Ġtask": 3583,
      "Ġimages": 3584,
      "Ġinternational": 3585,
      "Ġstay": 3586,
      "Ġpick": 3587,
      "ĠUse": 3588,
      "uk": 3589,
      "Ġstrateg": 3590,
      "Ġmother": 3591,
      "Ġactive": 3592,
      "ĠMod": 3593,
      "ĠFind": 3594,
      "ĠRep": 3595,
      "Ġcolon": 3596,
      "Ġwarm": 3597,
      "Ġ[]": 3598,
      "Ġcompanies": 3599,
      "ding": 3600,
      "Ġdate": 3601,
      "Ġalthough": 3602,
      "Ġfollows": 3603,
      "ĠTrans": 3604,
      "ĠĠĠĠĠĠ": 3605,
      "eks": 3606,
      "][": 3607,
      "OT": 3608,
      "rices": 3609,
      "used": 3610,
      "Ġoption": 3611,
      "Ġep": 3612,
      "Ġvit": 3613,
      "Ġeye": 3614,
      "Ġbad": 3615,
      "Ġcreating": 3616,
      "Ġoperations": 3617,
      "Ġpoll": 3618,
      "Ġexplore": 3619,
      "irm": 3620,
      "Ġeverything": 3621,
      "Ġbeginning": 3622,
      "book": 3623,
      "gram": 3624,
      "net": 3625,
      "âĪĴ": 3626,
      "Ġdiseases": 3627,
      "Ġtown": 3628,
      "otes": 3629,
      "ille": 3630,
      "istry": 3631,
      "Ġcomponents": 3632,
      "chol": 3633,
      "Ġmoving": 3634,
      "ĠMost": 3635,
      "Ġsecurity": 3636,
      "Ġaud": 3637,
      "ĠCenter": 3638,
      "Ġinteresting": 3639,
      "zz": 3640,
      "Qu": 3641,
      "Ġforces": 3642,
      "He": 3643,
      "Ġfinancial": 3644,
      "Ġcommunities": 3645,
      "Ġleaders": 3646,
      "Ġgard": 3647,
      "UT": 3648,
      "Ġplaces": 3649,
      "Ġhighly": 3650,
      "Ġdefinition": 3651,
      "Ġtrying": 3652,
      "Ġrates": 3653,
      "ĠEuropean": 3654,
      "encies": 3655,
      "ĠRuss": 3656,
      "orem": 3657,
      "Ġcorrespond": 3658,
      "ager": 3659,
      "ĠGo": 3660,
      "Ġgoes": 3661,
      "Ġsold": 3662,
      "Ġoverall": 3663,
      "rote": 3664,
      "Ġdefault": 3665,
      "Ġtiss": 3666,
      "Ġinstit": 3667,
      "Ġextra": 3668,
      "htt": 3669,
      "ran": 3670,
      "Ġeth": 3671,
      "alled": 3672,
      "Ġdry": 3673,
      "Ġbur": 3674,
      "nov": 3675,
      "ĠCor": 3676,
      "rary": 3677,
      "Ġsupply": 3678,
      "Ġbirth": 3679,
      "ĠSm": 3680,
      "ĠArt": 3681,
      "(-": 3682,
      "Ġhumans": 3683,
      "hens": 3684,
      "Ġq": 3685,
      "Ġwide": 3686,
      "iar": 3687,
      "Ġshall": 3688,
      "AM": 3689,
      "loc": 3690,
      "ename": 3691,
      "Ġstatement": 3692,
      "Ġassign": 3693,
      "Ġheld": 3694,
      "Ġsatis": 3695,
      "ĠFrom": 3696,
      "Ġspeak": 3697,
      "Ġpatterns": 3698,
      "inally": 3699,
      "Ġmathematical": 3700,
      "overn": 3701,
      "bf": 3702,
      "Here": 3703,
      "Ġlocation": 3704,
      "Ġsets": 3705,
      "iforn": 3706,
      "clusion": 3707,
      "run": 3708,
      "ulum": 3709,
      "Ġapplied": 3710,
      "Ġstatus": 3711,
      "Ġmole": 3712,
      "Ġbroad": 3713,
      "Ġnation": 3714,
      "begin": 3715,
      "itation": 3716,
      "Ġacid": 3717,
      "Ġcred": 3718,
      "Ġsolar": 3719,
      "Ġcivil": 3720,
      "Ġhot": 3721,
      "Ġtriangle": 3722,
      "Ġestablish": 3723,
      "dat": 3724,
      "Ġcollection": 3725,
      "osition": 3726,
      "ashing": 3727,
      "Ġcosts": 3728,
      "Ġ+=": 3729,
      "ĠAre": 3730,
      "Ġconcepts": 3731,
      "Ġlimited": 3732,
      "Ġcand": 3733,
      "Ġpurpose": 3734,
      "Ġmiles": 3735,
      "ĠâĪĴ": 3736,
      "ĠMy": 3737,
      "Ġdrink": 3738,
      "ĠFrench": 3739,
      "Sh": 3740,
      "otal": 3741,
      "Ġtrack": 3742,
      "can": 3743,
      "Ġhands": 3744,
      "Ġoptions": 3745,
      "Ġanything": 3746,
      "With": 3747,
      "Ġbeyond": 3748,
      "ĠOur": 3749,
      "Ġtesting": 3750,
      "rick": 3751,
      "Ġtransport": 3752,
      ")/": 3753,
      "Ġnames": 3754,
      "Ġmeasures": 3755,
      "Ġsus": 3756,
      "Ġmemory": 3757,
      "ĠIndian": 3758,
      "tes": 3759,
      "Ġvisual": 3760,
      "Ġmessage": 3761,
      "Ġwent": 3762,
      "abilities": 3763,
      "ĠInstitute": 3764,
      "ĠIS": 3765,
      "ĠAc": 3766,
      "hest": 3767,
      "fl": 3768,
      "Ġfields": 3769,
      "input": 3770,
      "Ġmiss": 3771,
      "ĠMarch": 3772,
      "Ġinfection": 3773,
      "Ġdisplay": 3774,
      "ham": 3775,
      "Ġenjoy": 3776,
      "Ġmultip": 3777,
      "gn": 3778,
      "ifornia": 3779,
      "Ġroom": 3780,
      "Ġcoordin": 3781,
      "Ġtypically": 3782,
      "izer": 3783,
      "Ġund": 3784,
      "Ġautom": 3785,
      "Ġleaves": 3786,
      "Ġblue": 3787,
      "Ġfriend": 3788,
      "rical": 3789,
      "AB": 3790,
      "Ġarri": 3791,
      "ĠMath": 3792,
      "ev": 3793,
      "trans": 3794,
      "ĠSystem": 3795,
      "Ġteaching": 3796,
      "osure": 3797,
      "ĠAlthough": 3798,
      "Ġsevere": 3799,
      "Ġlost": 3800,
      "âĢĿ.": 3801,
      "Ġmid": 3802,
      "Ġclin": 3803,
      "Ġprocesses": 3804,
      "Ġmilitary": 3805,
      "Ġfamilies": 3806,
      "Ġmis": 3807,
      "fort": 3808,
      "Ġten": 3809,
      "AD": 3810,
      "ĠMon": 3811,
      "unch": 3812,
      "'.": 3813,
      "oted": 3814,
      "Ġcarry": 3815,
      "Ġprime": 3816,
      "return": 3817,
      "ĠDes": 3818,
      "Ġcopy": 3819,
      "Ġreact": 3820,
      "Ġmiddle": 3821,
      "ervice": 3822,
      "Ġexec": 3823,
      "imin": 3824,
      "useum": 3825,
      "abetes": 3826,
      "Ġmag": 3827,
      "Ġdecision": 3828,
      "Equ": 3829,
      "Ġpan": 3830,
      "Ġcapital": 3831,
      "olic": 3832,
      "ĠDepartment": 3833,
      "rack": 3834,
      "ÂłÂłÂł": 3835,
      "Ġmap": 3836,
      "Ġreceived": 3837,
      "Ġprotein": 3838,
      "attle": 3839,
      "Ġdeal": 3840,
      "och": 3841,
      "Ġmaximum": 3842,
      "Ġyourself": 3843,
      "amental": 3844,
      "cean": 3845,
      "ĠJune": 3846,
      "ĠGl": 3847,
      "Ġlabor": 3848,
      "Ġinfluence": 3849,
      "oad": 3850,
      "Ġwebsite": 3851,
      "ocol": 3852,
      "onom": 3853,
      "Ġactual": 3854,
      "ech": 3855,
      "Ġ\\\\": 3856,
      "iers": 3857,
      "Ġimportance": 3858,
      "Ġult": 3859,
      "ĠEach": 3860,
      "Ġmount": 3861,
      "}^{": 3862,
      "izations": 3863,
      "ternal": 3864,
      "ormal": 3865,
      "Ġsil": 3866,
      "ĠWest": 3867,
      "Ġdifferences": 3868,
      "Ġagree": 3869,
      "Ġdoctor": 3870,
      "oles": 3871,
      "oke": 3872,
      "ĠJes": 3873,
      "rogen": 3874,
      "Ġlocated": 3875,
      "ĠInst": 3876,
      "****": 3877,
      "plication": 3878,
      "overy": 3879,
      "uman": 3880,
      "'ll": 3881,
      "Ġalgor": 3882,
      "ologies": 3883,
      "Ġconfig": 3884,
      "Ġshap": 3885,
      "ĠAfrica": 3886,
      "Ġdevices": 3887,
      "ĠOf": 3888,
      "Ġteacher": 3889,
      "Ġasked": 3890,
      "rade": 3891,
      "cks": 3892,
      "Ġveh": 3893,
      "sec": 3894,
      "uries": 3895,
      "Ġdistinct": 3896,
      "iot": 3897,
      "Ġindependent": 3898,
      "ĠSept": 3899,
      "Ġdegrees": 3900,
      "Ġitems": 3901,
      "ĠLear": 3902,
      "start": 3903,
      "Ġweeks": 3904,
      "mark": 3905,
      "Ġworkers": 3906,
      "ulated": 3907,
      "ĠFeb": 3908,
      "Ġmix": 3909,
      "Ġconstruction": 3910,
      "ĠHistory": 3911,
      "Ġillust": 3912,
      "elt": 3913,
      "Ġdiag": 3914,
      "ĠGerman": 3915,
      "Ġfollowed": 3916,
      "Ġprivate": 3917,
      "Ġchoice": 3918,
      "Ġequival": 3919,
      "ildren": 3920,
      "Ġoccurs": 3921,
      "Ġeasier": 3922,
      "url": 3923,
      "ĠCalifornia": 3924,
      "Is": 3925,
      "ĠGree": 3926,
      "These": 3927,
      "Ġhabit": 3928,
      "aid": 3929,
      "othes": 3930,
      "Ġadvant": 3931,
      "eloc": 3932,
      "ilos": 3933,
      "ipment": 3934,
      "Ġpow": 3935,
      "arser": 3936,
      "Ġdem": 3937,
      "Ġnews": 3938,
      "ĠInternational": 3939,
      "Ġbeaut": 3940,
      "Ġincreases": 3941,
      "see": 3942,
      "Ġtor": 3943,
      "Ġmachine": 3944,
      "object": 3945,
      "Ġinvolves": 3946,
      "Ġweb": 3947,
      "rition": 3948,
      "ĊĊĠĠĠĠĠĠĠĠĠĠĠ": 3949,
      "itable": 3950,
      "coh": 3951,
      "})": 3952,
      "Ġhope": 3953,
      "Ġdark": 3954,
      "Ġnuc": 3955,
      "Ġsec": 3956,
      "ratic": 3957,
      "Ġstarting": 3958,
      "Ġefficient": 3959,
      "Ġratio": 3960,
      "Ġstraight": 3961,
      "Ġstage": 3962,
      "Ġaccur": 3963,
      "iew": 3964,
      "ken": 3965,
      "ĠLevel": 3966,
      "Ġtim": 3967,
      "Ġsurround": 3968,
      "Ġneigh": 3969,
      "code": 3970,
      "rep": 3971,
      "Ġid": 3972,
      "Ġnothing": 3973,
      "Ġtrig": 3974,
      "more": 3975,
      "orders": 3976,
      "ĠChar": 3977,
      "Ġwrote": 3978,
      "Ġelif": 3979,
      "Ġlaws": 3980,
      "urg": 3981,
      "ING": 3982,
      "ĠAugust": 3983,
      "Ġstru": 3984,
      "write": 3985,
      "ĠAN": 3986,
      "Ġancient": 3987,
      "Ġwrong": 3988,
      "Ġlabel": 3989,
      "ĠApril": 3990,
      "arian": 3991,
      "Ġadapt": 3992,
      "cil": 3993,
      "Ġpiece": 3994,
      "Ġfight": 3995,
      "Ġprojects": 3996,
      "Ġnorth": 3997,
      "II": 3998,
      "fe": 3999,
      "odies": 4000,
      "ĠJust": 4001,
      "inc": 4002,
      "Ġusers": 4003,
      "outhern": 4004,
      "Ġprop": 4005,
      "ports": 4006,
      "itect": 4007,
      "Ġmatch": 4008,
      "Ġjud": 4009,
      "ĠSub": 4010,
      "ĠLaw": 4011,
      "ometry": 4012,
      "Ġadults": 4013,
      "life": 4014,
      "ynomial": 4015,
      "aset": 4016,
      "ĠAfrican": 4017,
      "Ġproviding": 4018,
      "lement": 4019,
      "rid": 4020,
      "ogle": 4021,
      "Ġnearly": 4022,
      "Ġformed": 4023,
      "Ġderiv": 4024,
      "Ġdimens": 4025,
      "orage": 4026,
      "osite": 4027,
      "Ġsave": 4028,
      "IL": 4029,
      "Ġcam": 4030,
      "EM": 4031,
      "Ġprotection": 4032,
      "Ġseason": 4033,
      "oe": 4034,
      "ĠDay": 4035,
      "np": 4036,
      "ests": 4037,
      "xi": 4038,
      "Ġrapid": 4039,
      "ĠAnt": 4040,
      "Ġtold": 4041,
      "Ġwaste": 4042,
      "Ġcompletely": 4043,
      "aught": 4044,
      "Ġburn": 4045,
      "ĠSw": 4046,
      "pret": 4047,
      "ĠJuly": 4048,
      "Ġvers": 4049,
      "Cont": 4050,
      "Ġbrought": 4051,
      "Ġbul": 4052,
      "Ġadminist": 4053,
      "Ġcompar": 4054,
      "Ġegg": 4055,
      "ĠChe": 4056,
      "Ġallowed": 4057,
      "Ġincor": 4058,
      "Ġeveryone": 4059,
      "Ġresistance": 4060,
      "Ġstring": 4061,
      "Ġbehavi": 4062,
      "asks": 4063,
      "itis": 4064,
      "ht": 4065,
      "oice": 4066,
      "Ġresulting": 4067,
      "Ġdigital": 4068,
      "illing": 4069,
      "stant": 4070,
      "no": 4071,
      "Ġsites": 4072,
      "ĠMus": 4073,
      "orthern": 4074,
      "oken": 4075,
      "wargs": 4076,
      "Ġcop": 4077,
      "Ġcurrently": 4078,
      "Ġrare": 4079,
      "Ġcommunication": 4080,
      "ĠDav": 4081,
      "ĠHer": 4082,
      "Ġbacteria": 4083,
      "ĠÐ": 4084,
      "ĠEven": 4085,
      "Ġagricult": 4086,
      "Ġeyes": 4087,
      "change": 4088,
      "ĠEm": 4089,
      "ĠPress": 4090,
      "Ġreceive": 4091,
      "Ġinform": 4092,
      "pan": 4093,
      "Ġnamed": 4094,
      "Ġforward": 4095,
      "Ġexists": 4096,
      "Ġdanger": 4097,
      "ynam": 4098,
      "idents": 4099,
      "Ġalone": 4100,
      "Ġstrength": 4101,
      "Ġice": 4102,
      "oses": 4103,
      "Ġmember": 4104,
      "Ġutil": 4105,
      "edia": 4106,
      "Ġcontroll": 4107,
      "ĠRec": 4108,
      "ĠEl": 4109,
      "Ġenh": 4110,
      "Ġteeth": 4111,
      "Ġ{}": 4112,
      "theta": 4113,
      "comes": 4114,
      "ĠRead": 4115,
      "Ġoperation": 4116,
      "iny": 4117,
      "Ġsugar": 4118,
      "ĠDef": 4119,
      "estic": 4120,
      "ĠRiver": 4121,
      "Ġseek": 4122,
      "Ġsaw": 4123,
      "inese": 4124,
      "ĠHol": 4125,
      "output": 4126,
      "eta": 4127,
      "Ġconsequ": 4128,
      "Ġrob": 4129,
      "Ġconnected": 4130,
      "ĠBi": 4131,
      "ractions": 4132,
      "Ġcoll": 4133,
      "igr": 4134,
      "elebr": 4135,
      "cember": 4136,
      "ĠTechn": 4137,
      "aul": 4138,
      "Ġenter": 4139,
      "Ġreasons": 4140,
      "water": 4141,
      "lay": 4142,
      "Ġpowerful": 4143,
      "-\\": 4144,
      "Ġplaced": 4145,
      "shape": 4146,
      "rael": 4147,
      "Ġcold": 4148,
      "aled": 4149,
      "Ġefforts": 4150,
      "ĠAlso": 4151,
      "Ġmotion": 4152,
      "Ġborn": 4153,
      "icense": 4154,
      "ĠJesus": 4155,
      "ĠEqu": 4156,
      "Ġgradu": 4157,
      "Ġdead": 4158,
      "ĠRed": 4159,
      "reme": 4160,
      "ĠMc": 4161,
      "ĠâĢ¦": 4162,
      "Ġpicture": 4163,
      "ĠAssoci": 4164,
      "Ġfair": 4165,
      "Ġfrequency": 4166,
      "mitted": 4167,
      "Ġsummer": 4168,
      "Ġeating": 4169,
      "ÂłÂłÂłÂłÂłÂłÂłÂł": 4170,
      "Ġcomplic": 4171,
      "Ġextrem": 4172,
      "Ġsouth": 4173,
      "oming": 4174,
      "Ġscen": 4175,
      "join": 4176,
      "ĠUsing": 4177,
      "Ġreduced": 4178,
      "gl": 4179,
      "Ġtrain": 4180,
      "erson": 4181,
      "ought": 4182,
      "Ġconstit": 4183,
      "Ġfuel": 4184,
      "yd": 4185,
      "Ġround": 4186,
      "All": 4187,
      "Ġdrug": 4188,
      "ference": 4189,
      "UR": 4190,
      "oo": 4191,
      "}^": 4192,
      "Ġarray": 4193,
      "rest": 4194,
      "Ġrock": 4195,
      "ovember": 4196,
      "Ġdetails": 4197,
      "Ġleave": 4198,
      "Ġeight": 4199,
      "men": 4200,
      "Ġhappens": 4201,
      "Ġjoint": 4202,
      "ĠUnder": 4203,
      "Ġpurch": 4204,
      "omin": 4205,
      "Ġseg": 4206,
      "down": 4207,
      "ĠToday": 4208,
      "Ġanti": 4209,
      "times": 4210,
      "Ġhous": 4211,
      "Ġcommonly": 4212,
      "etime": 4213,
      "Ġfather": 4214,
      "Ar": 4215,
      "ĠClass": 4216,
      "ellig": 4217,
      "Ġveloc": 4218,
      "Ġbenefit": 4219,
      "Ġtrade": 4220,
      "Ġgets": 4221,
      "cohol": 4222,
      "Ġresource": 4223,
      "ĠEducation": 4224,
      "Ġcommer": 4225,
      "train": 4226,
      "Ġfeature": 4227,
      "Ġdivided": 4228,
      "Ġcultural": 4229,
      "Ġresponsible": 4230,
      "ĠKe": 4231,
      "Ġappears": 4232,
      "Ġfig": 4233,
      "Ġaffected": 4234,
      "oking": 4235,
      "ĠLab": 4236,
      "While": 4237,
      "Ġ!": 4238,
      "Ġexpand": 4239,
      "Se": 4240,
      "rab": 4241,
      "ondon": 4242,
      "Ġrunning": 4243,
      "Ġlat": 4244,
      "Ġtopic": 4245,
      "Ġtou": 4246,
      "Ġcir": 4247,
      "Ġchance": 4248,
      "ford": 4249,
      "Ġvict": 4250,
      "Ġolder": 4251,
      "db": 4252,
      "ĠEngland": 4253,
      "ĠAccording": 4254,
      "Ġadding": 4255,
      "Ġrecommend": 4256,
      "Ġrepl": 4257,
      "Ġimpl": 4258,
      "ĠJanuary": 4259,
      "ĠGreat": 4260,
      "Ġequipment": 4261,
      "ĠInter": 4262,
      "Ġrise": 4263,
      "ĠOctober": 4264,
      "Ġinvolving": 4265,
      "era": 4266,
      "lin": 4267,
      "Ġpractices": 4268,
      "Ġremove": 4269,
      "Ġtherapy": 4270,
      "ĠRem": 4271,
      "cdot": 4272,
      "mary": 4273,
      "Ġsuccessful": 4274,
      "Ġreligious": 4275,
      "Ġapproximately": 4276,
      "())": 4277,
      "ĠAmericans": 4278,
      "#####": 4279,
      "ĠSeptember": 4280,
      "Ġtoward": 4281,
      "Ġstre": 4282,
      "ĠChristian": 4283,
      "Ġworth": 4284,
      "Ġbottom": 4285,
      "Ġprofessional": 4286,
      "ĠCanada": 4287,
      "omb": 4288,
      "mosp": 4289,
      "Ġrecently": 4290,
      "pir": 4291,
      "Ġhimself": 4292,
      "Ġcommunic": 4293,
      "čĊĠĠĠĠĠĠĠĠĠĠĠ": 4294,
      "field": 4295,
      "ails": 4296,
      "Ġinstr": 4297,
      "Ġweather": 4298,
      "Ġsigns": 4299,
      "flow": 4300,
      "US": 4301,
      "board": 4302,
      "Ġdidn": 4303,
      "pped": 4304,
      "ibly": 4305,
      "Ġbalance": 4306,
      "hold": 4307,
      "Ġgiving": 4308,
      "Ġson": 4309,
      "Ġopportunity": 4310,
      "which": 4311,
      "usion": 4312,
      "Ġparalle": 4313,
      "ashington": 4314,
      "ĠBar": 4315,
      "box": 4316,
      "cel": 4317,
      "ama": 4318,
      "related": 4319,
      "Ġcitiz": 4320,
      "Ġdied": 4321,
      "Ġreference": 4322,
      "Ġrespond": 4323,
      "hand": 4324,
      "Ġswe": 4325,
      "ĠCour": 4326,
      "Ġlegal": 4327,
      "ico": 4328,
      "Ġnotice": 4329,
      "stances": 4330,
      "Ġproport": 4331,
      "ĠPark": 4332,
      "Ġfundamental": 4333,
      "Ġregarding": 4334,
      "ĠAng": 4335,
      "ifying": 4336,
      "Ġconflic": 4337,
      "ĠÂłĠÂł": 4338,
      "Ġroots": 4339,
      "ĠPresident": 4340,
      "rew": 4341,
      "ĠCong": 4342,
      "Ġdiscovered": 4343,
      "Ġvirt": 4344,
      "Ġaccel": 4345,
      "Ġcapacity": 4346,
      "ste": 4347,
      "ĠPy": 4348,
      "Ġsatisf": 4349,
      "Ġchanged": 4350,
      "Ġorganization": 4351,
      "().": 4352,
      "Ġconnection": 4353,
      "Ġrect": 4354,
      "ingu": 4355,
      "Ġstructures": 4356,
      "ios": 4357,
      "hel": 4358,
      "ees": 4359,
      "ĠBecause": 4360,
      "Ġmathematics": 4361,
      "Ġsubt": 4362,
      "Ġwin": 4363,
      "Ġexisting": 4364,
      "ĠChall": 4365,
      "Ġcontaining": 4366,
      "lamm": 4367,
      "Ġlayer": 4368,
      "ĠCity": 4369,
      "Ġseparate": 4370,
      "Data": 4371,
      "label": 4372,
      "wide": 4373,
      "Ġnode": 4374,
      "crete": 4375,
      "Ġcoast": 4376,
      "Ġcelebr": 4377,
      "Ġobserved": 4378,
      "Ġtransfer": 4379,
      "PS": 4380,
      "Type": 4381,
      "Ġcoming": 4382,
      "Ġexposure": 4383,
      "Ġcolumn": 4384,
      "Ġcombination": 4385,
      "Ġmentioned": 4386,
      "ensor": 4387,
      "ros": 4388,
      "Ġalgebra": 4389,
      "Ġrelative": 4390,
      "Mod": 4391,
      "Ġpresented": 4392,
      "Ġfruit": 4393,
      "map": 4394,
      "Ġeconomy": 4395,
      "Ġking": 4396,
      "ĠPat": 4397,
      "Ġsurg": 4398,
      "Ġabsol": 4399,
      "Ġkil": 4400,
      "Ġformat": 4401,
      "force": 4402,
      "Ġcry": 4403,
      "Ġdescribe": 4404,
      "Ġfear": 4405,
      "Ġexperiment": 4406,
      "Ġactions": 4407,
      "Ġboard": 4408,
      "ica": 4409,
      "Ġchanging": 4410,
      "ĠHigh": 4411,
      "Ġspirit": 4412,
      "Ġpet": 4413,
      ",\\": 4414,
      "ĠGovern": 4415,
      "stitution": 4416,
      "ĠChinese": 4417,
      "Ġeffic": 4418,
      "Ġoccup": 4419,
      "Some": 4420,
      "Ġessay": 4421,
      "Ġupper": 4422,
      "ĠJournal": 4423,
      "Ġrelationships": 4424,
      "ara": 4425,
      "ĠCommun": 4426,
      "Ġplanet": 4427,
      "ĠChurch": 4428,
      "cast": 4429,
      "Ġstandards": 4430,
      "ĠDevelop": 4431,
      "group": 4432,
      "Ġmer": 4433,
      "ĠCur": 4434,
      "orial": 4435,
      "Ġpoly": 4436,
      "Ġgir": 4437,
      "enty": 4438,
      "ĠIsrael": 4439,
      "ĠData": 4440,
      "alt": 4441,
      "Ġguid": 4442,
      "Ġrelatively": 4443,
      "Ġidentity": 4444,
      "rors": 4445,
      "PA": 4446,
      "Ġfully": 4447,
      "abase": 4448,
      "Ġâī": 4449,
      "Equal": 4450,
      "Ġgold": 4451,
      "Ġmut": 4452,
      "Ġstyle": 4453,
      "level": 4454,
      "ospital": 4455,
      "ruary": 4456,
      "su": 4457,
      "Ġidentified": 4458,
      "Ġ]": 4459,
      "Ġoffers": 4460,
      "Ġpresence": 4461,
      "Ġstrategies": 4462,
      "Ġacqu": 4463,
      "standing": 4464,
      "Ġfa": 4465,
      "Ġhighest": 4466,
      "image": 4467,
      "Ġsignificantly": 4468,
      "Ġhour": 4469,
      "Ġ\\$": 4470,
      "ouncil": 4471,
      "Ġstore": 4472,
      "roy": 4473,
      "Ph": 4474,
      "rand": 4475,
      "Ġattrib": 4476,
      "Ġfram": 4477,
      "onds": 4478,
      "ĠGeneral": 4479,
      "annel": 4480,
      "Ġchallenges": 4481,
      "Ġdiabetes": 4482,
      "Ġdepending": 4483,
      "Ġbran": 4484,
      "Ġign": 4485,
      "Ġmob": 4486,
      "Ġgave": 4487,
      "cious": 4488,
      "Ġbillion": 4489,
      "Ġwoman": 4490,
      "pol": 4491,
      "Ġsetting": 4492,
      "Ġformer": 4493,
      "ometric": 4494,
      "Ġrich": 4495,
      "Ġroll": 4496,
      "anation": 4497,
      "efore": 4498,
      "step": 4499,
      "Int": 4500,
      "bi": 4501,
      "Ġpolynomial": 4502,
      "Ġvary": 4503,
      "struct": 4504,
      "iful": 4505,
      "ĠDecember": 4506,
      "Ġpregn": 4507,
      "Ġvelocity": 4508,
      "+\\": 4509,
      "Ġtur": 4510,
      "oding": 4511,
      "Ġcounter": 4512,
      "ogen": 4513,
      "values": 4514,
      "Ġlooks": 4515,
      "Ġhappen": 4516,
      "phas": 4517,
      "Ad": 4518,
      "reedom": 4519,
      "matrix": 4520,
      "Ġcontinued": 4521,
      "Ġhistorical": 4522,
      "No": 4523,
      "Ġfederal": 4524,
      "Ġdrugs": 4525,
      "Ġminimum": 4526,
      "ĠVol": 4527,
      "Ġfraction": 4528,
      "Ġhom": 4529,
      "Ġcompre": 4530,
      "Ġwinter": 4531,
      "bal": 4532,
      "ĠWashington": 4533,
      "ĠDi": 4534,
      "Ġshowed": 4535,
      "Ġbelong": 4536,
      "ords": 4537,
      "Ġslight": 4538,
      "Ġpieces": 4539,
      "Ġdiscussion": 4540,
      "Ġhon": 4541,
      "Ġteach": 4542,
      "ĠArch": 4543,
      "Ġspect": 4544,
      "Ġfavor": 4545,
      "ENT": 4546,
      "atform": 4547,
      "ses": 4548,
      "Ġgrade": 4549,
      "ĠLondon": 4550,
      "Ġchallenge": 4551,
      "cs": 4552,
      "ony": 4553,
      "Ġfiles": 4554,
      "ĠNovember": 4555,
      "Ġdro": 4556,
      "Ġinteger": 4557,
      "Ġreplace": 4558,
      "anish": 4559,
      "ĠVir": 4560,
      "Ġregions": 4561,
      "Ġbirds": 4562,
      "Ġexperim": 4563,
      "Field": 4564,
      "ĠUnion": 4565,
      "IG": 4566,
      "Ġpen": 4567,
      "eline": 4568,
      "ĠCounty": 4569,
      "Ġing": 4570,
      "flo": 4571,
      "rief": 4572,
      "Ġletter": 4573,
      "]:": 4574,
      "udd": 4575,
      "Ġperhaps": 4576,
      "Ġpassed": 4577,
      "Ġspring": 4578,
      "apping": 4579,
      "ĠSee": 4580,
      "Ġguide": 4581,
      "anging": 4582,
      "Ġinstruct": 4583,
      "ĠSu": 4584,
      "Ġcommercial": 4585,
      "Ġclasses": 4586,
      "However": 4587,
      "Ġadvanced": 4588,
      "agine": 4589,
      "Ġcrucial": 4590,
      "Ġsolving": 4591,
      "Ġgenetic": 4592,
      "ĠTr": 4593,
      "pat": 4594,
      "Ġmajority": 4595,
      "oper": 4596,
      "sol": 4597,
      "ĠDNA": 4598,
      "First": 4599,
      "Ġacad": 4600,
      "mathrm": 4601,
      "plot": 4602,
      "Ġaxis": 4603,
      "Ð¾": 4604,
      "Ġcircum": 4605,
      "rupt": 4606,
      "ĠFl": 4607,
      "Ġlearned": 4608,
      "Ġ?": 4609,
      "Ġaw": 4610,
      "ĠEast": 4611,
      "Ġcycle": 4612,
      "ĊĠĠĠĠ": 4613,
      "Ġleads": 4614,
      ".__": 4615,
      "ĠBlack": 4616,
      "Ġemb": 4617,
      "Ġweak": 4618,
      "Ġstrugg": 4619,
      "emy": 4620,
      "erences": 4621,
      "Ġcharge": 4622,
      "Ġqual": 4623,
      "Ġworked": 4624,
      "Ġphen": 4625,
      "ĠIN": 4626,
      "rieved": 4627,
      "ĠDuring": 4628,
      "Ġincome": 4629,
      "Ġexhib": 4630,
      "pective": 4631,
      "Ġalternative": 4632,
      "From": 4633,
      "Ġblocks": 4634,
      "Ġitem": 4635,
      "ĠST": 4636,
      "Ġequivalent": 4637,
      "elta": 4638,
      "Ġeventually": 4639,
      "Ġangles": 4640,
      "Ġ('": 4641,
      "Ġprinciples": 4642,
      "Ġeducational": 4643,
      "rome": 4644,
      "Ġliqu": 4645,
      "umns": 4646,
      "ĠChallenge": 4647,
      "ĠPhys": 4648,
      "Ġcities": 4649,
      "ĠMex": 4650,
      "Ġcurve": 4651,
      "Ġtechnique": 4652,
      "OS": 4653,
      "Ġcoe": 4654,
      "Ġwatch": 4655,
      "json": 4656,
      "ris": 4657,
      "works": 4658,
      "Ġplane": 4659,
      "'),": 4660,
      "Ġtox": 4661,
      "ategy": 4662,
      "alpha": 4663,
      "ĠSupp": 4664,
      "CH": 4665,
      "Ġauth": 4666,
      "Ðµ": 4667,
      "ĠRel": 4668,
      "Ġimagine": 4669,
      "Ġatmosp": 4670,
      "ĠRoman": 4671,
      "top": 4672,
      "Ġimmune": 4673,
      "Ind": 4674,
      "BC": 4675,
      "Ġadjust": 4676,
      "Ġseven": 4677,
      "ĠSan": 4678,
      ")]": 4679,
      "Ġsignal": 4680,
      "Ġplease": 4681,
      "Ġyield": 4682,
      "cm": 4683,
      "Ġarchitect": 4684,
      "vis": 4685,
      "Ġbatter": 4686,
      "raint": 4687,
      "Ġargs": 4688,
      "process": 4689,
      "aur": 4690,
      "ollow": 4691,
      "house": 4692,
      "Ġhttps": 4693,
      "Ġgarden": 4694,
      "Ġsolid": 4695,
      "tem": 4696,
      "aters": 4697,
      "Ġnutri": 4698,
      "aste": 4699,
      "icip": 4700,
      "Ġassist": 4701,
      "After": 4702,
      "Ġbank": 4703,
      "Ġmouth": 4704,
      "ulti": 4705,
      "Ġdetermined": 4706,
      "Ġfemale": 4707,
      "Ġinternal": 4708,
      "Ġcomponent": 4709,
      "Ġstim": 4710,
      "erved": 4711,
      "mathbb": 4712,
      "conds": 4713,
      "plate": 4714,
      "Ġbelief": 4715,
      "Ġkm": 4716,
      "Ġhoriz": 4717,
      "Ġtransl": 4718,
      "ĠOb": 4719,
      "Ġpolic": 4720,
      "Ġopportunities": 4721,
      "pen": 4722,
      "Ð°": 4723,
      "Ġtruth": 4724,
      "Ġlibr": 4725,
      "âĢĿ,": 4726,
      "Ġrequirements": 4727,
      "ĠWater": 4728,
      "(),": 4729,
      "Ġbaby": 4730,
      "Ġplot": 4731,
      "Ġillness": 4732,
      "idden": 4733,
      "iform": 4734,
      "Name": 4735,
      "ux": 4736,
      "Ġphilos": 4737,
      "Ġsuggests": 4738,
      "Ġabsor": 4739,
      "ĠProf": 4740,
      "Ġwa": 4741,
      "\\\\": 4742,
      "DF": 4743,
      "ĠTra": 4744,
      "```": 4745,
      "'ve": 4746,
      "Ġdomain": 4747,
      "ĠUK": 4748,
      "tage": 4749,
      "Ġtru": 4750,
      "care": 4751,
      "Ġconsumption": 4752,
      "utive": 4753,
      "[:": 4754,
      "Ġargument": 4755,
      "Ġdouble": 4756,
      "Ġtissue": 4757,
      "ĠSur": 4758,
      "Ġchurch": 4759,
      "pes": 4760,
      "Ġsamples": 4761,
      "Ġtele": 4762,
      "blem": 4763,
      "Ġfindings": 4764,
      "ðĿĳ": 4765,
      "osen": 4766,
      "inations": 4767,
      "Ġgames": 4768,
      "Ġhair": 4769,
      "ref": 4770,
      "Ġdiscover": 4771,
      "Ġalcohol": 4772,
      "Ġdra": 4773,
      "mathbf": 4774,
      "command": 4775,
      "Ġimmediately": 4776,
      "Ġalt": 4777,
      "apers": 4778,
      "Ġsurvey": 4779,
      "ĠCalcul": 4780,
      "Ġcorresponding": 4781,
      "plain": 4782,
      "ĠDon": 4783,
      "Ġpp": 4784,
      "Ġthousands": 4785,
      "Ġedge": 4786,
      "Ġsurpr": 4787,
      "Ġstories": 4788,
      "atin": 4789,
      "Ġplanning": 4790,
      "ĠOver": 4791,
      "Ġintroduced": 4792,
      "Ġfresh": 4793,
      "Ġestimated": 4794,
      "instance": 4795,
      "Ġinnov": 4796,
      "ĠTwo": 4797,
      "ĠHel": 4798,
      "ĠWork": 4799,
      "ĠDec": 4800,
      "ĠWhy": 4801,
      "'],": 4802,
      "Ġemissions": 4803,
      "Ġglass": 4804,
      "Ġnotes": 4805,
      "fty": 4806,
      "aign": 4807,
      "Ġwonder": 4808,
      "orge": 4809,
      "Ġsem": 4810,
      "Ġquad": 4811,
      "ĠSch": 4812,
      "uzz": 4813,
      "CC": 4814,
      "ĠForm": 4815,
      "Ġmilk": 4816,
      "Ġconv": 4817,
      "Ġiniti": 4818,
      "Ġbuy": 4819,
      "Ġded": 4820,
      "Ġanswers": 4821,
      "ĠHouse": 4822,
      "sk": 4823,
      "atically": 4824,
      "zer": 4825,
      "Ġstaff": 4826,
      "Ġevolution": 4827,
      "acing": 4828,
      "Ġdoub": 4829,
      "Ġdiam": 4830,
      "amm": 4831,
      "Ġpul": 4832,
      "Ġantib": 4833,
      "ĠProgram": 4834,
      "DA": 4835,
      "UN": 4836,
      "ario": 4837,
      "ontal": 4838,
      "Ġbreath": 4839,
      "Ġvill": 4840,
      "ĠTheir": 4841,
      "En": 4842,
      "Col": 4843,
      "}(": 4844,
      "Ġdict": 4845,
      "Ġriver": 4846,
      "Ġinterpret": 4847,
      "Ġstar": 4848,
      "axis": 4849,
      "Ġgene": 4850,
      "Pl": 4851,
      "isation": 4852,
      "Ġexperiences": 4853,
      "ĠPost": 4854,
      "iring": 4855,
      "ĠPeople": 4856,
      "Ġcore": 4857,
      "request": 4858,
      "Ġphase": 4859,
      "ĠFebruary": 4860,
      "assertEqual": 4861,
      "Ġcollab": 4862,
      "Ġdefine": 4863,
      "ĊĠĠĠĠĠĠĠĠĠĠĠĠĠĠĠĠĠĠĠĠĠĠĠĠĠĠĠ": 4864,
      "Ġpeace": 4865,
      "Ġcontract": 4866,
      "api": 4867,
      "Ġisol": 4868,
      "Ġpret": 4869,
      "Ġexpon": 4870,
      "Ġoutcomes": 4871,
      "Ġclassroom": 4872,
      "anges": 4873,
      "Ġaspects": 4874,
      "ĠAustralia": 4875,
      "Ġexcess": 4876,
      "Ġextremely": 4877,
      "Ġobtained": 4878,
      "ĠSociety": 4879,
      "onic": 4880,
      "gypt": 4881,
      "Ġoptim": 4882,
      "Ġwave": 4883,
      "last": 4884,
      "Ġcombined": 4885,
      "Ġmo": 4886,
      "Ġstrategy": 4887,
      "ĠNet": 4888,
      "IP": 4889,
      "Ġemail": 4890,
      "Ġserve": 4891,
      "xiety": 4892,
      "Ġplastic": 4893,
      "Ġcharg": 4894,
      "dx": 4895,
      "Ġgeneration": 4896,
      "Ġast": 4897,
      "Step": 4898,
      "ping": 4899,
      "ifies": 4900,
      "Ġcharacteristics": 4901,
      "Ġinvolve": 4902,
      "valid": 4903,
      "Ġwanted": 4904,
      "Ġiron": 4905,
      "Ġbra": 4906,
      "Ġ(-": 4907,
      "Ġrepresented": 4908,
      "Ġforeign": 4909,
      "IM": 4910,
      "ĠSum": 4911,
      "Ġmonit": 4912,
      "Ġcontinuous": 4913,
      "split": 4914,
      "Ġdepends": 4915,
      "rier": 4916,
      "ĠâĢ¢": 4917,
      "Ġclosed": 4918,
      "position": 4919,
      "lope": 4920,
      "bar": 4921,
      "Ġclick": 4922,
      "à¥": 4923,
      "Ġreports": 4924,
      "Ġperformed": 4925,
      "CE": 4926,
      "Ġcovered": 4927,
      "ball": 4928,
      "Ġrelevant": 4929,
      "igma": 4930,
      "length": 4931,
      "Ġfixed": 4932,
      "Ġhuge": 4933,
      "Ġsav": 4934,
      "Ġunc": 4935,
      "vision": 4936,
      "ĠGermany": 4937,
      "Ġclearly": 4938,
      "Ġinterval": 4939,
      "Ġlesson": 4940,
      "Ġconclud": 4941,
      "road": 4942,
      "ographic": 4943,
      "Ġheavy": 4944,
      "zing": 4945,
      "Ġseed": 4946,
      "Ġprove": 4947,
      "Ġgrad": 4948,
      "Ġdecisions": 4949,
      "xygen": 4950,
      "node": 4951,
      "Ġgoals": 4952,
      "ĠStudents": 4953,
      "ĠFound": 4954,
      "asure": 4955,
      "ooth": 4956,
      "Ġtreated": 4957,
      "ĠPlan": 4958,
      "enth": 4959,
      "Ġmission": 4960,
      "Ġvision": 4961,
      "Ġspecifically": 4962,
      "ĠOF": 4963,
      "Ġinches": 4964,
      "exp": 4965,
      "airs": 4966,
      "Ġnor": 4967,
      "Ġdisorder": 4968,
      "Ġgrav": 4969,
      "uting": 4970,
      "ĠLa": 4971,
      "LO": 4972,
      "Ġmaster": 4973,
      "List": 4974,
      "gress": 4975,
      "Ġintegral": 4976,
      "lete": 4977,
      "Ġdie": 4978,
      "Ġtrib": 4979,
      "Ġcro": 4980,
      "Ġmuscle": 4981,
      "Ġcarried": 4982,
      "ĠFrance": 4983,
      "oma": 4984,
      "Ġemphas": 4985,
      "Ġoffice": 4986,
      "params": 4987,
      "Since": 4988,
      "Ġopposite": 4989,
      "ped": 4990,
      "Ġplans": 4991,
      "color": 4992,
      "ĠSer": 4993,
      "Ġprefer": 4994,
      "ĠOnce": 4995,
      "Ġbreast": 4996,
      "Ġnumerous": 4997,
      "AG": 4998,
      "omas": 4999,
      "Ġnative": 5000,
      "Ġpreviously": 5001,
      "Ġanyone": 5002,
      "Ġpages": 5003,
      "urally": 5004,
      "Ġmale": 5005,
      "Ġotherwise": 5006,
      "Ġinfin": 5007,
      "anged": 5008,
      "ĠDist": 5009,
      "ĠUN": 5010,
      "Ġbed": 5011,
      "asion": 5012,
      "Ġsituations": 5013,
      "rec": 5014,
      "Ġgenerate": 5015,
      "Ġelectricity": 5016,
      "Ġbelieved": 5017,
      "Ġstorage": 5018,
      "iant": 5019,
      "Ġmess": 5020,
      "ĠEnvironment": 5021,
      "Ġinsect": 5022,
      "infty": 5023,
      "Ġclinical": 5024,
      "ĠMark": 5025,
      "Ġspot": 5026,
      "Ġideal": 5027,
      "pass": 5028,
      "Ġdensity": 5029,
      "$$\\": 5030,
      "Ġbackground": 5031,
      "ĠPublic": 5032,
      "elines": 5033,
      "Ġmoved": 5034,
      "aus": 5035,
      "Ġfert": 5036,
      "Ġfrequently": 5037,
      "Ġmetal": 5038,
      "Ġrelease": 5039,
      "ĠAssociation": 5040,
      "Ġcontrast": 5041,
      "ampl": 5042,
      "Ġeffectively": 5043,
      "Ġinstall": 5044,
      "Ġdivision": 5045,
      "........": 5046,
      "eli": 5047,
      "Ġreferred": 5048,
      "rum": 5049,
      "Ġrecords": 5050,
      "Ġreality": 5051,
      "They": 5052,
      "--------------------------------": 5053,
      "Ġfamous": 5054,
      "Ġvalu": 5055,
      "ĠRetrieved": 5056,
      "lib": 5057,
      "Ġtechnologies": 5058,
      "ĠPhil": 5059,
      "ĠEgypt": 5060,
      "Not": 5061,
      "Ġsufficient": 5062,
      "ortunately": 5063,
      "ĠIts": 5064,
      "Ġdivis": 5065,
      "IR": 5066,
      "Ġexpressed": 5067,
      "Ġready": 5068,
      "unk": 5069,
      "ĠJewish": 5070,
      "Ġonto": 5071,
      "porary": 5072,
      "Ġcomprehens": 5073,
      "ĠMedic": 5074,
      "Ġcausing": 5075,
      "Ġunivers": 5076,
      "gency": 5077,
      "Ġmist": 5078,
      "=(": 5079,
      "Ġtrust": 5080,
      "ĠHar": 5081,
      "Ġbodies": 5082,
      "kwargs": 5083,
      "Ġinequ": 5084,
      "HO": 5085,
      "Ġsoci": 5086,
      "Ġremoved": 5087,
      "za": 5088,
      "Ġelimin": 5089,
      "ocal": 5090,
      "ĠBas": 5091,
      "ĠSk": 5092,
      "ĠâĨ": 5093,
      "ĠCollege": 5094,
      "Ġcitizens": 5095,
      "That": 5096,
      "oined": 5097,
      "cipl": 5098,
      "Ġapproaches": 5099,
      "lamb": 5100,
      "iance": 5101,
      "Ġengineering": 5102,
      "Ġtemperatures": 5103,
      "Ġfailure": 5104,
      "ĠOut": 5105,
      "Ġthick": 5106,
      "gin": 5107,
      "Ġorganizations": 5108,
      "html": 5109,
      "Ġresist": 5110,
      "body": 5111,
      "antic": 5112,
      "Ġcollege": 5113,
      "check": 5114,
      "Ġrecommended": 5115,
      "Ġallowing": 5116,
      "ĠPal": 5117,
      "nes": 5118,
      "Ġrepro": 5119,
      "Ġjournal": 5120,
      "active": 5121,
      "status": 5122,
      "Ġkg": 5123,
      "ially": 5124,
      "Ġnovel": 5125,
      "Ġparallel": 5126,
      "Ġmeasured": 5127,
      "Ġrefers": 5128,
      "Ġtitle": 5129,
      "Ġparty": 5130,
      "Ġbecoming": 5131,
      "error": 5132,
      "Ġconducted": 5133,
      "Ġprepar": 5134,
      "Ġattract": 5135,
      "Ġdecades": 5136,
      "Ġaccurate": 5137,
      "Ġpopulations": 5138,
      "ĠDiv": 5139,
      "filename": 5140,
      "ĠGet": 5141,
      "ĠWell": 5142,
      "Ġreducing": 5143,
      "Ġconsists": 5144,
      "Ġbone": 5145,
      "alysis": 5146,
      "Ġreaction": 5147,
      "rant": 5148,
      "Ġdynam": 5149,
      "Ġprocessing": 5150,
      "Ġequals": 5151,
      "Ġdomin": 5152,
      "wid": 5153,
      "Ġwidely": 5154,
      "spec": 5155,
      "Ġkid": 5156,
      "Ġdepression": 5157,
      "Ġamounts": 5158,
      "Ġintellig": 5159,
      "SS": 5160,
      "Ġcomment": 5161,
      "Ġproof": 5162,
      "post": 5163,
      "Ġfaster": 5164,
      "Ġsaying": 5165,
      "Ġdescription": 5166,
      "Ġhyper": 5167,
      "Ġindustrial": 5168,
      "Ġsend": 5169,
      "Ġdrive": 5170,
      "Ġconvert": 5171,
      "Ġurban": 5172,
      "ĠMor": 5173,
      "string": 5174,
      "ĠGreen": 5175,
      "ĠInternet": 5176,
      "Ġmanage": 5177,
      "semb": 5178,
      "leg": 5179,
      "Ġtrend": 5180,
      "Ġsand": 5181,
      "ĠWilliam": 5182,
      "ossible": 5183,
      "Ġannual": 5184,
      "lick": 5185,
      "Ġec": 5186,
      "Ġmedicine": 5187,
      "New": 5188,
      "ĠSpec": 5189,
      "Ġsac": 5190,
      "Ġincorpor": 5191,
      "Ġletters": 5192,
      "Test": 5193,
      "Ġsecret": 5194,
      "ĠSet": 5195,
      "lambda": 5196,
      "Ġtopics": 5197,
      "Ġheard": 5198,
      "Ġindeed": 5199,
      "wer": 5200,
      "poses": 5201,
      "rence": 5202,
      "ressed": 5203,
      "Ġfinally": 5204,
      "angles": 5205,
      "Ġoxygen": 5206,
      "Ġparticipants": 5207,
      "iable": 5208,
      "ĠWestern": 5209,
      "Ġscreen": 5210,
      ".;": 5211,
      "Ġreleased": 5212,
      "ching": 5213,
      "ĠList": 5214,
      "ĠStep": 5215,
      "atural": 5216,
      "cular": 5217,
      "ĠMary": 5218,
      "Ġshared": 5219,
      "ÏĢ": 5220,
      "hematic": 5221,
      "Ġassessment": 5222,
      "Ġproperly": 5223,
      "ancing": 5224,
      "Ġjour": 5225,
      "http": 5226,
      "ĠMich": 5227,
      "Ġsynt": 5228,
      "ructure": 5229,
      "Ġfamiliar": 5230,
      "ĠLord": 5231,
      "Ġalgorithm": 5232,
      "Ġrelation": 5233,
      "ĠCongress": 5234,
      "Ġradius": 5235,
      "method": 5236,
      "Ġopin": 5237,
      "Ġtrou": 5238,
      "Ġinterested": 5239,
      "create": 5240,
      "Ġcircuit": 5241,
      "ĠProject": 5242,
      "Our": 5243,
      "pected": 5244,
      "ida": 5245,
      "ologist": 5246,
      "Ġspeech": 5247,
      ">>": 5248,
      "heet": 5249,
      "Ġplatform": 5250,
      "Ġparameters": 5251,
      "Ġdivide": 5252,
      "Ġremaining": 5253,
      "Ġplaying": 5254,
      "Ġminor": 5255,
      "ĠDavid": 5256,
      "Ġfaith": 5257,
      "Ġdogs": 5258,
      "ĠStand": 5259,
      "cript": 5260,
      "ĠSy": 5261,
      "nam": 5262,
      "Ġadult": 5263,
      "Ġdestroy": 5264,
      "erent": 5265,
      ")}": 5266,
      "dated": 5267,
      "ias": 5268,
      "Ġselected": 5269,
      "ĠGreek": 5270,
      "isc": 5271,
      "Ġobvious": 5272,
      "Ġefficiency": 5273,
      "Ġshowing": 5274,
      "ĠDet": 5275,
      "ĠJames": 5276,
      "urance": 5277,
      "Ġlinked": 5278,
      "iling": 5279,
      "ĠBra": 5280,
      "Ġdesired": 5281,
      "ĠInstead": 5282,
      "normal": 5283,
      "Ġmode": 5284,
      "ira": 5285,
      "Ġadvantage": 5286,
      "Ġrisks": 5287,
      "'m": 5288,
      "Ġprocedure": 5289,
      "Ġcourt": 5290,
      "Ġtasks": 5291,
      "but": 5292,
      "Ġnutrition": 5293,
      "riculum": 5294,
      "icks": 5295,
      "ophy": 5296,
      "Ġmotor": 5297,
      "MS": 5298,
      "duction": 5299,
      "UL": 5300,
      "Ġfreedom": 5301,
      "ĠEvery": 5302,
      "reci": 5303,
      "iveness": 5304,
      "la": 5305,
      "ĠRev": 5306,
      "Ġple": 5307,
      "Ġ!=": 5308,
      "perty": 5309,
      "According": 5310,
      "Ġbuildings": 5311,
      "that": 5312,
      "Ġtorch": 5313,
      "Ġauthors": 5314,
      "tee": 5315,
      "Ġpartners": 5316,
      "Ġturned": 5317,
      "orph": 5318,
      "hetic": 5319,
      "================": 5320,
      "ĠJapanese": 5321,
      "main": 5322,
      "Ġsexual": 5323,
      "Ġhomes": 5324,
      "Ġsupported": 5325,
      "Ġhit": 5326,
      "Ġdisorders": 5327,
      "uster": 5328,
      "stream": 5329,
      "Ġscore": 5330,
      "lines": 5331,
      "ded": 5332,
      "Ġnuclear": 5333,
      "Ġvitamin": 5334,
      "Ġshapes": 5335,
      "Ã¡": 5336,
      "Ġliterature": 5337,
      "ulf": 5338,
      "pred": 5339,
      "Ġrul": 5340,
      "war": 5341,
      "ĠCouncil": 5342,
      "Ġtour": 5343,
      "Ġsubsequ": 5344,
      "Ġnoted": 5345,
      "oting": 5346,
      "Ġchronic": 5347,
      "Ġhear": 5348,
      "Gen": 5349,
      "Ġtwice": 5350,
      "eria": 5351,
      "section": 5352,
      "client": 5353,
      "result": 5354,
      "what": 5355,
      "hol": 5356,
      "inder": 5357,
      "Ġdu": 5358,
      "Ġpolicies": 5359,
      "Ġcreation": 5360,
      "Ġfilm": 5361,
      "Ġchain": 5362,
      "ĠWeb": 5363,
      "Ġintegers": 5364,
      "Val": 5365,
      "igration": 5366,
      "var": 5367,
      "Ġstation": 5368,
      "enses": 5369,
      "ĠReturn": 5370,
      "ĠSocial": 5371,
      "Ġorganic": 5372,
      "ework": 5373,
      "ĠOff": 5374,
      "Ġkeeping": 5375,
      "Ġtooth": 5376,
      "rates": 5377,
      "Ġpal": 5378,
      "Ġflood": 5379,
      "fit": 5380,
      "Ġcolors": 5381,
      "Ġlegis": 5382,
      "ij": 5383,
      "Ġrace": 5384,
      "Why": 5385,
      "Ġgenerated": 5386,
      "acters": 5387,
      "Ġexperts": 5388,
      "urt": 5389,
      "Ġanxiety": 5390,
      "dev": 5391,
      "Ġbeautiful": 5392,
      "ĠLib": 5393,
      "EL": 5394,
      "ĠAD": 5395,
      "Ġ$(": 5396,
      "ĠFact": 5397,
      "Ġhypothes": 5398,
      "ĠFurther": 5399,
      "Ġ``": 5400,
      "ognitive": 5401,
      "Ġtells": 5402,
      "ĠNumber": 5403,
      "Ġhelped": 5404,
      "Ġmostly": 5405,
      "Can": 5406,
      "ĠChildren": 5407,
      "Id": 5408,
      "ishing": 5409,
      "roph": 5410,
      "ĠAny": 5411,
      "Ġradio": 5412,
      "long": 5413,
      "ĠAv": 5414,
      "Ġmeeting": 5415,
      "weight": 5416,
      "Ġarm": 5417,
      "Get": 5418,
      "Ġinflamm": 5419,
      "rat": 5420,
      "Ġ(\"": 5421,
      "Ġcompleted": 5422,
      "Sub": 5423,
      "Ġexpert": 5424,
      "Ġfluid": 5425,
      "Ġseeds": 5426,
      "Ġpresident": 5427,
      "inger": 5428,
      "Ġpractical": 5429,
      "cell": 5430,
      "aker": 5431,
      "ologists": 5432,
      "ĠDevelopment": 5433,
      "encing": 5434,
      "Ġmeant": 5435,
      "Ġfilter": 5436,
      "Ġviolence": 5437,
      "Ġencourage": 5438,
      "Ġschol": 5439,
      "ä¸": 5440,
      "ĠEv": 5441,
      "Ġphenomen": 5442,
      "Ġvoltage": 5443,
      "View": 5444,
      "Ġyellow": 5445,
      "Ġconvers": 5446,
      "Ġfeeling": 5447,
      "Ġvess": 5448,
      "connect": 5449,
      "Ġhelping": 5450,
      "Ġdepth": 5451,
      "isher": 5452,
      "ĠSun": 5453,
      "Ġconservation": 5454,
      "Ġcomfort": 5455,
      "Ġpairs": 5456,
      "ĠAir": 5457,
      "Ġflat": 5458,
      "fix": 5459,
      "umin": 5460,
      "Ġspaces": 5461,
      "^{-": 5462,
      "roid": 5463,
      "Ġvaluable": 5464,
      "Ġvectors": 5465,
      "ingly": 5466,
      "Ġexperienced": 5467,
      "ĠDem": 5468,
      "ĠAddition": 5469,
      "Ġslightly": 5470,
      "Ġlived": 5471,
      "Ġocean": 5472,
      "Ġcampaign": 5473,
      "cons": 5474,
      "Ġestimate": 5475,
      "Ġexcell": 5476,
      "Ġinjury": 5477,
      "Ġ{\\": 5478,
      "ĠMathemat": 5479,
      "Ġraised": 5480,
      "Ġexistence": 5481,
      "Ġexternal": 5482,
      "ASA": 5483,
      "Ġcalculated": 5484,
      "ĠHuman": 5485,
      "Ġkilled": 5486,
      "Ġhelpful": 5487,
      "Ġhorm": 5488,
      "Ġholds": 5489,
      "Ġpurposes": 5490,
      "ĠTHE": 5491,
      "Ġrain": 5492,
      "arant": 5493,
      "bin": 5494,
      "Ġvul": 5495,
      "stract": 5496,
      "viation": 5497,
      "default": 5498,
      "Ġfine": 5499,
      "icit": 5500,
      "Many": 5501,
      "CD": 5502,
      "Ġspent": 5503,
      "Ġparticles": 5504,
      "Ġapplying": 5505,
      "ĠPaul": 5506,
      "win": 5507,
      "iverse": 5508,
      "Ġrespectively": 5509,
      "Ġdrop": 5510,
      "Ġdoll": 5511,
      "eding": 5512,
      "opes": 5513,
      "Ġcredit": 5514,
      "Ġsurgery": 5515,
      "det": 5516,
      "ipe": 5517,
      "eties": 5518,
      "Ġelectrical": 5519,
      "well": 5520,
      "Ġliquid": 5521,
      "Ġinfections": 5522,
      "Ġacademic": 5523,
      "Ġminim": 5524,
      "tra": 5525,
      "ya": 5526,
      "Ġfill": 5527,
      "ĠNote": 5528,
      "Ġframe": 5529,
      "ishes": 5530,
      "OL": 5531,
      "quad": 5532,
      "ĠMal": 5533,
      "ĠRepublic": 5534,
      "ĠOrgan": 5535,
      "Ġphysic": 5536,
      "ested": 5537,
      "Ġprofession": 5538,
      "Ġcast": 5539,
      "Ġpercentage": 5540,
      "De": 5541,
      "Ġmultiply": 5542,
      "Ġgenes": 5543,
      "Ġindicate": 5544,
      "Ġconcerns": 5545,
      "Ġreached": 5546,
      "Ġviews": 5547,
      "rc": 5548,
      "Ġreduction": 5549,
      "SA": 5550,
      "Ġdivers": 5551,
      "Ġgender": 5552,
      "ĠPort": 5553,
      "pers": 5554,
      "ĠFore": 5555,
      "den": 5556,
      "Ġterrit": 5557,
      "Ġextract": 5558,
      "Ġkept": 5559,
      "Ġarrange": 5560,
      "Ġgreatest": 5561,
      "ĠFood": 5562,
      "Ġlanguages": 5563,
      "ĠBoth": 5564,
      "Ġsounds": 5565,
      "rations": 5566,
      "Ġtum": 5567,
      "Ġworry": 5568,
      "Ġmal": 5569,
      "Ġunf": 5570,
      "Ġdecided": 5571,
      "Ġgrant": 5572,
      "Ġinvent": 5573,
      "ĠSpanish": 5574,
      "Ġkn": 5575,
      "Ġlandsc": 5576,
      "Ġlies": 5577,
      "Ġradiation": 5578,
      "Ð¸": 5579,
      "Ġlimits": 5580,
      "Ġfib": 5581,
      "Ġbattle": 5582,
      "App": 5583,
      "ĠSecond": 5584,
      "Ġfacts": 5585,
      "ras": 5586,
      "Ġchosen": 5587,
      "Ġwindow": 5588,
      "anguage": 5589,
      "ĠBel": 5590,
      "essor": 5591,
      "Ġconclusion": 5592,
      "Ġseconds": 5593,
      "Ġarticles": 5594,
      "Ġsong": 5595,
      "item": 5596,
      "Ġproposed": 5597,
      "Ġassume": 5598,
      "ĠElect": 5599,
      "ĠMuseum": 5600,
      "Ġcontribute": 5601,
      "Ġship": 5602,
      "ĠUp": 5603,
      "Ġwidth": 5604,
      "Ġprepared": 5605,
      "Ġimproved": 5606,
      "car": 5607,
      "More": 5608,
      "Ġmanufacture": 5609,
      "Ġpromote": 5610,
      "ĠInf": 5611,
      "Ġcook": 5612,
      "Ġkinds": 5613,
      "Ġexpressions": 5614,
      "Ġmel": 5615,
      "ĠLearning": 5616,
      "Ġexposed": 5617,
      "uracy": 5618,
      "rd": 5619,
      "float": 5620,
      "Ġstarts": 5621,
      "Ġmanner": 5622,
      "MAT": 5623,
      "Ġdistributed": 5624,
      "Ġwhom": 5625,
      "ĠRef": 5626,
      "arter": 5627,
      "base": 5628,
      "aint": 5629,
      "Ġturns": 5630,
      "Ġclient": 5631,
      "ĠGeorge": 5632,
      "olve": 5633,
      "hist": 5634,
      "Ġmeters": 5635,
      "ĠGovernment": 5636,
      "Ġemotional": 5637,
      "Ġbud": 5638,
      "ago": 5639,
      "Ġcharacters": 5640,
      "Ġeggs": 5641,
      "ĠMake": 5642,
      "Ġgrid": 5643,
      "Ġstream": 5644,
      "ĠRober": 5645,
      "Ġplayed": 5646,
      "pty": 5647,
      "otic": 5648,
      "Ġwire": 5649,
      "Ġconflict": 5650,
      "ims": 5651,
      "\\_{": 5652,
      "Ġabsolute": 5653,
      "Do": 5654,
      "}$.": 5655,
      "Ġgrass": 5656,
      "Ġdram": 5657,
      "Ġderivative": 5658,
      "eper": 5659,
      "}}{": 5660,
      "Ġcub": 5661,
      "names": 5662,
      "ĠEnergy": 5663,
      "Ġflex": 5664,
      "Ġrational": 5665,
      "Ġreturned": 5666,
      "cor": 5667,
      "Ġprinciple": 5668,
      "ĠCre": 5669,
      "function": 5670,
      "Ġcolle": 5671,
      "Ġunknown": 5672,
      "Ġdespite": 5673,
      "sl": 5674,
      "ools": 5675,
      "ifier": 5676,
      "rics": 5677,
      "ado": 5678,
      "PE": 5679,
      "Set": 5680,
      ")))": 5681,
      "ndrome": 5682,
      "Ġsyn": 5683,
      "ĠTime": 5684,
      "ĠLine": 5685,
      "faces": 5686,
      "]]": 5687,
      "Ġdetailed": 5688,
      "Ġaid": 5689,
      "Ġnav": 5690,
      "ĠTex": 5691,
      "Ġblog": 5692,
      "Ġcontinues": 5693,
      "ibilities": 5694,
      "Ġisland": 5695,
      "Ġconsult": 5696,
      "Ġchart": 5697,
      "Ġslope": 5698,
      "ĠService": 5699,
      "Ġdangerous": 5700,
      "}.": 5701,
      "Ġsuppl": 5702,
      "Ġtried": 5703,
      "crib": 5704,
      "build": 5705,
      "Ġdrawing": 5706,
      "'])": 5707,
      "ĠValue": 5708,
      "oul": 5709,
      "Ġchoices": 5710,
      "Ġderived": 5711,
      "Ġpush": 5712,
      "oyal": 5713,
      "Ġcompare": 5714,
      "wood": 5715,
      "Ġtheorem": 5716,
      "ĠCentral": 5717,
      "ĠExp": 5718,
      "Ġschem": 5719,
      "ria": 5720,
      "sm": 5721,
      "Ġmotiv": 5722,
      "cip": 5723,
      "ĠId": 5724,
      "Ġconcern": 5725,
      "vals": 5726,
      "lig": 5727,
      "Ġperm": 5728,
      "Ġcloser": 5729,
      "Ġinh": 5730,
      "Ġvertical": 5731,
      "ĠCath": 5732,
      "Ġbegins": 5733,
      "ava": 5734,
      "Ġrepeated": 5735,
      "Ġfloor": 5736,
      "gu": 5737,
      "Ġmere": 5738,
      "Ġreligion": 5739,
      "Ġgod": 5740,
      "</": 5741,
      "Ġwealth": 5742,
      "={": 5743,
      "=-": 5744,
      "Ġmeat": 5745,
      "oughly": 5746,
      "Ġmultiplication": 5747,
      "ĠChapter": 5748,
      "cosystem": 5749,
      "overty": 5750,
      "Ġowners": 5751,
      "Ġrecorded": 5752,
      "riage": 5753,
      "number": 5754,
      "Ġpollution": 5755,
      "ĠAP": 5756,
      "Ġcars": 5757,
      "update": 5758,
      "Ġserved": 5759,
      "Ġdescribes": 5760,
      "xid": 5761,
      "Ġsector": 5762,
      "ipped": 5763,
      "Ġjobs": 5764,
      "Ġoffic": 5765,
      "ĠStage": 5766,
      "ĠTur": 5767,
      "ĠBay": 5768,
      "ĠProt": 5769,
      "Ġkill": 5770,
      "Ġdownload": 5771,
      "ĠIsland": 5772,
      "ĠMac": 5773,
      "Ġpred": 5774,
      "Ġcoal": 5775,
      "Ġaren": 5776,
      "Ġliber": 5777,
      "Ġmainly": 5778,
      "Ġextreme": 5779,
      "Ġdecrease": 5780,
      "Ġintended": 5781,
      "Although": 5782,
      "host": 5783,
      "Ġinvestment": 5784,
      "Ġesc": 5785,
      "ĠMount": 5786,
      "ĠRich": 5787,
      "ĠAtt": 5788,
      "Ġcards": 5789,
      "cers": 5790,
      "Ġbrief": 5791,
      "icated": 5792,
      "Ġpark": 5793,
      "parent": 5794,
      "Ġcandid": 5795,
      "Ġserver": 5796,
      "Ġcomplicated": 5797,
      "pace": 5798,
      "bles": 5799,
      "Ġcert": 5800,
      "Ġfalse": 5801,
      "ĠLicense": 5802,
      "CL": 5803,
      "Ġfif": 5804,
      "ĠNum": 5805,
      "rows": 5806,
      "Ġcollected": 5807,
      "hi": 5808,
      "Ġdatabase": 5809,
      "Ġintegr": 5810,
      "Ġmort": 5811,
      "Ġatmosphere": 5812,
      "ĠCam": 5813,
      "Ġfarmers": 5814,
      "icular": 5815,
      "ga": 5816,
      "Ġpretty": 5817,
      "free": 5818,
      "Ġentry": 5819,
      ")*": 5820,
      "Ġvegetables": 5821,
      "Post": 5822,
      "Ġodd": 5823,
      "Ġ['": 5824,
      "abol": 5825,
      "ycl": 5826,
      "Ġtaught": 5827,
      ")+": 5828,
      "quare": 5829,
      "Ġcertainly": 5830,
      "Ġwest": 5831,
      "ĠGroup": 5832,
      "Ġstock": 5833,
      "Ġsymmet": 5834,
      "abled": 5835,
      "ĠEngine": 5836,
      "Ġphysics": 5837,
      "ï¼": 5838,
      "=[": 5839,
      "aughter": 5840,
      "Bl": 5841,
      "mm": 5842,
      "amma": 5843,
      "ĠAsia": 5844,
      "ĠAcad": 5845,
      "Ġ{'": 5846,
      "Ġrevolution": 5847,
      "{{": 5848,
      "nn": 5849,
      "Ġsubjects": 5850,
      "ĠHIV": 5851,
      "ĠFin": 5852,
      "Ġmeasurement": 5853,
      "Ġsustainable": 5854,
      "Ġawareness": 5855,
      "Ġlinks": 5856,
      "berg": 5857,
      "obj": 5858,
      "ĠMr": 5859,
      "pack": 5860,
      "Ġspend": 5861,
      "ĠHome": 5862,
      "ĠJews": 5863,
      "Ġtrial": 5864,
      "iced": 5865,
      "Ġdiagnosis": 5866,
      "fun": 5867,
      "dec": 5868,
      "mean": 5869,
      "Sim": 5870,
      "rip": 5871,
      "imer": 5872,
      "ĠPM": 5873,
      "Ġclosely": 5874,
      "ĠCourt": 5875,
      "ictionary": 5876,
      "Ġadop": 5877,
      "ĠYear": 5878,
      "urity": 5879,
      "sim": 5880,
      "Ġcere": 5881,
      "Ġhearing": 5882,
      "Ġprimarily": 5883,
      "Ġraw": 5884,
      "________________": 5885,
      "Another": 5886,
      "Ġexplained": 5887,
      "ĠDirect": 5888,
      "Ġpounds": 5889,
      "ĠSimilar": 5890,
      "ĠBen": 5891,
      "ĠWhite": 5892,
      "Ġhandle": 5893,
      "Ġvolunt": 5894,
      "estions": 5895,
      "Ġstick": 5896,
      "Ġaffects": 5897,
      "Ġunderlying": 5898,
      "Ġdiscussed": 5899,
      "Ġhar": 5900,
      "ĠLin": 5901,
      "Ġformation": 5902,
      "Ġtang": 5903,
      "Ġstret": 5904,
      "models": 5905,
      "Ġperiods": 5906,
      "Ġdecimal": 5907,
      "Ġsurrounding": 5908,
      "ĠBer": 5909,
      "Ġvital": 5910,
      "Ġsouthern": 5911,
      "Ġoperating": 5912,
      "keys": 5913,
      "Ġimplic": 5914,
      "My": 5915,
      "Ġadvance": 5916,
      "Ġnorthern": 5917,
      "ĠPower": 5918,
      "Ġinstitutions": 5919,
      "Ġstated": 5920,
      "going": 5921,
      "Ġfractions": 5922,
      "Ġvulner": 5923,
      "Read": 5924,
      "nic": 5925,
      "ĠMexico": 5926,
      "ÑĤ": 5927,
      "Ġpun": 5928,
      "pping": 5929,
      "ĠSpace": 5930,
      "vec": 5931,
      "ĠHen": 5932,
      "Ġtypical": 5933,
      "Ġappoint": 5934,
      "Ġquantity": 5935,
      "Ġguess": 5936,
      "ĠMiss": 5937,
      "band": 5938,
      "akers": 5939,
      "ĠDiff": 5940,
      "ture": 5941,
      "aks": 5942,
      "atever": 5943,
      "gal": 5944,
      "tical": 5945,
      "asp": 5946,
      "Ġleaving": 5947,
      "Ġlov": 5948,
      "OD": 5949,
      "Ġindicates": 5950,
      "ansion": 5951,
      "Ġoccurred": 5952,
      "Ġvaccine": 5953,
      "Ġconfidence": 5954,
      "olved": 5955,
      "vari": 5956,
      "Ġprofessor": 5957,
      "scale": 5958,
      "ĠMet": 5959,
      "inding": 5960,
      "Ġhospital": 5961,
      "Ġplus": 5962,
      "Ġtherm": 5963,
      "Ġfloat": 5964,
      "Ġoffered": 5965,
      "Ġvehicle": 5966,
      "Ġpull": 5967,
      "Ġshar": 5968,
      "Ġsuitable": 5969,
      "ĠMars": 5970,
      "Ġeast": 5971,
      "idx": 5972,
      "Ġprices": 5973,
      "Ġsalt": 5974,
      "Ġtechnical": 5975,
      "Ġswitch": 5976,
      "Ġperspective": 5977,
      "Ġchemicals": 5978,
      "ango": 5979,
      "ĠTexas": 5980,
      "Ġfocused": 5981,
      "oose": 5982,
      "Most": 5983,
      "Ab": 5984,
      "Sc": 5985,
      "ups": 5986,
      "Ġinner": 5987,
      "Ġstone": 5988,
      "ounced": 5989,
      "Ġexamine": 5990,
      "target": 5991,
      "Ġbrother": 5992,
      "xf": 5993,
      "Ġrenew": 5994,
      "Ġdealing": 5995,
      "Ġbright": 5996,
      "Ġdrinking": 5997,
      "nel": 5998,
      "Ġsmart": 5999,
      "ĠFoundation": 6000,
      "Ġce": 6001,
      "rich": 6002,
      "ander": 6003,
      "ĠMass": 6004,
      "RI": 6005,
      "*}": 6006,
      "ĠPers": 6007,
      "Ġfigures": 6008,
      "Ġportion": 6009,
      "iders": 6010,
      "astern": 6011,
      "Ġbird": 6012,
      "roke": 6013,
      "ĠJe": 6014,
      "Ġpowers": 6015,
      "partial": 6016,
      "ML": 6017,
      "Ġpotentially": 6018,
      "Ġsuggested": 6019,
      "Ġrestrict": 6020,
      "ĠOld": 6021,
      "Ġjson": 6022,
      "Ġsettings": 6023,
      "ael": 6024,
      "esh": 6025,
      "Ġdenomin": 6026,
      "Ġthin": 6027,
      "Ġneut": 6028,
      "Ġpros": 6029,
      "Ġmorning": 6030,
      "Ġlose": 6031,
      "uous": 6032,
      "current": 6033,
      "Ġcris": 6034,
      "ĠAdd": 6035,
      "Ġexcellent": 6036,
      "ĠKeep": 6037,
      "Ġdf": 6038,
      "ĠComput": 6039,
      "Ġwaves": 6040,
      "Ġmissing": 6041,
      "ĠExample": 6042,
      "Ġextent": 6043,
      "Ġrepresentation": 6044,
      "doc": 6045,
      "Ġneuro": 6046,
      "!!": 6047,
      "ĠJer": 6048,
      "Ġphone": 6049,
      "othing": 6050,
      "Ġflowers": 6051,
      "ĠTem": 6052,
      "Ġmanip": 6053,
      "Ġelev": 6054,
      "Ġtreatments": 6055,
      "bert": 6056,
      "Ġmoves": 6057,
      "gence": 6058,
      "Ġsmooth": 6059,
      "phi": 6060,
      "Ġconsequences": 6061,
      "Ġclim": 6062,
      "Ġgirls": 6063,
      "Ġcareer": 6064,
      "\"),": 6065,
      "gi": 6066,
      "ĠTechnology": 6067,
      "Ġerrors": 6068,
      "Ġtf": 6069,
      "ĠSal": 6070,
      "Ġstorm": 6071,
      "TS": 6072,
      "Ġarr": 6073,
      "Ð½": 6074,
      "Ġfruits": 6075,
      "Ġwet": 6076,
      "Ġchapter": 6077,
      "Ġpossess": 6078,
      "Ġtested": 6079,
      "Ġexplains": 6080,
      "ĠPri": 6081,
      "Ġconcentration": 6082,
      "ello": 6083,
      "Ġapart": 6084,
      "ĠAND": 6085,
      "ĠSen": 6086,
      "message": 6087,
      "Ġapparent": 6088,
      "ĠCheck": 6089,
      "Ġselection": 6090,
      "Ġsession": 6091,
      "dfrac": 6092,
      "Ġforced": 6093,
      "Ġ${\\": 6094,
      "Ġband": 6095,
      "Ġyouth": 6096,
      "Be": 6097,
      "NAME": 6098,
      "Äģ": 6099,
      "ĠCD": 6100,
      "Le": 6101,
      "Ġappreci": 6102,
      "ĠBr": 6103,
      "Ġinstruction": 6104,
      "ĠReview": 6105,
      "open": 6106,
      "Ġgoods": 6107,
      "ÃĹ": 6108,
      "escription": 6109,
      "ĠArab": 6110,
      "ĠAge": 6111,
      "ague": 6112,
      "istan": 6113,
      "Ġsubs": 6114,
      "acific": 6115,
      "Ġauthority": 6116,
      "ĠAnother": 6117,
      "ĠBook": 6118,
      "ĠIslam": 6119,
      "Ġmuscles": 6120,
      "table": 6121,
      "Ġtoxic": 6122,
      "stood": 6123,
      "Ġwait": 6124,
      "Ġring": 6125,
      "ĠPract": 6126,
      "Ġimpacts": 6127,
      "Ġmedium": 6128,
      "adian": 6129,
      "ĠGoogle": 6130,
      "Ġconsistent": 6131,
      "MP": 6132,
      "ĠMart": 6133,
      "âĢĺ": 6134,
      "width": 6135,
      "Ġtoys": 6136,
      "Ġstem": 6137,
      "under": 6138,
      "Ġdecide": 6139,
      "Ġtips": 6140,
      "Ġju": 6141,
      "Ġfacilit": 6142,
      "ĠStat": 6143,
      "elled": 6144,
      "ĠConf": 6145,
      "Ġneighb": 6146,
      "Ġadvice": 6147,
      "ĠUs": 6148,
      "aph": 6149,
      "Ġdigit": 6150,
      "ithms": 6151,
      "ĠCommon": 6152,
      "orter": 6153,
      "ĠNews": 6154,
      "Ġpositions": 6155,
      "Ġsubstant": 6156,
      "Ġattacks": 6157,
      "ĠIr": 6158,
      "Ġimpossible": 6159,
      "Ġstored": 6160,
      "space": 6161,
      "Ġdrawn": 6162,
      "Ġstudied": 6163,
      "rian": 6164,
      "umps": 6165,
      "Ġperman": 6166,
      "Ġmixed": 6167,
      "response": 6168,
      "Â·": 6169,
      "Ġnutrients": 6170,
      "ypes": 6171,
      "ĠThomas": 6172,
      "fol": 6173,
      "Ġbow": 6174,
      "ĠQue": 6175,
      "Ġspecified": 6176,
      "Ġecosystem": 6177,
      "Ġgall": 6178,
      "ĠLife": 6179,
      "Ġdial": 6180,
      "sor": 6181,
      "BN": 6182,
      "Ġtail": 6183,
      "Ġmagnetic": 6184,
      "ĠWind": 6185,
      "ocab": 6186,
      "Ġincreasingly": 6187,
      "ãģ": 6188,
      "Ġconsidering": 6189,
      "Ġtiny": 6190,
      "Ġfilled": 6191,
      "points": 6192,
      "Ġplays": 6193,
      "ĠBritain": 6194,
      "omy": 6195,
      "Ġpure": 6196,
      "ĠLou": 6197,
      "rastructure": 6198,
      "ca": 6199,
      "Imagine": 6200,
      "parse": 6201,
      "Ġinject": 6202,
      "root": 6203,
      "ĠPen": 6204,
      "Ġfoss": 6205,
      "Ġlargely": 6206,
      "ptions": 6207,
      "Ġhence": 6208,
      "ĠLike": 6209,
      "Ġtro": 6210,
      "Ġgrand": 6211,
      "Ġfort": 6212,
      "CR": 6213,
      "Ġcalculations": 6214,
      "Ġoral": 6215,
      "mal": 6216,
      "ĠMicro": 6217,
      "Ġsettle": 6218,
      "loss": 6219,
      "Ġstatistics": 6220,
      "ĠDise": 6221,
      "hips": 6222,
      "gent": 6223,
      "west": 6224,
      "Ġlatest": 6225,
      "amil": 6226,
      "writ": 6227,
      "Ġleader": 6228,
      "Ġcenturies": 6229,
      "cules": 6230,
      "Ġrecognize": 6231,
      "Ġoutcome": 6232,
      "ulating": 6233,
      "Ġspeaking": 6234,
      "Ġstars": 6235,
      "Ġemergency": 6236,
      "iled": 6237,
      "Ġremained": 6238,
      "Ġstands": 6239,
      "ensus": 6240,
      "Ġvast": 6241,
      "Ġperp": 6242,
      "Ġpersons": 6243,
      "Ġmarg": 6244,
      "Ġpaid": 6245,
      "ificial": 6246,
      "Ġwaters": 6247,
      "Ġcreates": 6248,
      "Ġfirm": 6249,
      "Ġhappened": 6250,
      "Ġsnow": 6251,
      "Ġformal": 6252,
      "Ġsplit": 6253,
      "Ġfelt": 6254,
      "Ġwel": 6255,
      "Ġhundreds": 6256,
      "cycl": 6257,
      "Ġthoughts": 6258,
      "ĠVirgin": 6259,
      "Ġlibrary": 6260,
      "Ġlooked": 6261,
      "Ġreturns": 6262,
      "includ": 6263,
      "Ġcolumns": 6264,
      "Ġproportion": 6265,
      "Ġdemoc": 6266,
      "Ġliver": 6267,
      "ĠCivil": 6268,
      "ĠLatin": 6269,
      "Ġingred": 6270,
      "Ġconvent": 6271,
      "Ġuniform": 6272,
      "itness": 6273,
      "Ġresponsibility": 6274,
      "MA": 6275,
      "Ġ($": 6276,
      "++": 6277,
      "oto": 6278,
      "ĠQuestion": 6279,
      "Of": 6280,
      "othe": 6281,
      "Ġnit": 6282,
      "Ġempty": 6283,
      "ĠGra": 6284,
      "Ġaccompl": 6285,
      "Ġcalls": 6286,
      "Ġ'''": 6287,
      "Ġmoist": 6288,
      "uls": 6289,
      "Ġhorizontal": 6290,
      "âĢĻ.": 6291,
      "ĊĠĠĠĠĊĠĠĠ": 6292,
      "Ġlessons": 6293,
      "ny": 6294,
      "Ġrig": 6295,
      "van": 6296,
      "Ġvent": 6297,
      "Ġnaturally": 6298,
      "call": 6299,
      "Ġstudying": 6300,
      "Ġtrad": 6301,
      "Ġwife": 6302,
      "Ġhaz": 6303,
      "Ġfro": 6304,
      "ĠSat": 6305,
      "Ġtalking": 6306,
      "Ġmonitoring": 6307,
      "TH": 6308,
      "Ġcurriculum": 6309,
      "Ġnerv": 6310,
      "Ġvoice": 6311,
      "Ġevaluate": 6312,
      "Ġguarant": 6313,
      "Ġproteins": 6314,
      "Ġsell": 6315,
      "oxide": 6316,
      "dt": 6317,
      "ums": 6318,
      "Ġsentence": 6319,
      "Ġshift": 6320,
      "Ġobservations": 6321,
      "?âĢĿ": 6322,
      "ĠType": 6323,
      "ĠNASA": 6324,
      "ailed": 6325,
      "}_{": 6326,
      "Ġcontrolled": 6327,
      "Ġglob": 6328,
      "Ġdistingu": 6329,
      "Stud": 6330,
      "ÑĢ": 6331,
      "istical": 6332,
      "Ġconnections": 6333,
      "Ġsett": 6334,
      "->": 6335,
      "iday": 6336,
      "ĠInformation": 6337,
      "Ġyields": 6338,
      "Ġemployees": 6339,
      "ka": 6340,
      "Ġtransition": 6341,
      "while": 6342,
      "Question": 6343,
      "Ġvisible": 6344,
      "ĊĠĠĠĠĠĠĠĠĠ": 6345,
      "amily": 6346,
      "Ġnormally": 6347,
      "heets": 6348,
      "ville": 6349,
      "Î¸": 6350,
      "osa": 6351,
      "Or": 6352,
      "Ġcategory": 6353,
      "Ġimplementation": 6354,
      "Ġcouple": 6355,
      "ĠAtl": 6356,
      "Ġintegration": 6357,
      "ĠGiven": 6358,
      "ĠMedicine": 6359,
      "CS": 6360,
      "ĠSam": 6361,
      "Ġastr": 6362,
      "EST": 6363,
      "how": 6364,
      "ĠWorks": 6365,
      "Ġwalls": 6366,
      "Ġsys": 6367,
      "File": 6368,
      "cher": 6369,
      "Ġintroduction": 6370,
      "Ġrapidly": 6371,
      "FF": 6372,
      "Ġpig": 6373,
      "Time": 6374,
      "then": 6375,
      "Ġfasc": 6376,
      "Ġprogramming": 6377,
      "čĊč": 6378,
      "Ġcompute": 6379,
      "Ġarmy": 6380,
      "Ġconcerned": 6381,
      "itors": 6382,
      "dimens": 6383,
      "rot": 6384,
      "Ġinterview": 6385,
      "Ġrank": 6386,
      "Ġentirely": 6387,
      "ester": 6388,
      "Ġdiverse": 6389,
      "Ġdomestic": 6390,
      "Ġpump": 6391,
      "Ġprocedures": 6392,
      "ĠMedical": 6393,
      "conf": 6394,
      "Ġdriving": 6395,
      "Ob": 6396,
      "Ġmeasurements": 6397,
      "Ġbinary": 6398,
      "initely": 6399,
      "Ġages": 6400,
      "Ġinternet": 6401,
      "page": 6402,
      "power": 6403,
      "Ġdigits": 6404,
      "Ġwants": 6405,
      "reet": 6406,
      "roduction": 6407,
      "Ġenhance": 6408,
      "Ġplayer": 6409,
      "ĠCommission": 6410,
      "Ġagricultural": 6411,
      "Ġacts": 6412,
      "Ġfix": 6413,
      "Ġbiological": 6414,
      "Ġnations": 6415,
      "Ġfailed": 6416,
      "Ġunless": 6417,
      "Ġparameter": 6418,
      "Me": 6419,
      "ĠMuslim": 6420,
      "Ġcognitive": 6421,
      "ĠBC": 6422,
      "rh": 6423,
      "Ġcong": 6424,
      "TP": 6425,
      "ĠOR": 6426,
      "Ġexplanation": 6427,
      "racy": 6428,
      "icon": 6429,
      "Ġdeliver": 6430,
      "Ġcomputers": 6431,
      "Ġharv": 6432,
      "VID": 6433,
      "Ġupdate": 6434,
      "Ġenable": 6435,
      "Ġcoordinates": 6436,
      "using": 6437,
      "Ġprepare": 6438,
      "Ġrepresenting": 6439,
      "cat": 6440,
      "ĠFe": 6441,
      "({": 6442,
      "ĠArmy": 6443,
      "Ġalign": 6444,
      "Ġcorrel": 6445,
      "frame": 6446,
      "rox": 6447,
      "Ġgrown": 6448,
      "aud": 6449,
      "Ġwhereas": 6450,
      "Ġproduces": 6451,
      "Ġinterests": 6452,
      "ĠMethod": 6453,
      "Ġfacilities": 6454,
      "called": 6455,
      "Ġpoverty": 6456,
      "Ġbag": 6457,
      "Par": 6458,
      "Ġends": 6459,
      "ĠSuch": 6460,
      "ÃŃ": 6461,
      "source": 6462,
      "Ġtouch": 6463,
      "Ġlogging": 6464,
      "Ġjourney": 6465,
      "Ġsatell": 6466,
      "Ġcrisis": 6467,
      "Ġclaims": 6468,
      "AAAA": 6469,
      "Ġsubstance": 6470,
      "/(": 6471,
      "Ġdiameter": 6472,
      "Ġcarefully": 6473,
      "Ġreject": 6474,
      "Ġnecessarily": 6475,
      "ĠBible": 6476,
      "RA": 6477,
      "Ġcrops": 6478,
      "img": 6479,
      "Ġsen": 6480,
      "jango": 6481,
      "ync": 6482,
      "Ġmovements": 6483,
      "Ġexchange": 6484,
      "Ġrail": 6485,
      "Ġpolice": 6486,
      "tenance": 6487,
      "ocation": 6488,
      "Americ": 6489,
      "igenous": 6490,
      "Ġshell": 6491,
      "Ġmm": 6492,
      "chers": 6493,
      "ĠSte": 6494,
      "ĠAut": 6495,
      "otion": 6496,
      "ĠMem": 6497,
      "Ġphr": 6498,
      "Ġnetworks": 6499,
      "Ġvs": 6500,
      "Ġdimensions": 6501,
      "token": 6502,
      "Ġours": 6503,
      "anes": 6504,
      "Figure": 6505,
      "batch": 6506,
      "Ġoverl": 6507,
      "Ġmit": 6508,
      "Ġcapable": 6509,
      "ĠSl": 6510,
      "Ġsuccessfully": 6511,
      "Ġprem": 6512,
      ")|": 6513,
      "duced": 6514,
      "zym": 6515,
      "Ġfoundation": 6516,
      "inating": 6517,
      "obs": 6518,
      "Ġdiscrim": 6519,
      "Ġ..": 6520,
      ")-": 6521,
      "Ġimmun": 6522,
      "Ġinequality": 6523,
      "organ": 6524,
      "Ġlots": 6525,
      "ĠEconom": 6526,
      "ĠFlor": 6527,
      "Ġrural": 6528,
      "Ġappearance": 6529,
      "Ġbattery": 6530,
      "Ġrecognized": 6531,
      "Ġpictures": 6532,
      "Ġhorse": 6533,
      "ĠKnow": 6534,
      "Ġlocations": 6535,
      "Ġprincip": 6536,
      "Ġpossibility": 6537,
      "Ġprotected": 6538,
      "graph": 6539,
      "Ġfrag": 6540,
      "argument": 6541,
      "Ġmobile": 6542,
      "ircraft": 6543,
      "Ġ;": 6544,
      "Ġregularly": 6545,
      "Ġexperiments": 6546,
      "Go": 6547,
      "Ġsecure": 6548,
      "Ġobjective": 6549,
      "Ġexpensive": 6550,
      "neg": 6551,
      "Ġnan": 6552,
      "Key": 6553,
      "Ġpip": 6554,
      "ĠTreat": 6555,
      "content": 6556,
      "ota": 6557,
      "ĠRad": 6558,
      "rons": 6559,
      "ĠOnly": 6560,
      "valu": 6561,
      "Ġlisted": 6562,
      "Ġsummary": 6563,
      "Te": 6564,
      "ĠControl": 6565,
      "ĠJud": 6566,
      "Ġthousand": 6567,
      "Ġsquares": 6568,
      "Ġknew": 6569,
      "}$,": 6570,
      "Ġtun": 6571,
      "Ġrub": 6572,
      "ĠAlex": 6573,
      "elihood": 6574,
      "Ġarguments": 6575,
      "Ġinverse": 6576,
      "ĠRobert": 6577,
      "alog": 6578,
      "Ġplate": 6579,
      "CA": 6580,
      "Ġdefic": 6581,
      "ĠMiddle": 6582,
      "Ġpossibly": 6583,
      "cium": 6584,
      "Ġhappy": 6585,
      "','": 6586,
      "Ġisinstance": 6587,
      "Up": 6588,
      "Ġaccuracy": 6589,
      "tan": 6590,
      "vol": 6591,
      "ĠManagement": 6592,
      "Ġcomparison": 6593,
      "angular": 6594,
      "eless": 6595,
      "Ġbehaviour": 6596,
      "Ġgovernments": 6597,
      "Ġfeelings": 6598,
      "---": 6599,
      "Ġrecall": 6600,
      "urd": 6601,
      "rolog": 6602,
      "Ġ^": 6603,
      "Ġextended": 6604,
      "umes": 6605,
      "Ġnoise": 6606,
      "Ġparser": 6607,
      ".\"\"\"": 6608,
      "Ġprison": 6609,
      "ĠJose": 6610,
      "Ġhabitat": 6611,
      "Ġmathematic": 6612,
      "Ġsecondary": 6613,
      "Ġboost": 6614,
      "find": 6615,
      "Ġdiscipl": 6616,
      "ĠSmith": 6617,
      "imation": 6618,
      "Ġmodule": 6619,
      "Ġwestern": 6620,
      "Ġchallenging": 6621,
      "Ġrein": 6622,
      "ĠRussian": 6623,
      "dep": 6624,
      "Ġnarrow": 6625,
      "Ġpil": 6626,
      "rays": 6627,
      "Ġwear": 6628,
      "olf": 6629,
      "ĠExper": 6630,
      "%.": 6631,
      "Ġconversion": 6632,
      "Ġabuse": 6633,
      "ocket": 6634,
      "Ġdut": 6635,
      "Ġdiscovery": 6636,
      "Ġ<=": 6637,
      "Example": 6638,
      "mu": 6639,
      "itage": 6640,
      "ini": 6641,
      "ĠLake": 6642,
      "oor": 6643,
      "ffee": 6644,
      "Ġdocuments": 6645,
      "Ġappeared": 6646,
      "Ġwish": 6647,
      "Ġ},": 6648,
      "ĠPacific": 6649,
      "Ġloop": 6650,
      "Ġlatter": 6651,
      "Ġsegment": 6652,
      "Ġbusinesses": 6653,
      "Ġsuffering": 6654,
      "ĠHence": 6655,
      "Ġdeaths": 6656,
      "Ġcardi": 6657,
      "Ġsignals": 6658,
      "Note": 6659,
      "Ġpregnancy": 6660,
      "ĠSign": 6661,
      "Ġrecip": 6662,
      "pring": 6663,
      "env": 6664,
      "Ġweap": 6665,
      "title": 6666,
      "ĠNor": 6667,
      "ĠLand": 6668,
      "Ġreb": 6669,
      "Ġplt": 6670,
      "being": 6671,
      "Ġstages": 6672,
      "Ġuns": 6673,
      "Per": 6674,
      "Ġfle": 6675,
      "orrow": 6676,
      "dden": 6677,
      "Ġresidents": 6678,
      "cest": 6679,
      "ln": 6680,
      "PR": 6681,
      "Ġcatch": 6682,
      "Ġscript": 6683,
      "uses": 6684,
      "Ġhypothesis": 6685,
      "Ġknows": 6686,
      "Ġgun": 6687,
      "king": 6688,
      "Ġdiversity": 6689,
      "gra": 6690,
      "ascular": 6691,
      "Ġque": 6692,
      "ĠCarol": 6693,
      "Ġsed": 6694,
      "ky": 6695,
      "Ġmaps": 6696,
      "Ġpuzz": 6697,
      "Ġsections": 6698,
      "opyright": 6699,
      "Ġleaf": 6700,
      "Ġ##": 6701,
      "sembly": 6702,
      "Ġgar": 6703,
      "Ġ###": 6704,
      "Find": 6705,
      "uple": 6706,
      "Ġofficials": 6707,
      "Ġsan": 6708,
      "Ġunderstood": 6709,
      "ads": 6710,
      "ĠAcc": 6711,
      "Ġcontra": 6712,
      "orous": 6713,
      "See": 6714,
      "Ġjoin": 6715,
      "Ġacceleration": 6716,
      "Ġproducing": 6717,
      "ĠPsych": 6718,
      "hent": 6719,
      "Ġchief": 6720,
      "Ġcloud": 6721,
      "Ġrecovery": 6722,
      "Ġinfected": 6723,
      "ĠNon": 6724,
      "Ġcomposition": 6725,
      "Ġcourses": 6726,
      "acent": 6727,
      "ifications": 6728,
      "Ġsheet": 6729,
      "ĠInc": 6730,
      "Add": 6731,
      "ĠMoreover": 6732,
      "Ġcontem": 6733,
      "omic": 6734,
      "cience": 6735,
      "Ġtraffic": 6736,
      "Ġmillions": 6737,
      "lers": 6738,
      "ĠSea": 6739,
      "Ġinfrastructure": 6740,
      "Ġsupplement": 6741,
      "Ġlayers": 6742,
      "Ġinflammation": 6743,
      "Other": 6744,
      "Ġrows": 6745,
      "agers": 6746,
      "Ġtoler": 6747,
      "Ġban": 6748,
      "Ġthor": 6749,
      "Ġmagnitude": 6750,
      "tr": 6751,
      "aser": 6752,
      "Ġmedications": 6753,
      "Ġnarr": 6754,
      "ĠKore": 6755,
      "alities": 6756,
      "clusive": 6757,
      "Ġedges": 6758,
      "itudes": 6759,
      "Ġamb": 6760,
      "Ġneighbor": 6761,
      "Ġdx": 6762,
      "HT": 6763,
      "ĠRussia": 6764,
      "ellect": 6765,
      "Ġobserve": 6766,
      "Ġbigger": 6767,
      "ĠSaf": 6768,
      "Ġaccepted": 6769,
      "Ġconfir": 6770,
      "Ġbot": 6771,
      "Ġprotocol": 6772,
      "ĠNav": 6773,
      "Ġpray": 6774,
      "Ġlun": 6775,
      "Ġbelie": 6776,
      "Ġexploring": 6777,
      "ĠCompany": 6778,
      "Model": 6779,
      "ĠTop": 6780,
      "kes": 6781,
      "urb": 6782,
      "Ġsole": 6783,
      "ĠIP": 6784,
      "ĠMont": 6785,
      "Ġframework": 6786,
      "utils": 6787,
      ")),": 6788,
      "Ñģ": 6789,
      "Ġsyndrome": 6790,
      "zen": 6791,
      "Ġtables": 6792,
      "Ġsteel": 6793,
      "items": 6794,
      "Ġskill": 6795,
      "ithmetic": 6796,
      "Ġ),": 6797,
      "Ġexpansion": 6798,
      "Ġsudden": 6799,
      "Ġoriginally": 6800,
      "Ġstatements": 6801,
      "Ġdeeper": 6802,
      "mas": 6803,
      "Ġnone": 6804,
      "Ġnine": 6805,
      "eles": 6806,
      "appe": 6807,
      "itative": 6808,
      "Ġneither": 6809,
      "}}\\": 6810,
      "Ġdirector": 6811,
      "Ġcreative": 6812,
      "estyle": 6813,
      "Ġjustice": 6814,
      "Ġsequences": 6815,
      "Ġvehicles": 6816,
      "Ġdoor": 6817,
      "}=": 6818,
      "ĠHave": 6819,
      "ĠBet": 6820,
      "coming": 6821,
      "Ġguidelines": 6822,
      "********": 6823,
      "Ġuniverse": 6824,
      "Ġspiritual": 6825,
      "ĠSov": 6826,
      "Ġsensitive": 6827,
      "Last": 6828,
      "ĠBudd": 6829,
      "Ġgather": 6830,
      "Ġachieved": 6831,
      "################################": 6832,
      "annels": 6833,
      "Ġsick": 6834,
      "ye": 6835,
      "Ġaccounts": 6836,
      "query": 6837,
      "Ġdataset": 6838,
      "Ġfewer": 6839,
      "vironments": 6840,
      "ĠGood": 6841,
      "Ġcart": 6842,
      "Ġverb": 6843,
      "Ed": 6844,
      "Ġcorpor": 6845,
      "const": 6846,
      "EX": 6847,
      "Ġadequ": 6848,
      "Ġmac": 6849,
      "dule": 6850,
      "ĠMain": 6851,
      "words": 6852,
      "ili": 6853,
      "Ġintelligence": 6854,
      "ĠCatholic": 6855,
      "inet": 6856,
      "ĠÏĢ": 6857,
      "ampling": 6858,
      "ĠWomen": 6859,
      "ilon": 6860,
      "ĠRights": 6861,
      "rine": 6862,
      "ĠCharles": 6863,
      "imeter": 6864,
      "PL": 6865,
      "ĠTri": 6866,
      "Ġcrop": 6867,
      "Ġreform": 6868,
      "Ġconcrete": 6869,
      "ATION": 6870,
      "Ġdental": 6871,
      "ĠFranc": 6872,
      "Ġfre": 6873,
      "Ġflight": 6874,
      "Ã¢": 6875,
      "ulin": 6876,
      "Ġcup": 6877,
      "Ġmanufacturing": 6878,
      "Ġsuc": 6879,
      "Ġbudget": 6880,
      "ĠScient": 6881,
      "Ġresponses": 6882,
      "Ġhealthcare": 6883,
      "Ġsubtract": 6884,
      "close": 6885,
      "Ġshut": 6886,
      "Ġnumpy": 6887,
      "ĠShow": 6888,
      "Ġconstraint": 6889,
      "Ġcorrectly": 6890,
      "Ġinsert": 6891,
      "Ġcolour": 6892,
      "Ġfunding": 6893,
      "Ġscre": 6894,
      "Ġinitially": 6895,
      "Ġpand": 6896,
      "Ġmoral": 6897,
      "Ġseeing": 6898,
      "Ġhunt": 6899,
      "Ġmassive": 6900,
      "Ġmanif": 6901,
      "ultane": 6902,
      "ĠTw": 6903,
      "ĠLeg": 6904,
      "Ġreaders": 6905,
      "Ġprev": 6906,
      "ĠâĨĴ": 6907,
      "ĠThrough": 6908,
      "Ġimproving": 6909,
      "gest": 6910,
      "Ġsharing": 6911,
      "Ġevaluation": 6912,
      "first": 6913,
      "Ġpartial": 6914,
      "xb": 6915,
      "ceived": 6916,
      "Ġtall": 6917,
      "ĠPoint": 6918,
      "Ġdependent": 6919,
      "world": 6920,
      "During": 6921,
      "Ġimplies": 6922,
      "Ġsuffer": 6923,
      "ĠFree": 6924,
      "ĠInteg": 6925,
      "Ġintake": 6926,
      "Ġtal": 6927,
      "Ġinteraction": 6928,
      "etch": 6929,
      "Ġdemonstrate": 6930,
      "Part": 6931,
      "Ġmoon": 6932,
      "ĠProblem": 6933,
      "ĠStudies": 6934,
      "Ġtank": 6935,
      "Ġsignificance": 6936,
      "Ġthread": 6937,
      "Ġprevention": 6938,
      "ront": 6939,
      "Ġnull": 6940,
      "Ġcomprehensive": 6941,
      "adata": 6942,
      "save": 6943,
      "Ġorient": 6944,
      "Ġmolecules": 6945,
      "Ġagriculture": 6946,
      "Next": 6947,
      "Ġbroken": 6948,
      "Ġproceed": 6949,
      "Ġmarked": 6950,
      "Pr": 6951,
      "attr": 6952,
      "Î±": 6953,
      "Ġhouses": 6954,
      "Ġmountain": 6955,
      "ĠSym": 6956,
      "Ġà¤": 6957,
      "ĠAnn": 6958,
      "Ġaccum": 6959,
      "Ġcalculation": 6960,
      "Ġcompr": 6961,
      "azing": 6962,
      "xe": 6963,
      "Ġultimately": 6964,
      "Ġallerg": 6965,
      "fill": 6966,
      "ĠZe": 6967,
      "ĠHenry": 6968,
      "ĠLibrary": 6969,
      "Ġcontained": 6970,
      "Ġsurvival": 6971,
      "ether": 6972,
      "Ġbeneficial": 6973,
      "Ġimper": 6974,
      "filter": 6975,
      "ĠLog": 6976,
      "fortunately": 6977,
      "Ġparties": 6978,
      "ĠDesign": 6979,
      "Rec": 6980,
      "random": 6981,
      "PO": 6982,
      "Ġfertil": 6983,
      "Using": 6984,
      "Ġadvoc": 6985,
      "ĠïĢ": 6986,
      "Ġopened": 6987,
      "Ġrecycl": 6988,
      "Ġmaybe": 6989,
      "ĠBro": 6990,
      "Ġreader": 6991,
      "vest": 6992,
      "Ġsports": 6993,
      "ien": 6994,
      "Ġcategories": 6995,
      "ervices": 6996,
      "iat": 6997,
      "ĠFigure": 6998,
      "Ġtut": 6999,
      "Ġinsp": 7000,
      "Solution": 7001,
      "ĠConsider": 7002,
      "Ġhighlight": 7003,
      "EE": 7004,
      "Ġdepos": 7005,
      "Ġplayers": 7006,
      "abits": 7007,
      "ĠStudy": 7008,
      "Ġble": 7009,
      "Ġcomputing": 7010,
      "Def": 7011,
      "ĠReturns": 7012,
      "Ġshel": 7013,
      "Ġbrown": 7014,
      "Ġdiagram": 7015,
      "Ġextensive": 7016,
      "Ġwriter": 7017,
      "circ": 7018,
      "hether": 7019,
      "Ġnodes": 7020,
      "Ġtransmission": 7021,
      "Ġelectron": 7022,
      "ipping": 7023,
      "Ġleadership": 7024,
      "esity": 7025,
      "Ġopinion": 7026,
      "ĠLess": 7027,
      "Ġrevealed": 7028,
      "Ġsoldiers": 7029,
      "}_": 7030,
      "IF": 7031,
      "ĠAnsw": 7032,
      "phone": 7033,
      "Ġbin": 7034,
      "ĠSec": 7035,
      "Ġreplaced": 7036,
      "âĢĻ,": 7037,
      "Ġfinite": 7038,
      "ĠExpl": 7039,
      "Ġlogic": 7040,
      "Ġattached": 7041,
      "Ġopening": 7042,
      "Ġestimates": 7043,
      "ĠVis": 7044,
      "ĠAbout": 7045,
      "inking": 7046,
      "orical": 7047,
      "Ġinstructions": 7048,
      "Ġaircraft": 7049,
      "Ġshif": 7050,
      "Ġstrict": 7051,
      "dist": 7052,
      "Ġmatrices": 7053,
      "ĠEmp": 7054,
      "ato": 7055,
      "Ġworse": 7056,
      "xc": 7057,
      "Ġlandscape": 7058,
      "Ġhidden": 7059,
      "Ġengage": 7060,
      "ĠVari": 7061,
      "https": 7062,
      "ona": 7063,
      "Ġordered": 7064,
      "Ġtruly": 7065,
      "Ġmaintaining": 7066,
      "ernel": 7067,
      "spe": 7068,
      "Ã³": 7069,
      "Ġanalyze": 7070,
      "Ġcompound": 7071,
      "example": 7072,
      "ĠNature": 7073,
      "UM": 7074,
      "ĠMo": 7075,
      "Man": 7076,
      "omach": 7077,
      "ĠProv": 7078,
      "irt": 7079,
      "Ġscores": 7080,
      "Ġmeasuring": 7081,
      "Ġflav": 7082,
      "Ġpoet": 7083,
      "Ġfab": 7084,
      "itan": 7085,
      "kin": 7086,
      "Ġclar": 7087,
      "Ġmedication": 7088,
      "Ġscal": 7089,
      "ĠFinally": 7090,
      "hemical": 7091,
      "Ġcircul": 7092,
      "Ġchannel": 7093,
      "TER": 7094,
      "ĠOption": 7095,
      "bug": 7096,
      "inity": 7097,
      "~~": 7098,
      "Ref": 7099,
      "Ġregist": 7100,
      "ĠDel": 7101,
      "Ġtrials": 7102,
      "ĠMag": 7103,
      "Ġslowly": 7104,
      "sem": 7105,
      "Ġdifficulty": 7106,
      "Ġprofessionals": 7107,
      "ĠBre": 7108,
      "Ġaf": 7109,
      "abs": 7110,
      "alian": 7111,
      "Ġworldwide": 7112,
      "ĠQuestions": 7113,
      "Ġbatch": 7114,
      "ĠMill": 7115,
      "ship": 7116,
      "Ġgravity": 7117,
      "[-": 7118,
      "Ġera": 7119,
      "Ġadopted": 7120,
      "wing": 7121,
      "ĠLong": 7122,
      "Ġcircumstances": 7123,
      "Ġmachines": 7124,
      "Ġcutting": 7125,
      "real": 7126,
      "Ġlisten": 7127,
      "Ġdetermining": 7128,
      "ateral": 7129,
      "Ġtheore": 7130,
      "Ġflag": 7131,
      "zero": 7132,
      "allow": 7133,
      "Ġmyth": 7134,
      "Ġabund": 7135,
      "ua": 7136,
      "Cons": 7137,
      "ĠProfessor": 7138,
      "ĠAI": 7139,
      "Ġod": 7140,
      "Ġknowing": 7141,
      "itivity": 7142,
      "Ġdecline": 7143,
      "Ġelectronic": 7144,
      "beta": 7145,
      "ĠJul": 7146,
      "Ġgal": 7147,
      "plete": 7148,
      "igation": 7149,
      "ector": 7150,
      "Ġconj": 7151,
      "Ġmask": 7152,
      "Ġgeometry": 7153,
      "orig": 7154,
      "Ġwalking": 7155,
      "Out": 7156,
      "Ġcentre": 7157,
      "ĠThose": 7158,
      "}+": 7159,
      "ĠFun": 7160,
      "asive": 7161,
      "hedule": 7162,
      "stein": 7163,
      "ĠCare": 7164,
      "Ġtrick": 7165,
      "herent": 7166,
      "ĠLouis": 7167,
      "osph": 7168,
      "Ġdistrict": 7169,
      "Cal": 7170,
      "ĠWild": 7171,
      "eps": 7172,
      "Ã¼": 7173,
      "Ġfunctional": 7174,
      "Ġwhatever": 7175,
      "Ġagreement": 7176,
      "ĠKey": 7177,
      "ston": 7178,
      "ctic": 7179,
      "Ġbones": 7180,
      "ĠEnvironmental": 7181,
      "cription": 7182,
      "ĊĊĠ": 7183,
      "Ġkit": 7184,
      "Are": 7185,
      "Ġtransformation": 7186,
      "Ġasking": 7187,
      "ashion": 7188,
      "Ġmigr": 7189,
      "Ġenvironments": 7190,
      "ĠTheorem": 7191,
      "Ġsweet": 7192,
      "agues": 7193,
      "aped": 7194,
      "ĠOffice": 7195,
      "Ġtoy": 7196,
      "Ġvillage": 7197,
      "Ġregional": 7198,
      "ĠAB": 7199,
      "Ġconc": 7200,
      "Form": 7201,
      "Ġstruggle": 7202,
      "Ġstanding": 7203,
      "ogram": 7204,
      "Ġconcerning": 7205,
      "Ġarms": 7206,
      "Ġafford": 7207,
      "Ġmaintenance": 7208,
      "ĠISBN": 7209,
      "ĠTor": 7210,
      "Your": 7211,
      "Ġscholars": 7212,
      "Ġusage": 7213,
      "Dr": 7214,
      "Ġinfinite": 7215,
      "Ġelectro": 7216,
      "Ġharmful": 7217,
      "Ġsurvive": 7218,
      "*(": 7219,
      "erator": 7220,
      "Ġcamera": 7221,
      "erated": 7222,
      "han": 7223,
      "Ġforests": 7224,
      "ĠTake": 7225,
      "ESS": 7226,
      "Ġsod": 7227,
      "Ġancest": 7228,
      "Ġfiber": 7229,
      "Ġantibiot": 7230,
      "ĠUSA": 7231,
      "ĠMa": 7232,
      "files": 7233,
      "cut": 7234,
      "Ġroute": 7235,
      "ĠAS": 7236,
      "ĠFlorida": 7237,
      "inction": 7238,
      "burg": 7239,
      "ĠSolution": 7240,
      "Ġruns": 7241,
      "ĠVirginia": 7242,
      "Reg": 7243,
      "Ġquery": 7244,
      "Ġbranch": 7245,
      "Ġobservation": 7246,
      "itter": 7247,
      "aked": 7248,
      "dig": 7249,
      "Ġpassing": 7250,
      "Ġquantities": 7251,
      "Ġpurchase": 7252,
      "Pe": 7253,
      "Ġcriteria": 7254,
      "cknow": 7255,
      "ĠAM": 7256,
      "Ġsymbols": 7257,
      "Ġske": 7258,
      "ĠTer": 7259,
      "Ġlearners": 7260,
      "Med": 7261,
      "Ġstable": 7262,
      "Ġmechanism": 7263,
      "Ġidentical": 7264,
      "ĠKen": 7265,
      "````": 7266,
      "Ġresid": 7267,
      "ĠTable": 7268,
      "Ġinstrument": 7269,
      "lements": 7270,
      "::": 7271,
      "agon": 7272,
      "Ġcollabor": 7273,
      "erior": 7274,
      "oric": 7275,
      "types": 7276,
      "ĠMulti": 7277,
      "ĠEss": 7278,
      "Ġmonitor": 7279,
      "Ġurl": 7280,
      "Ġmanaged": 7281,
      "ribution": 7282,
      "Ġahead": 7283,
      "Ġdust": 7284,
      "draw": 7285,
      "Ġpapers": 7286,
      "Ð¾Ð": 7287,
      "Ġminute": 7288,
      "Ġprompt": 7289,
      "ĠFrancis": 7290,
      "ĠEnd": 7291,
      "aria": 7292,
      "Ġinjuries": 7293,
      "Ġremote": 7294,
      "plex": 7295,
      "isely": 7296,
      "Ġorganized": 7297,
      "nings": 7298,
      "Ġsupports": 7299,
      "liament": 7300,
      "dimensional": 7301,
      "Ġcultiv": 7302,
      "Ġwarming": 7303,
      "ĠReport": 7304,
      "property": 7305,
      "pop": 7306,
      "Ġassistance": 7307,
      "Ġputting": 7308,
      "Ġfly": 7309,
      "Ġdoctors": 7310,
      "Ġwildlife": 7311,
      "Ġboxes": 7312,
      "Ġadministration": 7313,
      "ĠNov": 7314,
      "hav": 7315,
      "Trans": 7316,
      "ega": 7317,
      ")$$": 7318,
      "Ġourselves": 7319,
      "copy": 7320,
      "Ġsky": 7321,
      "ropical": 7322,
      "ĊĠĠĠĠĠĠĠĠĠĠĠĠĠĠĠĠĠĠĠĠĠĠĠĠĠĠĠĠĠĠĠĠĠĠĠĠĠĠĠĠ": 7323,
      "Ġresolution": 7324,
      "soft": 7325,
      "ĠRemember": 7326,
      "ĠLabor": 7327,
      "ĠPeter": 7328,
      "ĠĠĠĠĠĠĠĠĠĠĠĠĠĠĠĠĠĠĠĠĠĠĠĠĠĠĠĠĠĠĠĠ": 7329,
      "ĠDig": 7330,
      "icing": 7331,
      "Ġgreatly": 7332,
      "ĠOper": 7333,
      "fficients": 7334,
      "Ġfourth": 7335,
      "Ġcoffee": 7336,
      "Ġuncertain": 7337,
      "Ġdelay": 7338,
      "Ġconscious": 7339,
      "Hello": 7340,
      "Ġsimultane": 7341,
      "sequently": 7342,
      "ĠFederal": 7343,
      "ĠWhere": 7344,
      "terol": 7345,
      "ĠGlobal": 7346,
      "erals": 7347,
      "Ġpool": 7348,
      "Ġcomments": 7349,
      "Ġaqu": 7350,
      "Ġdoubt": 7351,
      "Che": 7352,
      "ella": 7353,
      "link": 7354,
      "Ġimmediate": 7355,
      "ĠOh": 7356,
      "just": 7357,
      ".|": 7358,
      "ATE": 7359,
      "Ġlaun": 7360,
      "Ġhousehold": 7361,
      "Ġrh": 7362,
      "Ġlie": 7363,
      "ponse": 7364,
      "Ġcyl": 7365,
      "rency": 7366,
      "icate": 7367,
      "Ġbear": 7368,
      "Ġdemonstrated": 7369,
      "Ġmessages": 7370,
      ".âĢĻ": 7371,
      "Ġmarriage": 7372,
      "zed": 7373,
      "usiness": 7374,
      "Ġmarks": 7375,
      "inition": 7376,
      "Ġshop": 7377,
      "ĠAdditionally": 7378,
      "Ġreverse": 7379,
      "edge": 7380,
      "Ġcustomers": 7381,
      "Ġexplicit": 7382,
      "Ġbiggest": 7383,
      "ĠBank": 7384,
      "Ġzone": 7385,
      "inant": 7386,
      "ĠGold": 7387,
      "isk": 7388,
      "ĠIdent": 7389,
      "Ġcrow": 7390,
      "Ġdifferential": 7391,
      "Ġborder": 7392,
      "Ġsizes": 7393,
      "ĠExt": 7394,
      "Ġgap": 7395,
      "olesterol": 7396,
      "Ġmuseum": 7397,
      "ulary": 7398,
      "Ġdb": 7399,
      "uing": 7400,
      "ĠIll": 7401,
      "Ġcapture": 7402,
      "oster": 7403,
      "Ġvirtual": 7404,
      "Ġspin": 7405,
      "Ġdenominator": 7406,
      "Ġbio": 7407,
      "ĠSoviet": 7408,
      "Text": 7409,
      "Ġeigen": 7410,
      "stone": 7411,
      "Ġfell": 7412,
      "ĠPage": 7413,
      "Ġpersist": 7414,
      "Ġlabels": 7415,
      "lets": 7416,
      "Over": 7417,
      "Ġarbit": 7418,
      "Use": 7419,
      "OP": 7420,
      "Ã¶": 7421,
      "hesis": 7422,
      "Ġwww": 7423,
      "ita": 7424,
      "Ġcovers": 7425,
      "Ġshad": 7426,
      "Ġtraum": 7427,
      "Ġphotos": 7428,
      "Ġreduces": 7429,
      "ribe": 7430,
      "actions": 7431,
      "such": 7432,
      "Ġenzym": 7433,
      "Ġpup": 7434,
      "ulas": 7435,
      "DS": 7436,
      "Ġthanks": 7437,
      "ĠDan": 7438,
      "ĠColumb": 7439,
      "Ġtriangles": 7440,
      "reshold": 7441,
      "Ġsusp": 7442,
      "Ġmarine": 7443,
      "tic": 7444,
      "ĠNOT": 7445,
      "Ġroof": 7446,
      "Ġremark": 7447,
      "ĠSing": 7448,
      "OC": 7449,
      "ĠPlease": 7450,
      "ĠCommit": 7451,
      "HS": 7452,
      "Ġintervention": 7453,
      "Ġconventional": 7454,
      "Ġequally": 7455,
      "Ġalle": 7456,
      "Ġmamm": 7457,
      "Ġcalculator": 7458,
      "Ġheads": 7459,
      "ĠModel": 7460,
      "dim": 7461,
      "yles": 7462,
      "Ġfeedback": 7463,
      "ql": 7464,
      "ĠBuild": 7465,
      "block": 7466,
      "mask": 7467,
      "ĠYet": 7468,
      "Lear": 7469,
      "ĠWhich": 7470,
      "Ġ~": 7471,
      "ĠArea": 7472,
      "Ġensuring": 7473,
      "Ġdecade": 7474,
      "Ġsupporting": 7475,
      "Ġintellect": 7476,
      "Ġsales": 7477,
      "ĠParis": 7478,
      "this": 7479,
      "ĠStreet": 7480,
      "ictor": 7481,
      "Ġconsumers": 7482,
      "ĊĠĠĠĠĠĠĠĠĠĠĠĠ": 7483,
      "ĠÂ·": 7484,
      "Des": 7485,
      "Ġaudience": 7486,
      "[:,": 7487,
      "ĠConstitution": 7488,
      "Ġstomach": 7489,
      "Ġcomplexity": 7490,
      "hop": 7491,
      "Ġbond": 7492,
      "Ġagreed": 7493,
      "ĠSpe": 7494,
      "ican": 7495,
      "ĠMathematics": 7496,
      "Then": 7497,
      "Ġhydrogen": 7498,
      "Ġexercises": 7499,
      "icide": 7500,
      "pm": 7501,
      "Ans": 7502,
      "Ġadopt": 7503,
      "Ġconven": 7504,
      "medi": 7505,
      "ĠPython": 7506,
      "Ġacids": 7507,
      "DP": 7508,
      "ĠOpen": 7509,
      "bridge": 7510,
      "sg": 7511,
      "Ġ((": 7512,
      "ĠFurthermore": 7513,
      "Ġlegs": 7514,
      "Ġaer": 7515,
      "Ġcorner": 7516,
      "inated": 7517,
      "Ass": 7518,
      "čĊĠĠĠĠĠĠĠĠĠĠĠĠĠĠĠ": 7519,
      "oom": 7520,
      "Ġcareful": 7521,
      "Ġattend": 7522,
      "ĠJoseph": 7523,
      "Ġagencies": 7524,
      "ocabulary": 7525,
      "icians": 7526,
      "iate": 7527,
      "Ġtwenty": 7528,
      "Ġpermanent": 7529,
      "Ġchildhood": 7530,
      "'))": 7531,
      "Ġdefinitions": 7532,
      "ĠWrit": 7533,
      "ĠDisease": 7534,
      "Ġindependence": 7535,
      "Ġrelax": 7536,
      "Ġwitness": 7537,
      "Ġfavorite": 7538,
      "sts": 7539,
      "Ġlect": 7540,
      "Ġbread": 7541,
      "Ġsmallest": 7542,
      "anda": 7543,
      "rypt": 7544,
      "ĠCanadian": 7545,
      "Ġvariation": 7546,
      "cribed": 7547,
      "Ġsubsequent": 7548,
      "Ġgone": 7549,
      "teen": 7550,
      "Ġdedicated": 7551,
      "ĠFrank": 7552,
      "ora": 7553,
      "ĠLanguage": 7554,
      "Ġcritic": 7555,
      "Ġunable": 7556,
      "Ġpolar": 7557,
      "Ġcalcium": 7558,
      "ĠAustralian": 7559,
      "ĠPub": 7560,
      "Ġretain": 7561,
      "ĠCap": 7562,
      "Ġsupposed": 7563,
      "Ġvote": 7564,
      "Ġsight": 7565,
      "Ġforget": 7566,
      "EP": 7567,
      "context": 7568,
      "venue": 7569,
      "Ġ>=": 7570,
      "Ġcycl": 7571,
      "Ġcraft": 7572,
      "ĠWord": 7573,
      "ĠMean": 7574,
      "Ġhole": 7575,
      "case": 7576,
      "ĊĠĠĠĠĠĠĠĠĠĠĠĠĠĠĠĠĠĠĠĠĠĠĠĠĠĠĠĠĠĠĠ": 7577,
      "Ġdoi": 7578,
      "irty": 7579,
      "Ġinstitution": 7580,
      "Class": 7581,
      "Ġradical": 7582,
      "Ġinsects": 7583,
      "Ġemotions": 7584,
      "Ġexciting": 7585,
      "Ġsurfaces": 7586,
      "Ġft": 7587,
      "ĠGal": 7588,
      "Ġimprovement": 7589,
      "Ġlaunch": 7590,
      "ba": 7591,
      "Ġarchitecture": 7592,
      "Ġalter": 7593,
      "Ġpartner": 7594,
      "irus": 7595,
      "Ġfossil": 7596,
      "Ġyounger": 7597,
      "XX": 7598,
      "Ġbehaviors": 7599,
      "Ġtea": 7600,
      "project": 7601,
      "Ġment": 7602,
      "des": 7603,
      "Ġlifestyle": 7604,
      "Ġreserv": 7605,
      "Ġnotation": 7606,
      "Ġprincipal": 7607,
      "Ġcombinations": 7608,
      "Ġscenario": 7609,
      "Ġjump": 7610,
      "Ġacknow": 7611,
      "ĠNatural": 7612,
      "Ġauthorities": 7613,
      "lower": 7614,
      "Ġlaboratory": 7615,
      "Ġregul": 7616,
      "ikip": 7617,
      "Ġuniversity": 7618,
      "Ġtag": 7619,
      "Ġinputs": 7620,
      "ĠRob": 7621,
      "ĠNations": 7622,
      "ĠColor": 7623,
      "Ġintroduce": 7624,
      "Ġhabits": 7625,
      "Ġcommunicate": 7626,
      "iology": 7627,
      "ena": 7628,
      "Ġconstructed": 7629,
      "Ġprofit": 7630,
      "ĠBoard": 7631,
      "Ġpreval": 7632,
      "fish": 7633,
      "xd": 7634,
      "ĠCy": 7635,
      "Ġvessels": 7636,
      "author": 7637,
      "isters": 7638,
      "has": 7639,
      "Ġquadratic": 7640,
      "ĠDoes": 7641,
      "Ġnewsp": 7642,
      "ĠCirc": 7643,
      "kg": 7644,
      "ĠAnalysis": 7645,
      "CP": 7646,
      "roups": 7647,
      "alls": 7648,
      "xa": 7649,
      "Ġmock": 7650,
      "Ġvolunte": 7651,
      "event": 7652,
      "ideos": 7653,
      "Ġpresentation": 7654,
      "Ġrespir": 7655,
      "Ġbutton": 7656,
      "Ġfalls": 7657,
      "ĠSometimes": 7658,
      "ployment": 7659,
      "Ġsucceed": 7660,
      "cf": 7661,
      "Ġmol": 7662,
      "Ġcoefficient": 7663,
      "Ġcompl": 7664,
      "Ġembed": 7665,
      "ĠAL": 7666,
      "Ġarrived": 7667,
      "Ġdaughter": 7668,
      "ĠSouthern": 7669,
      "Ġholding": 7670,
      "Ġdin": 7671,
      "Ġhop": 7672,
      "Ġlic": 7673,
      "Ġtroops": 7674,
      "Ġampl": 7675,
      "Ġforth": 7676,
      "Ġcontainer": 7677,
      "ĠCOVID": 7678,
      "Ġrecognition": 7679,
      "Ġcorn": 7680,
      "Ġmultiplying": 7681,
      "itz": 7682,
      "sey": 7683,
      "mic": 7684,
      "Ġpron": 7685,
      "ĠGuide": 7686,
      "icious": 7687,
      "ĠIII": 7688,
      "Ġmatters": 7689,
      "ki": 7690,
      "Ġdesire": 7691,
      "di": 7692,
      "msg": 7693,
      "Ġbreathing": 7694,
      "onomy": 7695,
      "ĠStart": 7696,
      "rus": 7697,
      "Ġregulations": 7698,
      "Ġcultures": 7699,
      "Ġdirections": 7700,
      "Ġunus": 7701,
      "Ġtrained": 7702,
      "ĠHaw": 7703,
      "Ġmild": 7704,
      "Ġeveryday": 7705,
      "Ġdent": 7706,
      "search": 7707,
      "Ġtack": 7708,
      "Ġcoordinate": 7709,
      "Ġcircles": 7710,
      "Ġinteractions": 7711,
      "Ġru": 7712,
      "Ġexception": 7713,
      "Ġtrip": 7714,
      "\"],": 7715,
      "cope": 7716,
      "dri": 7717,
      "Ġhus": 7718,
      "ĠLu": 7719,
      "Ġinhib": 7720,
      "gans": 7721,
      "icago": 7722,
      "Ġaccident": 7723,
      "Ġmechanical": 7724,
      ")$.": 7725,
      "Ġtick": 7726,
      "Ġ${": 7727,
      "non": 7728,
      "ĠBefore": 7729,
      "Ġkilomet": 7730,
      "Ġgram": 7731,
      "mented": 7732,
      "Ġreactions": 7733,
      "Ġdollars": 7734,
      "Ġmerely": 7735,
      "tery": 7736,
      "Ġpromin": 7737,
      "tag": 7738,
      "Once": 7739,
      "Ġnam": 7740,
      "FA": 7741,
      "Ġchrom": 7742,
      "Ġhero": 7743,
      "ette": 7744,
      "Ġmechanisms": 7745,
      "ĠID": 7746,
      "Ġrotation": 7747,
      "Ġessentially": 7748,
      "riers": 7749,
      "diction": 7750,
      "EC": 7751,
      "{}": 7752,
      "ĠPan": 7753,
      "Ġregardless": 7754,
      "ĠTimes": 7755,
      "riction": 7756,
      "Ġbridge": 7757,
      "Ġemployed": 7758,
      "irds": 7759,
      "va": 7760,
      "Ġinsights": 7761,
      "craft": 7762,
      "itory": 7763,
      "Ġ(\\": 7764,
      "Ġgluc": 7765,
      "reland": 7766,
      "ikipedia": 7767,
      "Ġturning": 7768,
      "inson": 7769,
      "Ġphilosophy": 7770,
      "Ġextension": 7771,
      "Ġartificial": 7772,
      "Ġinsurance": 7773,
      "Ġneck": 7774,
      "ĠBig": 7775,
      "acu": 7776,
      "ĠClin": 7777,
      "oder": 7778,
      "Ġmir": 7779,
      "Ġclock": 7780,
      "wind": 7781,
      "Ġthr": 7782,
      "Ġnearby": 7783,
      "Ġdebate": 7784,
      "Ġethnic": 7785,
      "BS": 7786,
      "Ġouter": 7787,
      "Ġdeli": 7788,
      "IA": 7789,
      "'(": 7790,
      "Ġpin": 7791,
      "Ġhousing": 7792,
      ")$,": 7793,
      "Ġsupplies": 7794,
      "zil": 7795,
      "Ġboys": 7796,
      "Ġcholesterol": 7797,
      "hma": 7798,
      "expected": 7799,
      "claim": 7800,
      "csv": 7801,
      "Ġwasn": 7802,
      "operation": 7803,
      "arn": 7804,
      "Ġimplemented": 7805,
      "Ġdestroyed": 7806,
      "Ġmodified": 7807,
      "Ġjoined": 7808,
      "ĠUnderstanding": 7809,
      "Ġdividing": 7810,
      "Ġmultipl": 7811,
      "sigma": 7812,
      "Ġreliable": 7813,
      "atial": 7814,
      "Ġaccessible": 7815,
      "oral": 7816,
      "ĠRome": 7817,
      "ighter": 7818,
      "ĠWrite": 7819,
      "ĠCreat": 7820,
      "ĠBur": 7821,
      "Ġabstract": 7822,
      "lock": 7823,
      "Ġtransportation": 7824,
      "ĠMad": 7825,
      "Ġupdated": 7826,
      "Ġfeeding": 7827,
      "earchers": 7828,
      "Ġshot": 7829,
      "ĠNext": 7830,
      "ĠAp": 7831,
      "Ġdebt": 7832,
      "Ġexplo": 7833,
      "Ġcounting": 7834,
      "sign": 7835,
      "Ġcompetition": 7836,
      "Ġconsumer": 7837,
      "Ġagg": 7838,
      "core": 7839,
      "Ġtaste": 7840,
      "ĠChild": 7841,
      "Ġscene": 7842,
      "Ġbutter": 7843,
      "Ġcompounds": 7844,
      "isp": 7845,
      "Ġrely": 7846,
      "Ġindicated": 7847,
      "Ġoccasion": 7848,
      "Ġcoefficients": 7849,
      "ĠEst": 7850,
      "Log": 7851,
      "ĠInit": 7852,
      "Ġbrings": 7853,
      "Ġsmoking": 7854,
      "fn": 7855,
      "Am": 7856,
      "Ġdimension": 7857,
      "Ġeld": 7858,
      "Ġmg": 7859,
      "diff": 7860,
      "throp": 7861,
      "Ġnerve": 7862,
      "Ġexamination": 7863,
      "hered": 7864,
      "ĠRevolution": 7865,
      "Ġdelivery": 7866,
      "Ġproved": 7867,
      "Ġrender": 7868,
      "Ġdepict": 7869,
      "onent": 7870,
      "Ġoperator": 7871,
      "ften": 7872,
      "Ġinterpretation": 7873,
      "Ġath": 7874,
      "'d": 7875,
      "pread": 7876,
      "%)": 7877,
      "Rem": 7878,
      "Ġvulnerable": 7879,
      "Ġrising": 7880,
      "Ġserves": 7881,
      "Ġmarried": 7882,
      "Ġfighting": 7883,
      "ĠFunction": 7884,
      "idity": 7885,
      "grad": 7886,
      "ogether": 7887,
      "Ġpurs": 7888,
      "Ġassociation": 7889,
      "ĠAdminist": 7890,
      "ðĿĲ": 7891,
      "ĠCult": 7892,
      "ĠAlgebra": 7893,
      "Ġwilling": 7894,
      "ittle": 7895,
      "blems": 7896,
      "Ġassigned": 7897,
      "Ġinstruments": 7898,
      "Ġowner": 7899,
      "ĠCat": 7900,
      "gment": 7901,
      "Ġnur": 7902,
      "Inf": 7903,
      "ĠDisc": 7904,
      "Ġacting": 7905,
      "}=\\": 7906,
      "Ġfrequent": 7907,
      "Ġlands": 7908,
      "heast": 7909,
      "amps": 7910,
      "Ġcolleagues": 7911,
      "anta": 7912,
      "ĠAcademy": 7913,
      "Ġepid": 7914,
      "Ġagency": 7915,
      "Ġtrouble": 7916,
      "acher": 7917,
      "{(": 7918,
      "acts": 7919,
      "Ġstatistical": 7920,
      "Ġconstitution": 7921,
      "çļ": 7922,
      "Ġroles": 7923,
      "contin": 7924,
      "ĠChange": 7925,
      "Ġparticle": 7926,
      "ocy": 7927,
      "Ġdeviation": 7928,
      "Ġpeak": 7929,
      "Ġparticipate": 7930,
      "Ġcats": 7931,
      "Ġscan": 7932,
      "ĠThree": 7933,
      "plant": 7934,
      "ĠGrade": 7935,
      "Ġstuff": 7936,
      "Ġdisappe": 7937,
      "Ret": 7938,
      "Ġfounded": 7939,
      "ĠTry": 7940,
      "iences": 7941,
      "Ġunion": 7942,
      "ĠGraph": 7943,
      "Ġswim": 7944,
      "ĠIreland": 7945,
      "effect": 7946,
      "Ġfaces": 7947,
      "ĠCommittee": 7948,
      "Ġoperate": 7949,
      "Ġinterpre": 7950,
      "Ġorganisms": 7951,
      "itt": 7952,
      "esting": 7953,
      "ĠOcean": 7954,
      "ĊĠĠĠĠĠĠĠĠĊĠĠĠĠĠĠĠ": 7955,
      "utch": 7956,
      "Value": 7957,
      "Ġdepartment": 7958,
      "Ġcharacteristic": 7959,
      "Ġcryst": 7960,
      "Ġpreparation": 7961,
      "ĠAccess": 7962,
      "Ġcontamin": 7963,
      "ressive": 7964,
      "total": 7965,
      "ĠPo": 7966,
      "leq": 7967,
      "ĠNorthern": 7968,
      "Ġphotograph": 7969,
      "Ġveter": 7970,
      "ersion": 7971,
      "Ġballs": 7972,
      "Ġboundary": 7973,
      "CM": 7974,
      "born": 7975,
      "layer": 7976,
      "Ġlists": 7977,
      "Ġdioxide": 7978,
      "Ġresulted": 7979,
      "Ġstroke": 7980,
      "ĠSciences": 7981,
      "lication": 7982,
      "Ġvertices": 7983,
      "rating": 7984,
      "emia": 7985,
      "ollowing": 7986,
      "Pre": 7987,
      "ĠWood": 7988,
      "Ġterritory": 7989,
      "çļĦ": 7990,
      "Ġequality": 7991,
      "dataset": 7992,
      "VER": 7993,
      "Ġinstalled": 7994,
      "ĠJohns": 7995,
      "ĠSimilarly": 7996,
      "Ġagent": 7997,
      "Ġdenotes": 7998,
      "eries": 7999,
      "ĠMichael": 8000,
      "Ġcomposed": 8001,
      "Ġorbit": 8002,
      "Ġtight": 8003,
      "ĠItaly": 8004,
      "Ġ{\"": 8005,
      "asters": 8006,
      "agraph": 8007,
      "eq": 8008,
      "Ġpsychological": 8009,
      "Ġteen": 8010,
      "Ġlogger": 8011,
      "Ġmeth": 8012,
      "Ġenables": 8013,
      "orted": 8014,
      "ĠMer": 8015,
      "raining": 8016,
      "Ġroutine": 8017,
      "Ġfer": 8018,
      "cap": 8019,
      "uits": 8020,
      "Ġbeliefs": 8021,
      "Ġtargets": 8022,
      "ĠRichard": 8023,
      "Ġinstant": 8024,
      "norm": 8025,
      "show": 8026,
      "ĠValley": 8027,
      "ih": 8028,
      "ĠHelp": 8029,
      "abil": 8030,
      "objects": 8031,
      "ritis": 8032,
      "Ġbranches": 8033,
      "Ġsubstances": 8034,
      "Ġanalog": 8035,
      "Ġobesity": 8036,
      "Ġgrew": 8037,
      "Ċĉĉĉ": 8038,
      "Ġcircular": 8039,
      "ilation": 8040,
      "ĠScott": 8041,
      "Ġcenters": 8042,
      "`.": 8043,
      "ĠCancer": 8044,
      "div": 8045,
      "¿½": 8046,
      "ĠConsequently": 8047,
      "ugh": 8048,
      "GB": 8049,
      "theless": 8050,
      "Ġproven": 8051,
      "Ġfunds": 8052,
      "ĠCON": 8053,
      "aired": 8054,
      "Ġreward": 8055,
      "ĠUnit": 8056,
      "ĠScot": 8057,
      "Pol": 8058,
      "Because": 8059,
      "OW": 8060,
      "opic": 8061,
      "Ġmathematicians": 8062,
      "ĠEngineering": 8063,
      "essions": 8064,
      "oded": 8065,
      "Ġoffering": 8066,
      "Ġdiss": 8067,
      "ima": 8068,
      "Ġcrime": 8069,
      "Table": 8070,
      "onents": 8071,
      "ĠOx": 8072,
      "Ġwhenever": 8073,
      "Ġwheel": 8074,
      "device": 8075,
      "Ġmembr": 8076,
      "Ġhappening": 8077,
      "riend": 8078,
      "orses": 8079,
      "Ġusual": 8080,
      "Ġemployment": 8081,
      "ione": 8082,
      "Ġspending": 8083,
      "ĠFort": 8084,
      "ĠMax": 8085,
      "Mat": 8086,
      "ĠSpecifically": 8087,
      "ĠSpain": 8088,
      "Ġcarb": 8089,
      "Ġpd": 8090,
      "Ġmand": 8091,
      "ĠEth": 8092,
      "Ġrid": 8093,
      "American": 8094,
      "Ġalgorithms": 8095,
      "Ġrecept": 8096,
      "Ġrealize": 8097,
      "Even": 8098,
      "Ġships": 8099,
      "duce": 8100,
      "ĠSpecial": 8101,
      "ĠVer": 8102,
      "Ġidentifying": 8103,
      "IST": 8104,
      "onym": 8105,
      "static": 8106,
      "Ġdynamic": 8107,
      "Ġadds": 8108,
      "eras": 8109,
      "Ġdiagnosed": 8110,
      "Ġended": 8111,
      "Ġdistances": 8112,
      "Given": 8113,
      "ymph": 8114,
      "Ġlowest": 8115,
      "Ġgenerations": 8116,
      "Ġforg": 8117,
      "Ġeastern": 8118,
      "mega": 8119,
      "Ġcoding": 8120,
      "Ġcash": 8121,
      "txt": 8122,
      "ushed": 8123,
      "Ġintegrated": 8124,
      "Ġneur": 8125,
      "Ġtherap": 8126,
      "Ġadministr": 8127,
      "lik": 8128,
      "edu": 8129,
      "Ġvertex": 8130,
      "Ġexclud": 8131,
      "Ġmice": 8132,
      "char": 8133,
      "Ġsomewhat": 8134,
      "ĠOptional": 8135,
      "ĠPop": 8136,
      "illa": 8137,
      "Ġpassage": 8138,
      "Ġentered": 8139,
      "ĠâĪĪ": 8140,
      "Ġthrow": 8141,
      "Ġoutdo": 8142,
      "Ġcontrols": 8143,
      "Ġoptimal": 8144,
      "Ġextend": 8145,
      "Ġexponential": 8146,
      "ĠRoyal": 8147,
      "Ġingredients": 8148,
      "Ġpolitics": 8149,
      "Ġgreenhouse": 8150,
      "ĠHy": 8151,
      "rooms": 8152,
      "Ġlaunched": 8153,
      "Ġfocusing": 8154,
      "Number": 8155,
      "ett": 8156,
      "endicular": 8157,
      "Ġpossibilities": 8158,
      "Ġpainting": 8159,
      "Ġorth": 8160,
      "Ġanalys": 8161,
      "ultip": 8162,
      "Ġhem": 8163,
      "ĠHT": 8164,
      "ediat": 8165,
      "Ġintervals": 8166,
      "Ġindustries": 8167,
      "Where": 8168,
      "itled": 8169,
      "esis": 8170,
      "lean": 8171,
      "iral": 8172,
      "Ġchick": 8173,
      "ĠEmpire": 8174,
      "Ġimplications": 8175,
      "Ġreceiving": 8176,
      "Ġbanks": 8177,
      "Ġmos": 8178,
      "Ġroughly": 8179,
      "Ġfever": 8180,
      "Co": 8181,
      "Ġmeal": 8182,
      "ĠAdv": 8183,
      "po": 8184,
      "Ġboy": 8185,
      "health": 8186,
      "Ġsurve": 8187,
      "Ġautomatically": 8188,
      "ðŁ": 8189,
      "Ġdetection": 8190,
      "Ġlock": 8191,
      "yroid": 8192,
      "'):": 8193,
      "ĠDemoc": 8194,
      "Ġstimul": 8195,
      "âĪļ": 8196,
      "Ġissued": 8197,
      "rovers": 8198,
      "auth": 8199,
      "everal": 8200,
      "Ġeliminate": 8201,
      "local": 8202,
      "Ġreaching": 8203,
      "ourse": 8204,
      "ĠCarolina": 8205,
      "Ġtexts": 8206,
      "idespread": 8207,
      "Ġdigest": 8208,
      "Ġdriver": 8209,
      "ependent": 8210,
      "Ġrefuge": 8211,
      "exec": 8212,
      "ĠChicago": 8213,
      "Ġhydro": 8214,
      "pu": 8215,
      "asy": 8216,
      "Ġtens": 8217,
      "ĠLast": 8218,
      "bing": 8219,
      "Ġsmoke": 8220,
      "Ġenum": 8221,
      "making": 8222,
      "^{\\": 8223,
      "Ġexceed": 8224,
      "Ġgrows": 8225,
      "Ġfashion": 8226,
      "Ġtube": 8227,
      "Ġped": 8228,
      "Ġdecay": 8229,
      "Ġpoison": 8230,
      "ductive": 8231,
      "Finally": 8232,
      "you": 8233,
      "Ġparams": 8234,
      "Ġalgebraic": 8235,
      "Ġmetric": 8236,
      "Ġuniversal": 8237,
      "best": 8238,
      "mode": 8239,
      "Base": 8240,
      "ĠGard": 8241,
      "ÂłÂłÂłÂłÂłÂłÂł": 8242,
      "mem": 8243,
      "Ġinfo": 8244,
      "Ġrespective": 8245,
      "Ġinsight": 8246,
      "Ġ[\"": 8247,
      "Ġtissues": 8248,
      "ĠEarly": 8249,
      "Ġchoosing": 8250,
      "State": 8251,
      "Ġdenoted": 8252,
      "inate": 8253,
      "rey": 8254,
      "ola": 8255,
      "Ġteams": 8256,
      "Ġbrow": 8257,
      "ĠStandard": 8258,
      "quit": 8259,
      "ĠResources": 8260,
      "Ġfinished": 8261,
      "osion": 8262,
      "Ge": 8263,
      "Ġoutbre": 8264,
      "ĠDivision": 8265,
      "Ġaward": 8266,
      "?\"": 8267,
      "Ġapproved": 8268,
      "ĠCreate": 8269,
      "ĠNumbers": 8270,
      "ano": 8271,
      "Ġperforming": 8272,
      "Ġconversation": 8273,
      "Ġtons": 8274,
      "outs": 8275,
      "Point": 8276,
      "Ġforming": 8277,
      "Ġliv": 8278,
      "Ġsigned": 8279,
      "Ġcot": 8280,
      "Ġpackage": 8281,
      "ĠPhysics": 8282,
      "Ġadvantages": 8283,
      "esides": 8284,
      "Ġequil": 8285,
      "Ġamazing": 8286,
      "Ġ&=": 8287,
      "ala": 8288,
      "Ġinvestigation": 8289,
      "omorph": 8290,
      "inn": 8291,
      "charge": 8292,
      "ĠBrown": 8293,
      "Ġstreet": 8294,
      "}-": 8295,
      "Ġawait": 8296,
      "Ġfacing": 8297,
      "Ġbeauty": 8298,
      "ĠAgricult": 8299,
      "ĠPass": 8300,
      "Ġconsideration": 8301,
      "iest": 8302,
      "Ġmining": 8303,
      "TI": 8304,
      "ĠBab": 8305,
      "apse": 8306,
      "Ġneighborhood": 8307,
      "ĠCamp": 8308,
      "ĠHall": 8309,
      "ĠForce": 8310,
      "Path": 8311,
      "Ġfocuses": 8312,
      "Ġmarkets": 8313,
      "Ġstrongly": 8314,
      "ĠDu": 8315,
      "NS": 8316,
      "ĠDou": 8317,
      "ĠContin": 8318,
      "ĠSection": 8319,
      "ooking": 8320,
      "Ġseeking": 8321,
      "Ġprecisely": 8322,
      "Ġreasoning": 8323,
      "Ġtheories": 8324,
      "KE": 8325,
      "ĠTO": 8326,
      "Ġ//": 8327,
      "Ġfairly": 8328,
      "grid": 8329,
      "Ġfurn": 8330,
      "Ġblow": 8331,
      "ribute": 8332,
      "Ġnucle": 8333,
      "Ġrice": 8334,
      "Ġconstantly": 8335,
      "Ġphoto": 8336,
      "Ġscope": 8337,
      "ui": 8338,
      "Ġstack": 8339,
      "Ġdefe": 8340,
      "Expl": 8341,
      "Thus": 8342,
      "Ġdispl": 8343,
      "common": 8344,
      "Ġdepart": 8345,
      "Ġflows": 8346,
      "gov": 8347,
      "Ġcombine": 8348,
      "Ġcalories": 8349,
      "Ġspectrum": 8350,
      "onia": 8351,
      "Ġattempts": 8352,
      "ĠEffect": 8353,
      "Ġtheme": 8354,
      "Ġtranslation": 8355,
      "Ġstronger": 8356,
      "ourage": 8357,
      "ĠNever": 8358,
      "čĊčĊĠĠĠ": 8359,
      "arsh": 8360,
      "hyth": 8361,
      "ao": 8362,
      "linear": 8363,
      "ĠNative": 8364,
      "Ġpassword": 8365,
      "Ġadequate": 8366,
      "sample": 8367,
      "stack": 8368,
      "Today": 8369,
      "ercise": 8370,
      "ĠEU": 8371,
      "ĠWho": 8372,
      "Every": 8373,
      "session": 8374,
      "QU": 8375,
      "ailability": 8376,
      "Therefore": 8377,
      "chain": 8378,
      "ĠFund": 8379,
      "Ġstead": 8380,
      "Ġphenomenon": 8381,
      "dy": 8382,
      "Ġprecise": 8383,
      "forward": 8384,
      "select": 8385,
      "Ġongoing": 8386,
      "Ġincred": 8387,
      "Ġsubset": 8388,
      "ĠIns": 8389,
      "ĠPractice": 8390,
      "Ġnumerical": 8391,
      "score": 8392,
      "Ġdesigns": 8393,
      "ĠCurrent": 8394,
      "rin": 8395,
      "func": 8396,
      "uts": 8397,
      "oir": 8398,
      "SI": 8399,
      "Ġinterior": 8400,
      "Ġundert": 8401,
      "âĶ": 8402,
      "andon": 8403,
      "ĠFace": 8404,
      "Ġgraphs": 8405,
      "Ġmi": 8406,
      "Ġoblig": 8407,
      "appy": 8408,
      "Ġrepair": 8409,
      "Ġsatellite": 8410,
      "ĠGeorg": 8411,
      "Ġlengths": 8412,
      "pdf": 8413,
      "after": 8414,
      "igate": 8415,
      "Dis": 8416,
      "Ġpra": 8417,
      "mail": 8418,
      "ounce": 8419,
      "Ġadvert": 8420,
      "idential": 8421,
      "Sp": 8422,
      "Ġcounty": 8423,
      "Ġparticipation": 8424,
      "Ġfascinating": 8425,
      "orate": 8426,
      "MO": 8427,
      "Ġdefect": 8428,
      "Ġlimitations": 8429,
      "ishment": 8430,
      "ears": 8431,
      "only": 8432,
      "adder": 8433,
      "big": 8434,
      "ĠSchol": 8435,
      "Char": 8436,
      "Ġvib": 8437,
      "Ġcav": 8438,
      "Ġstability": 8439,
      "ĠClimate": 8440,
      "Ġguidance": 8441,
      "Ġkidney": 8442,
      "Inter": 8443,
      "Image": 8444,
      "arios": 8445,
      "bur": 8446,
      "ĠExamples": 8447,
      "direct": 8448,
      "uler": 8449,
      "ĠTV": 8450,
      "Ġinterface": 8451,
      "Ġlogical": 8452,
      "ĠName": 8453,
      "eenth": 8454,
      "deg": 8455,
      "eness": 8456,
      "Ġcommitted": 8457,
      "Ġminerals": 8458,
      "Ġcopper": 8459,
      "^(": 8460,
      "azine": 8461,
      "Ġassumed": 8462,
      "Ġmolecular": 8463,
      "Ġcoin": 8464,
      "Ġfemales": 8465,
      "Ġrecommendations": 8466,
      "Ġglucose": 8467,
      "Ġgeometric": 8468,
      "initial": 8469,
      "Ġblind": 8470,
      "bability": 8471,
      "Ġwidespread": 8472,
      "Ġbath": 8473,
      "Ġmales": 8474,
      "Ġrelief": 8475,
      "ented": 8476,
      "Ġtub": 8477,
      "eling": 8478,
      "ĠNetwork": 8479,
      "press": 8480,
      "Ġexperimental": 8481,
      "Ġmoisture": 8482,
      "ĠCommunity": 8483,
      "ĠDen": 8484,
      "Ġdamaged": 8485,
      "Ġpreced": 8486,
      "rightarrow": 8487,
      "Ġescape": 8488,
      "ells": 8489,
      "system": 8490,
      "ĠKingdom": 8491,
      "Ġinformed": 8492,
      "Ġmagic": 8493,
      "Cre": 8494,
      "Ġintensity": 8495,
      "ensed": 8496,
      "gers": 8497,
      "std": 8498,
      "ditional": 8499,
      "Ġaims": 8500,
      "FT": 8501,
      "hyd": 8502,
      "Ġtangent": 8503,
      "ĠBrazil": 8504,
      "Ġelection": 8505,
      "à¸": 8506,
      "Ġacute": 8507,
      "Ġcharacterized": 8508,
      "Ġcarrying": 8509,
      "amins": 8510,
      "Ġlegislation": 8511,
      "aws": 8512,
      "ĠBal": 8513,
      "Ġquarter": 8514,
      "debug": 8515,
      "ĠPath": 8516,
      "Ġsimplify": 8517,
      "Ġinsulin": 8518,
      "Ġprofile": 8519,
      "nee": 8520,
      "rium": 8521,
      "Input": 8522,
      "Ġplenty": 8523,
      ".'": 8524,
      "Wid": 8525,
      "Ġgradually": 8526,
      "Ġcollections": 8527,
      "Ġsurprising": 8528,
      "Ġpresents": 8529,
      "Ġduration": 8530,
      "replace": 8531,
      "ĠVictor": 8532,
      "Ġorgans": 8533,
      "Ġcomfortable": 8534,
      "Ġloved": 8535,
      "Ġdeclared": 8536,
      "ivered": 8537,
      "erving": 8538,
      "ĠServices": 8539,
      "Ġenemy": 8540,
      "ĠAR": 8541,
      "Line": 8542,
      "Ġarithmetic": 8543,
      "ĠJac": 8544,
      "rection": 8545,
      "Ġsought": 8546,
      "Ġprocessed": 8547,
      "ugg": 8548,
      "cyclop": 8549,
      "Ġanywhere": 8550,
      "Ġran": 8551,
      "Ġrectangle": 8552,
      "Ġdates": 8553,
      "ĠSep": 8554,
      "Ġartists": 8555,
      "newcommand": 8556,
      "Ne": 8557,
      "Ġfabric": 8558,
      "Ġdirected": 8559,
      "sis": 8560,
      "Ġburning": 8561,
      "Ġ\\(": 8562,
      "ĠEastern": 8563,
      "%,": 8564,
      "ureau": 8565,
      "Ġcorrelation": 8566,
      "Ġsphere": 8567,
      "ĠOrig": 8568,
      "ady": 8569,
      "ĠMS": 8570,
      "Ġkeys": 8571,
      "iated": 8572,
      "delta": 8573,
      "Ġpaint": 8574,
      "ĠSystems": 8575,
      "Ġmood": 8576,
      "Ġquantum": 8577,
      "Ġrivers": 8578,
      "ĠHoly": 8579,
      "kl": 8580,
      "âĤģ": 8581,
      "Ġinher": 8582,
      "Ġlens": 8583,
      "Ġbabies": 8584,
      "oz": 8585,
      "Ġbuff": 8586,
      "Ġschedule": 8587,
      "etal": 8588,
      "utrition": 8589,
      "ĠPlay": 8590,
      "String": 8591,
      "ãĤ": 8592,
      "Ġfacility": 8593,
      "Ġdys": 8594,
      "Ġpreventing": 8595,
      "xx": 8596,
      "Ġbiod": 8597,
      "itamin": 8598,
      "Ġnewly": 8599,
      "uels": 8600,
      "ĠFour": 8601,
      "Ġcollaboration": 8602,
      "ĠParty": 8603,
      "Ġcrim": 8604,
      "CON": 8605,
      "Have": 8606,
      "ãĢ": 8607,
      "next": 8608,
      "Ġviruses": 8609,
      "rane": 8610,
      "Ġsacr": 8611,
      "Ġlung": 8612,
      "ĠItalian": 8613,
      "Ġille": 8614,
      "Ġedition": 8615,
      "Ġtrace": 8616,
      "Ġseparated": 8617,
      "unit": 8618,
      "Ġintellectual": 8619,
      "Ġpublication": 8620,
      "Ġartist": 8621,
      "Ġdiffer": 8622,
      "Ġrecon": 8623,
      "Check": 8624,
      "Ġadjacent": 8625,
      "Ġrenewable": 8626,
      "aland": 8627,
      "Ġdy": 8628,
      "Ġencounter": 8629,
      "Rel": 8630,
      "lat": 8631,
      "Ġweights": 8632,
      "Ġagents": 8633,
      "apes": 8634,
      "Ġvan": 8635,
      "iah": 8636,
      "ĠLim": 8637,
      "reek": 8638,
      "ounded": 8639,
      "osh": 8640,
      "izers": 8641,
      "Ġvideos": 8642,
      "Ġinstances": 8643,
      "perm": 8644,
      "Ġcomparing": 8645,
      "ĠThough": 8646,
      "Also": 8647,
      "Ġinfluenced": 8648,
      "Ġannounced": 8649,
      "Ġweigh": 8650,
      "EG": 8651,
      "Ġdose": 8652,
      "Ġseemed": 8653,
      "ĠWal": 8654,
      "Object": 8655,
      "ĠSecurity": 8656,
      "Ġthereby": 8657,
      "labels": 8658,
      "HD": 8659,
      "ĠIrish": 8660,
      "Ġabsence": 8661,
      "Ġheating": 8662,
      "TR": 8663,
      "Ġnervous": 8664,
      "Ġpharm": 8665,
      "Ġconnecting": 8666,
      "Ġmetabol": 8667,
      "ĠUt": 8668,
      "ĠBill": 8669,
      "Ġrocks": 8670,
      "Ġholes": 8671,
      "Source": 8672,
      "Before": 8673,
      "iki": 8674,
      "Ġsubstantial": 8675,
      "thritis": 8676,
      "ĠHand": 8677,
      "Cur": 8678,
      "Ġoccurring": 8679,
      "Ġpermission": 8680,
      "pload": 8681,
      "etics": 8682,
      "Ġcube": 8683,
      "rog": 8684,
      "ĠAC": 8685,
      "Under": 8686,
      "TO": 8687,
      "igan": 8688,
      "Ġsimultaneously": 8689,
      "acco": 8690,
      "Ġnose": 8691,
      "Ġdatetime": 8692,
      "airy": 8693,
      "fast": 8694,
      "ĠTotal": 8695,
      "Ġsampling": 8696,
      "ãĥ": 8697,
      "ude": 8698,
      "Ġfinds": 8699,
      "uality": 8700,
      "Ġremoval": 8701,
      "bas": 8702,
      "ĠPlant": 8703,
      "Ġhistoric": 8704,
      "Two": 8705,
      "Ġconfiguration": 8706,
      "ani": 8707,
      "Ġpasses": 8708,
      "Ġsubsc": 8709,
      "ĠForest": 8710,
      "haust": 8711,
      "Ġtoken": 8712,
      "*-": 8713,
      "Ġformulas": 8714,
      "Ġsilver": 8715,
      "ĠCode": 8716,
      "miss": 8717,
      "ohyd": 8718,
      "Ġdescript": 8719,
      "Ġdot": 8720,
      "Ġprovider": 8721,
      "hab": 8722,
      "Ġregression": 8723,
      "Ġrestric": 8724,
      "clusions": 8725,
      "ambda": 8726,
      "Ġrobot": 8727,
      "Ġserving": 8728,
      "Ġcaptured": 8729,
      "Ġconfirmed": 8730,
      "|\\": 8731,
      "olds": 8732,
      "ibl": 8733,
      "ĠLearn": 8734,
      "Ġcontrovers": 8735,
      "Ġpanel": 8736,
      "Ġbreaking": 8737,
      "Ġmixture": 8738,
      "rene": 8739,
      "Ġvictims": 8740,
      "ĠMartin": 8741,
      "Ġversions": 8742,
      "à¤¾": 8743,
      "oples": 8744,
      "zone": 8745,
      "Ġrequests": 8746,
      "delete": 8747,
      "ï¿½": 8748,
      "ĠDown": 8749,
      "endar": 8750,
      "gon": 8751,
      "Ġsuppose": 8752,
      "Ġstructural": 8753,
      "ĠConst": 8754,
      "heric": 8755,
      ")):": 8756,
      "Ġcontribution": 8757,
      "uid": 8758,
      "olving": 8759,
      "Ġtreating": 8760,
      "Ġperfectly": 8761,
      "Ġshock": 8762,
      "night": 8763,
      "including": 8764,
      "Ġchances": 8765,
      "Ġopposed": 8766,
      "ĊĊĠĠĠĠĠĠĠĠĠĠĠĠĠĠĠ": 8767,
      "Ġtrends": 8768,
      "Ġmortality": 8769,
      "Ġkin": 8770,
      "Ġdestruction": 8771,
      "ĠSuper": 8772,
      "Ġpaths": 8773,
      "Ġparas": 8774,
      "Ġengaged": 8775,
      "ĠFamily": 8776,
      "forcement": 8777,
      "Ġplug": 8778,
      "Ġexcessive": 8779,
      "Ġhonor": 8780,
      "izz": 8781,
      "ĠWindows": 8782,
      "Ġvarieties": 8783,
      "Ġnegot": 8784,
      "Ġspan": 8785,
      "mons": 8786,
      "she": 8787,
      "Ġmapping": 8788,
      "arest": 8789,
      "Ġcomplement": 8790,
      "ĠAtlantic": 8791,
      "Ġpit": 8792,
      "Ġreveal": 8793,
      "âĢ¦âĢ¦": 8794,
      "Ġgained": 8795,
      "Ġearthqu": 8796,
      "Ġflower": 8797,
      "Ġhun": 8798,
      "amination": 8799,
      "ventions": 8800,
      "elly": 8801,
      "Ġconfirm": 8802,
      "Ġconverted": 8803,
      "Ġcleaning": 8804,
      "pare": 8805,
      "Ġdetected": 8806,
      "rape": 8807,
      "ĠHill": 8808,
      "SP": 8809,
      "ĠOnline": 8810,
      "ĠAuthor": 8811,
      "books": 8812,
      "rive": 8813,
      "Ġstores": 8814,
      "Ġcommission": 8815,
      "Ġassumption": 8816,
      "ĠArticle": 8817,
      "parser": 8818,
      "Ġcovering": 8819,
      "Ġgrams": 8820,
      "Ġcustomer": 8821,
      "Ġarchae": 8822,
      "Ġhusband": 8823,
      "Node": 8824,
      "Ġoutl": 8825,
      "Ġposts": 8826,
      "Ġorders": 8827,
      "otype": 8828,
      "usal": 8829,
      "ĠChristmas": 8830,
      "Ġpregnant": 8831,
      "Ġrarely": 8832,
      "Ġengineers": 8833,
      "Ġdifferently": 8834,
      "ĠViet": 8835,
      "MM": 8836,
      "Ġcontemporary": 8837,
      "Ġdrain": 8838,
      "ieving": 8839,
      "ustain": 8840,
      "Ġkeeps": 8841,
      "Ġvolcan": 8842,
      "Ġperpendicular": 8843,
      "Ġsharp": 8844,
      "Ġbringing": 8845,
      "sen": 8846,
      "lishing": 8847,
      "Ġmaintained": 8848,
      "Ġcouns": 8849,
      "ï¼Į": 8850,
      "ĠTH": 8851,
      "placement": 8852,
      "Ġlights": 8853,
      "Ġblank": 8854,
      "âĤ¬": 8855,
      "Ġracial": 8856,
      "Ġapplies": 8857,
      "Ġflour": 8858,
      "Ġbiology": 8859,
      "Ġabandon": 8860,
      "fields": 8861,
      "Ġnice": 8862,
      "Ġordinary": 8863,
      "Ġemp": 8864,
      "Ġbias": 8865,
      "Ġfalling": 8866,
      "isdom": 8867,
      "tf": 8868,
      "Ġlikelihood": 8869,
      "Ġeffectiveness": 8870,
      "Ġcalling": 8871,
      "Ġspl": 8872,
      "Ġdelivered": 8873,
      "Ġatoms": 8874,
      "kins": 8875,
      "Ġremind": 8876,
      "itals": 8877,
      "Ġisolated": 8878,
      "Ġintest": 8879,
      "Ġfaced": 8880,
      "ĠProduct": 8881,
      "Ġcoastal": 8882,
      "Ġauthent": 8883,
      "ĠClick": 8884,
      "Ġsaved": 8885,
      "ĠYoung": 8886,
      "Ġrespiratory": 8887,
      "Requ": 8888,
      "asty": 8889,
      "Ġlegisl": 8890,
      "amine": 8891,
      "ĠDespite": 8892,
      "Ġdifficulties": 8893,
      "Ġdemands": 8894,
      "Ġeditor": 8895,
      "Ġaccurately": 8896,
      "}}$": 8897,
      "ptic": 8898,
      "ctu": 8899,
      "Right": 8900,
      "roat": 8901,
      "ogue": 8902,
      "UP": 8903,
      "ĠAgency": 8904,
      "ĠOxford": 8905,
      "Ġsitting": 8906,
      "Ġwarning": 8907,
      "??": 8908,
      "ĠStatistics": 8909,
      "Att": 8910,
      "Ġirrit": 8911,
      "Pub": 8912,
      "ĠTim": 8913,
      "HA": 8914,
      "oil": 8915,
      "ĠAmong": 8916,
      "Ġremainder": 8917,
      "Ġclaimed": 8918,
      "heimer": 8919,
      "Ġhel": 8920,
      "ĠLow": 8921,
      ".\")": 8922,
      "Ġweapons": 8923,
      "Ġreasonable": 8924,
      "chen": 8925,
      "ĠPC": 8926,
      "Ġdecreased": 8927,
      "Ð»": 8928,
      "comfort": 8929,
      "ĠView": 8930,
      "ĠIntroduction": 8931,
      "Ġarts": 8932,
      "Ġtract": 8933,
      "ostic": 8934,
      "Ġclothing": 8935,
      "Ġvariance": 8936,
      "address": 8937,
      "Ġgut": 8938,
      "ipher": 8939,
      "Ġbits": 8940,
      "ORD": 8941,
      "Ġchest": 8942,
      "Ġroads": 8943,
      "Ġepis": 8944,
      "Ġquot": 8945,
      "Net": 8946,
      "ĠIV": 8947,
      "Ġbrush": 8948,
      "Ġvocabulary": 8949,
      "results": 8950,
      "Ġprinted": 8951,
      "Case": 8952,
      "mes": 8953,
      "Ġunusual": 8954,
      "Ġturb": 8955,
      "Ġrecover": 8956,
      "May": 8957,
      "ĠSup": 8958,
      "Ġdesert": 8959,
      "Ġvariations": 8960,
      "Ġislands": 8961,
      "ading": 8962,
      "ĠProcess": 8963,
      "ĠAsian": 8964,
      "Ġwaiting": 8965,
      "ĠMoon": 8966,
      "IO": 8967,
      "Ġlake": 8968,
      "Ġchlor": 8969,
      "Ġarc": 8970,
      "ĠMen": 8971,
      "ĠUnfortunately": 8972,
      "Ġconstraints": 8973,
      "Ġbreeding": 8974,
      "task": 8975,
      "rance": 8976,
      "Ġwriters": 8977,
      "Ġprinting": 8978,
      "Ġfarming": 8979,
      "Ġlosses": 8980,
      "Ġlaid": 8981,
      "QL": 8982,
      "ruption": 8983,
      "Ġfract": 8984,
      "Ġreaches": 8985,
      "akistan": 8986,
      "Ġvisitors": 8987,
      "also": 8988,
      "mathcal": 8989,
      "ĠÎ¸": 8990,
      "Supp": 8991,
      "azon": 8992,
      "mid": 8993,
      "Ġcharged": 8994,
      "Ġdiscrimination": 8995,
      ":**": 8996,
      "ĠJun": 8997,
      "Ġarrest": 8998,
      "earing": 8999,
      "Ġabnormal": 9000,
      "angers": 9001,
      "ĠMel": 9002,
      "perties": 9003,
      "email": 9004,
      "Ġbrand": 9005,
      "Ġsport": 9006,
      "Ġbuck": 9007,
      "Ġsched": 9008,
      "send": 9009,
      "ĠText": 9010,
      "ĠIndeed": 9011,
      "Ġâī¤": 9012,
      "Ġcoverage": 9013,
      "Ġobst": 9014,
      "Ġstrain": 9015,
      "ĠNaz": 9016,
      "stars": 9017,
      "Ġencouraged": 9018,
      "Ġadvent": 9019,
      "Ġcalculating": 9020,
      "Ġworst": 9021,
      "`,": 9022,
      "Ġjudge": 9023,
      "oston": 9024,
      "ĠThanks": 9025,
      "Ġlogar": 9026,
      "Us": 9027,
      "Ġboundaries": 9028,
      "'].": 9029,
      "Ġtemp": 9030,
      "Ġaccommod": 9031,
      "oga": 9032,
      "ovascular": 9033,
      "Ġfed": 9034,
      "Ġscenarios": 9035,
      "Ġpref": 9036,
      "Ġconsiderable": 9037,
      "Ġcooking": 9038,
      "EF": 9039,
      "Ġphrase": 9040,
      "Ġcompens": 9041,
      "Ġbeings": 9042,
      "Ġauto": 9043,
      "Ġthermal": 9044,
      "ĠIndians": 9045,
      "Ġwindows": 9046,
      "ĠCentre": 9047,
      "Ġgro": 9048,
      "Ġdispos": 9049,
      "utely": 9050,
      "Ġdirectory": 9051,
      "ĠDistrict": 9052,
      "IDS": 9053,
      "Ġfault": 9054,
      "Ġplanned": 9055,
      "ymbol": 9056,
      "oured": 9057,
      "Ġinnovation": 9058,
      "ĠPot": 9059,
      "Ġbool": 9060,
      "ĠRom": 9061,
      "Ġprohib": 9062,
      "Ġconsec": 9063,
      "Ġoverw": 9064,
      "ethe": 9065,
      "ĠObs": 9066,
      "module": 9067,
      "omatic": 9068,
      "Ġmomentum": 9069,
      "ĠSund": 9070,
      ",'": 9071,
      "Ġcombat": 9072,
      "Ġviewed": 9073,
      "arters": 9074,
      "ĠSecret": 9075,
      "Ġvisited": 9076,
      "Ċĉĉĉĉ": 9077,
      "tx": 9078,
      "eting": 9079,
      "achers": 9080,
      "Ġnotion": 9081,
      "Ġofficers": 9082,
      "Ġcoc": 9083,
      "ĠLinear": 9084,
      "Ġcrew": 9085,
      "true": 9086,
      "Ġcriminal": 9087,
      "Ġinteractive": 9088,
      "yal": 9089,
      "ceptions": 9090,
      "access": 9091,
      "Ġsla": 9092,
      "Ġexamined": 9093,
      "Ġmicrosc": 9094,
      "ĠMD": 9095,
      "Ġdictionary": 9096,
      "anned": 9097,
      "olesc": 9098,
      "Ġefficiently": 9099,
      "Ġdefense": 9100,
      "opath": 9101,
      "Ġmicrob": 9102,
      "Ġmedian": 9103,
      "Ġhorses": 9104,
      "ĠGrand": 9105,
      "Ġnitrogen": 9106,
      "Ġrepeat": 9107,
      "Ġguard": 9108,
      "Ġhomework": 9109,
      "uber": 9110,
      "Ġscientist": 9111,
      "Ġwine": 9112,
      "Sm": 9113,
      "Ġprominent": 9114,
      "Ġmaxim": 9115,
      "Ġton": 9116,
      "Ġheavily": 9117,
      "pay": 9118,
      "Ġremoving": 9119,
      "enter": 9120,
      "Ġscreening": 9121,
      "ĠSS": 9122,
      "Ġphosph": 9123,
      "ĠIndust": 9124,
      "product": 9125,
      "Ġintent": 9126,
      "Ġadm": 9127,
      "Ġclub": 9128,
      "']['": 9129,
      "ĠCalculate": 9130,
      "Ġintersection": 9131,
      "ylvan": 9132,
      "ĠCP": 9133,
      "ategory": 9134,
      "Ġbeans": 9135,
      "Ġhormone": 9136,
      "Please": 9137,
      "ĊĠĠĠĠĠĠĠĠĠĠĠĠĠĠĠĠĠĠĠĠĠĠĠĠĠĠĠĠĠĠĠĠĠĠĠĠĠĠĠĠĠĠĠĠĠĠĠĠ": 9138,
      "regular": 9139,
      "ĠBack": 9140,
      "Ġimmigr": 9141,
      "Ġelementary": 9142,
      "Ġtemple": 9143,
      "Ġcomplain": 9144,
      "ĠCross": 9145,
      "Ġye": 9146,
      "Ġgalax": 9147,
      "ĠAgain": 9148,
      "Ġmanager": 9149,
      "rug": 9150,
      "ĠZealand": 9151,
      "Ġhealing": 9152,
      "Ġpreserve": 9153,
      "Ġassets": 9154,
      "ĠDeterm": 9155,
      "Ġharder": 9156,
      "Ġidentification": 9157,
      "Ġsensor": 9158,
      "Ġabilities": 9159,
      "Ġhur": 9160,
      "Ġinfant": 9161,
      "ĠWithout": 9162,
      "Ġtension": 9163,
      "feed": 9164,
      "description": 9165,
      "Eng": 9166,
      "Ġconsume": 9167,
      "ĠAdministration": 9168,
      "Ġdriven": 9169,
      "Ġasthma": 9170,
      "bot": 9171,
      "ĠDC": 9172,
      "Ġfriction": 9173,
      "Ġsummar": 9174,
      "tor": 9175,
      "ĠHor": 9176,
      "Ġhazard": 9177,
[...]
